{
  "version": "1.0",
  "truncation": null,
  "padding": null,
  "added_tokens": [
    {
      "id": 0,
      "content": "[PAD]",
      "single_word": false,
      "lstrip": false,
      "rstrip": false,
      "normalized": false,
      "special": true
    },
    {
      "id": 1,
      "content": "[UNK]",
      "single_word": false,
      "lstrip": false,
      "rstrip": false,
      "normalized": false,
      "special": true
    },
    {
      "id": 2,
      "content": "[CLS]",
      "single_word": false,
      "lstrip": false,
      "rstrip": false,
      "normalized": false,
      "special": true
    },
    {
      "id": 3,
      "content": "[SEP]",
      "single_word": false,
      "lstrip": false,
      "rstrip": false,
      "normalized": false,
      "special": true
    },
    {
      "id": 4,
      "content": "[MASK]",
      "single_word": false,
      "lstrip": false,
      "rstrip": false,
      "normalized": false,
      "special": true
    }
  ],
  "normalizer": {
    "type": "Sequence",
    "normalizers": [
      {
        "type": "NFD"
      },
      {
        "type": "Lowercase"
      },
      {
        "type": "StripAccents"
      }
    ]
  },
  "pre_tokenizer": {
    "type": "ByteLevel",
    "add_prefix_space": true,
    "trim_offsets": true,
    "use_regex": true
  },
  "post_processor": {
    "type": "TemplateProcessing",
    "single": [
      {
        "SpecialToken": {
          "id": "[CLS]",
          "type_id": 0
        }
      },
      {
        "Sequence": {
          "id": "A",
          "type_id": 0
        }
      },
      {
        "SpecialToken": {
          "id": "[SEP]",
          "type_id": 0
        }
      }
    ],
    "pair": [
      {
        "SpecialToken": {
          "id": "[CLS]",
          "type_id": 0
        }
      },
      {
        "Sequence": {
          "id": "A",
          "type_id": 0
        }
      },
      {
        "SpecialToken": {
          "id": "[SEP]",
          "type_id": 0
        }
      },
      {
        "Sequence": {
          "id": "B",
          "type_id": 0
        }
      },
      {
        "SpecialToken": {
          "id": "[SEP]",
          "type_id": 0
        }
      }
    ],
    "special_tokens": {
      "[CLS]": {
        "id": "[CLS]",
        "ids": [
          2
        ],
        "tokens": [
          "[CLS]"
        ]
      },
      "[SEP]": {
        "id": "[SEP]",
        "ids": [
          3
        ],
        "tokens": [
          "[SEP]"
        ]
      }
    }
  },
  "decoder": {
    "type": "ByteLevel",
    "add_prefix_space": true,
    "trim_offsets": true,
    "use_regex": true
  },
  "model": {
    "type": "BPE",
    "dropout": null,
    "unk_token": "[UNK]",
    "continuing_subword_prefix": null,
    "end_of_word_suffix": null,
    "fuse_unk": false,
    "byte_fallback": false,
    "ignore_merges": false,
    "vocab": {
      "[PAD]": 0,
      "[UNK]": 1,
      "[CLS]": 2,
      "[SEP]": 3,
      "[MASK]": 4,
      "!": 5,
      "#": 6,
      "$": 7,
      "%": 8,
      "&": 9,
      "'": 10,
      "(": 11,
      ")": 12,
      "*": 13,
      "+": 14,
      ",": 15,
      "-": 16,
      ".": 17,
      "/": 18,
      "0": 19,
      "1": 20,
      "2": 21,
      "3": 22,
      "4": 23,
      "5": 24,
      "6": 25,
      "7": 26,
      "8": 27,
      "9": 28,
      ":": 29,
      ";": 30,
      "=": 31,
      "?": 32,
      "@": 33,
      "[": 34,
      "\\": 35,
      "]": 36,
      "^": 37,
      "_": 38,
      "`": 39,
      "a": 40,
      "b": 41,
      "c": 42,
      "d": 43,
      "e": 44,
      "f": 45,
      "g": 46,
      "h": 47,
      "i": 48,
      "j": 49,
      "k": 50,
      "l": 51,
      "m": 52,
      "n": 53,
      "o": 54,
      "p": 55,
      "q": 56,
      "r": 57,
      "s": 58,
      "t": 59,
      "u": 60,
      "v": 61,
      "w": 62,
      "x": 63,
      "y": 64,
      "z": 65,
      "{": 66,
      "|": 67,
      "}": 68,
      "~": 69,
      "¡": 70,
      "¢": 71,
      "£": 72,
      "¤": 73,
      "¥": 74,
      "¦": 75,
      "§": 76,
      "¨": 77,
      "©": 78,
      "ª": 79,
      "«": 80,
      "¬": 81,
      "®": 82,
      "¯": 83,
      "°": 84,
      "±": 85,
      "²": 86,
      "³": 87,
      "´": 88,
      "µ": 89,
      "¶": 90,
      "·": 91,
      "¸": 92,
      "¹": 93,
      "º": 94,
      "»": 95,
      "¼": 96,
      "½": 97,
      "¾": 98,
      "¿": 99,
      "Â": 100,
      "Ġ": 101,
      "ġ": 102,
      "Ģ": 103,
      "Ĥ": 104,
      "ĥ": 105,
      "Ħ": 106,
      "ħ": 107,
      "Ĩ": 108,
      "ĩ": 109,
      "Ī": 110,
      "ī": 111,
      "Ĭ": 112,
      "ĭ": 113,
      "Į": 114,
      "İ": 115,
      "ı": 116,
      "Ĳ": 117,
      "ĳ": 118,
      "Ĵ": 119,
      "ĵ": 120,
      "Ķ": 121,
      "ķ": 122,
      "ĸ": 123,
      "Ĺ": 124,
      "ĺ": 125,
      "Ļ": 126,
      "ļ": 127,
      "Ľ": 128,
      "ľ": 129,
      "ŀ": 130,
      "Ł": 131,
      "ł": 132,
      "Ń": 133,
      "Ġt": 134,
      "Ġi": 135,
      "Ġa": 136,
      "Ġs": 137,
      "in": 138,
      "Ġw": 139,
      "he": 140,
      "Ġm": 141,
      "Ġb": 142,
      "ha": 143,
      "ou": 144,
      "re": 145,
      "on": 146,
      "ing": 147,
      "Ġf": 148,
      "Ġto": 149,
      "..": 150,
      "Ġg": 151,
      "Ġc": 152,
      "Ġthe": 153,
      "Ġd": 154,
      "Ġl": 155,
      "or": 156,
      "er": 157,
      "Ġn": 158,
      "ll": 159,
      "Ġy": 160,
      "nd": 161,
      "Ġp": 162,
      "st": 163,
      "ay": 164,
      "ee": 165,
      "oo": 166,
      "Ġha": 167,
      "it": 168,
      "ve": 169,
      "Ġo": 170,
      "an": 171,
      "ot": 172,
      "ow": 173,
      "Ġyou": 174,
      "me": 175,
      "Ġh": 176,
      "Ġit": 177,
      "at": 178,
      "Ġmy": 179,
      "is": 180,
      "ed": 181,
      "es": 182,
      "ar": 183,
      "Ġand": 184,
      "Ġe": 185,
      "Ġu": 186,
      "Ġin": 187,
      "Ġso": 188,
      "Ġon": 189,
      "Ġth": 190,
      "et": 191,
      "gh": 192,
      "Ġis": 193,
      "Ġtha": 194,
      "ck": 195,
      "ad": 196,
      "Ġfor": 197,
      "Ġof": 198,
      "as": 199,
      "...": 200,
      "Ġhe": 201,
      "Ġbe": 202,
      "le": 203,
      "Ġj": 204,
      "ut": 205,
      "ke": 206,
      "Ġre": 207,
      "Ġme": 208,
      "ch": 209,
      "Ġst": 210,
      "'s": 211,
      "'t": 212,
      "Ġwe": 213,
      "id": 214,
      "Ġthat": 215,
      "ght": 216,
      "Ġlo": 217,
      "out": 218,
      "Ġr": 219,
      "Ġgo": 220,
      "ver": 221,
      "ly": 222,
      "ic": 223,
      "nt": 224,
      "Ġhave": 225,
      "om": 226,
      "am": 227,
      "ust": 228,
      "Ġk": 229,
      "Ġli": 230,
      "ld": 231,
      "ight": 232,
      "all": 233,
      "ill": 234,
      "al": 235,
      "'m": 236,
      "se": 237,
      "Ġbut": 238,
      "Ġsu": 239,
      "day": 240,
      "Ġdo": 241,
      "Ġwit": 242,
      "ood": 243,
      "Ġjust": 244,
      "Ġat": 245,
      "Ġnot": 246,
      "Ġwith": 247,
      "Ġwor": 248,
      "op": 249,
      "ter": 250,
      "Ġcan": 251,
      "Ġan": 252,
      "Ġwas": 253,
      "ome": 254,
      "Ġget": 255,
      "ir": 256,
      "Ġup": 257,
      "Ġfr": 258,
      "ie": 259,
      "one": 260,
      "un": 261,
      "qu": 262,
      "Ġday": 263,
      "Ġgood": 264,
      "Ġsh": 265,
      "Ġne": 266,
      "Ġti": 267,
      "ce": 268,
      "ally": 269,
      "Ġnow": 270,
      "Ġthis": 271,
      "Ġout": 272,
      "Ġba": 273,
      "Ġtw": 274,
      "Ġwork": 275,
      "pp": 276,
      "Ġ&": 277,
      "ry": 278,
      "ore": 279,
      "en": 280,
      "Ġall": 281,
      "ain": 282,
      "ould": 283,
      "Ġno": 284,
      "Ġare": 285,
      "ast": 286,
      "th": 287,
      "Ġsome": 288,
      "ur": 289,
      "Ġwh": 290,
      "ant": 291,
      "Ġlike": 292,
      "Ġlove": 293,
      "her": 294,
      "ion": 295,
      "Ġal": 296,
      "ks": 297,
      "Ġthan": 298,
      "hat": 299,
      "quot": 300,
      "il": 301,
      "ra": 302,
      "Ġgot": 303,
      "Ġam": 304,
      "Ġtoo": 305,
      "Ġdon": 306,
      "Ġyour": 307,
      "ea": 308,
      "iss": 309,
      "Ġtoday": 310,
      "ro": 311,
      "Ġaw": 312,
      "Ġ2": 313,
      "Ġma": 314,
      "ct": 315,
      "ink": 316,
      "Ġsee": 317,
      "Ġkn": 318,
      "Ġtime": 319,
      "very": 320,
      "Ġas": 321,
      "Ġab": 322,
      "Ġgoing": 323,
      "Ġwhat": 324,
      "eep": 325,
      "Ġim": 326,
      "Ġback": 327,
      "ess": 328,
      "ri": 329,
      "our": 330,
      "us": 331,
      "....": 332,
      "ting": 333,
      "Ġmiss": 334,
      "Ġv": 335,
      "Ġlol": 336,
      "Ġde": 337,
      "Ġwhe": 338,
      "Ġwant": 339,
      "Ġfee": 340,
      "Ġknow": 341,
      "ong": 342,
      "Ġfrom": 343,
      "amp": 344,
      "na": 345,
      "mm": 346,
      "ning": 347,
      "Ġ-": 348,
      "Ġ1": 349,
      "ook": 350,
      "art": 351,
      "Ġwill": 352,
      "Ġone": 353,
      "Ġfin": 354,
      "ge": 355,
      "Ġdid": 356,
      "Ġpl": 357,
      "Ġfeel": 358,
      "Ġex": 359,
      "Ġwat": 360,
      "ish": 361,
      "Ġwee": 362,
      "hh": 363,
      "Ġabout": 364,
      "eed": 365,
      "ate": 366,
      "Ġnew": 367,
      "Ġreally": 368,
      "Ġthink": 369,
      "ers": 370,
      "ff": 371,
      "Ġhad": 372,
      "Ġsl": 373,
      "Ġoff": 374,
      "Ġsa": 375,
      "ice": 376,
      "Ġwa": 377,
      "row": 378,
      "Ġmu": 379,
      "Ġany": 380,
      "Ġthere": 381,
      "Ġnight": 382,
      "Ġmo": 383,
      "lo": 384,
      "Ġhome": 385,
      "Ġhow": 386,
      "ick": 387,
      "oll": 388,
      "ough": 389,
      "ope": 390,
      "ss": 391,
      "Ġag": 392,
      "ool": 393,
      "Ġtwit": 394,
      "Ġneed": 395,
      "Ġse": 396,
      "Ġhaha": 397,
      "Ġits": 398,
      "Ġstill": 399,
      "Ġif": 400,
      "im": 401,
      "Ġthey": 402,
      "ul": 403,
      "ig": 404,
      "Ġwell": 405,
      "mor": 406,
      "Ġgre": 407,
      "Ġsp": 408,
      "eet": 409,
      "Ġfa": 410,
      "ite": 411,
      "red": 412,
      "te": 413,
      "Ġcom": 414,
      "Ġor": 415,
      "Ġwatch": 416,
      "uck": 417,
      "ving": 418,
      "'ll": 419,
      "Ġwhen": 420,
      "Ġthanks": 421,
      "Ġoh": 422,
      "Ġch": 423,
      "ound": 424,
      "Ġgu": 425,
      "Ġhapp": 426,
      "een": 427,
      "Ġfun": 428,
      "Ġhope": 429,
      "Ġte": 430,
      "Ġco": 431,
      "Ġmor": 432,
      "Ġtwitter": 433,
      "Ġta": 434,
      "Ġle": 435,
      "Ġhere": 436,
      "Ġmore": 437,
      "Ġ#": 438,
      "Ġmuch": 439,
      "ard": 440,
      "Ġx": 441,
      "Ġevery": 442,
      "and": 443,
      "Ġlast": 444,
      "Ġsleep": 445,
      "ide": 446,
      "king": 447,
      "Ġpo": 448,
      "oooo": 449,
      "ine": 450,
      "Ġtomor": 451,
      "au": 452,
      "Ġhas": 453,
      "Ġmorning": 454,
      "oy": 455,
      "um": 456,
      "aa": 457,
      "Ġtomorrow": 458,
      "Ġ(": 459,
      "Ġye": 460,
      "Ġthen": 461,
      "Ġgreat": 462,
      "Ġbeen": 463,
      "ous": 464,
      "Ġsad": 465,
      "Ġcon": 466,
      "ollow": 467,
      "Ġshe": 468,
      "Ġwait": 469,
      "fe": 470,
      "ame": 471,
      "Ġher": 472,
      "ady": 473,
      "iend": 474,
      "'re": 475,
      "Ġagain": 476,
      "ind": 477,
      "Ġen": 478,
      "thing": 479,
      "Ġwish": 480,
      "ble": 481,
      "Ġwould": 482,
      "ive": 483,
      "ud": 484,
      "ies": 485,
      "Ġ3": 486,
      "Ġus": 487,
      "Ġton": 488,
      "Ġpro": 489,
      "Ġlook": 490,
      "Ġby": 491,
      "Ġbet": 492,
      "Ġman": 493,
      "Ġbl": 494,
      "Ġbad": 495,
      "Ġwon": 496,
      "Ġcome": 497,
      "Ġsor": 498,
      "che": 499,
      "other": 500,
      "Ġbr": 501,
      "ww": 502,
      "Ġcould": 503,
      "Ġfollow": 504,
      "be": 505,
      "ation": 506,
      "ays": 507,
      "own": 508,
      "Ġwhy": 509,
      "Ġright": 510,
      "Ġpre": 511,
      "Ġyea": 512,
      "Ġonly": 513,
      "ap": 514,
      "Ġph": 515,
      "Ġover": 516,
      "Ġar": 517,
      "ol": 518,
      "Ġthing": 519,
      "Ġfriend": 520,
      "Ġhappy": 521,
      "xt": 522,
      "Ġvery": 523,
      "Ġaf": 524,
      "'ve": 525,
      "Ġtonight": 526,
      "Ġ!": 527,
      "ile": 528,
      "Ġshow": 529,
      "Ġwho": 530,
      "Ġcha": 531,
      "Ġsorry": 532,
      "Ġshould": 533,
      "Ġmake": 534,
      "Ġeve": 535,
      "Ġ4": 536,
      "Ġpe": 537,
      "Ġtr": 538,
      "ist": 539,
      "itt": 540,
      "ass": 541,
      "Ġcl": 542,
      "Ġthem": 543,
      "Ġway": 544,
      "Ġche": 545,
      "lf": 546,
      "Ġok": 547,
      "ase": 548,
      "Ġgon": 549,
      "ak": 550,
      "lt": 551,
      "ort": 552,
      "Ġtry": 553,
      "Ġgetting": 554,
      "Ġbed": 555,
      "Ġthough": 556,
      "Ġsw": 557,
      "Ġjo": 558,
      "Ġnice": 559,
      "Ġafter": 560,
      "Ġgonna": 561,
      "od": 562,
      "Ġdown": 563,
      "Ġfe": 564,
      "Ġdoes": 565,
      "Ġbetter": 566,
      "are": 567,
      "up": 568,
      "Ġhead": 569,
      "ure": 570,
      "Ġwatching": 571,
      "os": 572,
      "Ġtweet": 573,
      "Ġad": 574,
      "by": 575,
      "Ġmon": 576,
      "Ġweek": 577,
      "Ġsch": 578,
      "if": 579,
      "Ġsun": 580,
      "Ġplay": 581,
      "Ġyeah": 582,
      "Ġsc": 583,
      "ack": 584,
      "Ġpr": 585,
      "ause": 586,
      "ty": 587,
      "Ġschool": 588,
      "Ġpeop": 589,
      "gg": 590,
      "00": 591,
      "ys": 592,
      "Ġmay": 593,
      "ree": 594,
      "Ġbu": 595,
      "Ġlong": 596,
      "Ġhour": 597,
      "ia": 598,
      "az": 599,
      "Ġ:": 600,
      "ber": 601,
      "Ġpeople": 602,
      "Ġdr": 603,
      "Ġdidn": 604,
      "Ġhey": 605,
      "Ġsay": 606,
      "Ġun": 607,
      "ip": 608,
      "Ġrain": 609,
      "kend": 610,
      "Ġhim": 611,
      "ma": 612,
      "Ġqu": 613,
      "Ġ...": 614,
      "rr": 615,
      "pl": 616,
      "Ġthank": 617,
      "Ġhate": 618,
      "Ġple": 619,
      "Ġweekend": 620,
      "ue": 621,
      "Ġlet": 622,
      "ny": 623,
      "ade": 624,
      "Ġear": 625,
      "Ġpic": 626,
      "Ġdays": 627,
      "Ġtake": 628,
      "esome": 629,
      "Ġfl": 630,
      "Ġwere": 631,
      "sh": 632,
      "ought": 633,
      "Ġeven": 634,
      "ne": 635,
      "ta": 636,
      "ts": 637,
      "Ġnext": 638,
      "Ġawesome": 639,
      "Ġpart": 640,
      "Ġro": 641,
      "vie": 642,
      "Ġsoon": 643,
      "Ġyes": 644,
      "yy": 645,
      "Ġbest": 646,
      "Ġnever": 647,
      "Ġgir": 648,
      "ment": 649,
      "Ġdont": 650,
      "ng": 651,
      "Ġstart": 652,
      "ull": 653,
      "Ġtho": 654,
      "Ġwan": 655,
      "ans": 656,
      "Ġcant": 657,
      "irst": 658,
      "ather": 659,
      "Ġhi": 660,
      "Ġdi": 661,
      "alk": 662,
      "ittle": 663,
      "Ġapp": 664,
      "Ġcra": 665,
      "Ġ.": 666,
      "Ġwr": 667,
      "Ġsick": 668,
      "ag": 669,
      "Ġgr": 670,
      "Ġlittle": 671,
      "Ġyear": 672,
      "Ġgl": 673,
      "ft": 674,
      "ways": 675,
      "Ġworking": 676,
      "Ġfirst": 677,
      "ace": 678,
      "Ġbec": 679,
      "Ġwanna": 680,
      "Ġtired": 681,
      "Ġsuck": 682,
      "to": 683,
      "age": 684,
      "so": 685,
      "lp": 686,
      "Ġgirl": 687,
      "Ġ'": 688,
      "Ġeveryone": 689,
      "der": 690,
      "Ġlife": 691,
      "Ġdoing": 692,
      "Ġhur": 693,
      "ouse": 694,
      "Ġsha": 695,
      "Ġplease": 696,
      "Ġlist": 697,
      "ity": 698,
      "Ġlea": 699,
      "Ġhaving": 700,
      "Ġbeing": 701,
      "Ġcall": 702,
      "Ġbea": 703,
      "Ġour": 704,
      "Ġcar": 705,
      "pe": 706,
      "Ġfind": 707,
      "Ġur": 708,
      "Ġbre": 709,
      "ooo": 710,
      "kes": 711,
      "Ġeat": 712,
      "Ġ5": 713,
      "Ġfeeling": 714,
      "iz": 715,
      "Ġhar": 716,
      "Ġhis": 717,
      "Ġlot": 718,
      "Ġsure": 719,
      "hing": 720,
      "pt": 721,
      "ious": 722,
      "ab": 723,
      "Ġhelp": 724,
      "Ġdone": 725,
      "Ġwhere": 726,
      "mo": 727,
      "ress": 728,
      "Ġcool": 729,
      "Ġbit": 730,
      "ster": 731,
      "cc": 732,
      "Ġact": 733,
      "Ġhu": 734,
      "mmer": 735,
      "?!": 736,
      "ready": 737,
      "Ġyay": 738,
      "per": 739,
      "Ġkeep": 740,
      "Ġalready": 741,
      "Ġalways": 742,
      "Ġdam": 743,
      "ph": 744,
      "Ġexc": 745,
      "iday": 746,
      "Ġom": 747,
      "ms": 748,
      "Ġfriends": 749,
      "Ġread": 750,
      "Ġhot": 751,
      "ute": 752,
      "Ġanother": 753,
      "ream": 754,
      "Ġsomething": 755,
      "ther": 756,
      "ah": 757,
      "joy": 758,
      "Ġguys": 759,
      "Ġhouse": 760,
      "Ġready": 761,
      "Ġdis": 762,
      "Ġmade": 763,
      "Ġenjoy": 764,
      "ii": 765,
      "Ġsong": 766,
      "Ġtri": 767,
      "Ġluck": 768,
      "fore": 769,
      "Ġid": 770,
      "Ġmin": 771,
      "Ġphone": 772,
      "self": 773,
      "Ġamaz": 774,
      "Ġbecause": 775,
      "Ġbir": 776,
      "ooks": 777,
      "Ġlooking": 778,
      "Ġever": 779,
      "Ġwent": 780,
      "ci": 781,
      "Ġsound": 782,
      "Ġyet": 783,
      "Ġold": 784,
      "uff": 785,
      "Ġhours": 786,
      "'d": 787,
      "Ġother": 788,
      "Ġspe": 789,
      "ited": 790,
      "Ġbig": 791,
      "urn": 792,
      "Ġbefore": 793,
      "Ġmom": 794,
      "Ġpret": 795,
      "Ġ*": 796,
      "Ġhell": 797,
      "Ġmovie": 798,
      "Ġmar": 799,
      "eeee": 800,
      "hed": 801,
      "ored": 802,
      "Ġreal": 803,
      "ually": 804,
      "com": 805,
      "Ġsm": 806,
      "Ġthought": 807,
      "bs": 808,
      "Ġomg": 809,
      "ater": 810,
      "Ġser": 811,
      "Ġpretty": 812,
      "Ġtell": 813,
      "tw": 814,
      "ful": 815,
      "Ġsummer": 816,
      "Ġlive": 817,
      "Ġ?": 818,
      "ac": 819,
      "Ġaway": 820,
      "Ġtrying": 821,
      "Ġamazing": 822,
      "Ġdamn": 823,
      "wn": 824,
      "ti": 825,
      "ake": 826,
      "unch": 827,
      "Ġgame": 828,
      "Ġlisten": 829,
      "ond": 830,
      "int": 831,
      "Ġboy": 832,
      "Ġguess": 833,
      "Ġcomp": 834,
      "Ġlate": 835,
      "Ġya": 836,
      "Ġbaby": 837,
      "Ġearly": 838,
      "opp": 839,
      "no": 840,
      "Ġbus": 841,
      "Ġcheck": 842,
      "ily": 843,
      "ath": 844,
      "ner": 845,
      "Ġleft": 846,
      "Ġfinally": 847,
      "Ġmaybe": 848,
      "Ġugh": 849,
      "Ġhard": 850,
      "xx": 851,
      "Ġend": 852,
      "Ġkind": 853,
      "Ġthings": 854,
      "gs": 855,
      "Ġ..": 856,
      "ount": 857,
      "Ġmus": 858,
      "Ġ;": 859,
      "Ġdan": 860,
      "el": 861,
      "Ġper": 862,
      "ox": 863,
      "Ġbro": 864,
      "Ġinto": 865,
      "Ġlost": 866,
      "Ġsomeone": 867,
      "Ġstar": 868,
      "ub": 869,
      "oom": 870,
      "Ġbored": 871,
      "side": 872,
      "Ġfuck": 873,
      "Ġwow": 874,
      "Ġfam": 875,
      "Ġhear": 876,
      "ise": 877,
      "get": 878,
      "wor": 879,
      "Ġstud": 880,
      "Ġbirth": 881,
      "Ġsame": 882,
      "Ġstuff": 883,
      "Ġmissed": 884,
      "sp": 885,
      "nder": 886,
      "Ġnothing": 887,
      "Ġsucks": 888,
      "Ġwhile": 889,
      "Ġkid": 890,
      "ince": 891,
      "Ġbirthday": 892,
      "Ġgive": 893,
      "Ġhappen": 894,
      "ix": 895,
      "Ġ6": 896,
      "Ġglad": 897,
      "ward": 898,
      "Ġgod": 899,
      "Ġweather": 900,
      "nce": 901,
      "Ġ,": 902,
      "Ġrun": 903,
      "ich": 904,
      "Ġlater": 905,
      "Ġsat": 906,
      "ated": 907,
      "Ġcoming": 908,
      "uu": 909,
      "haha": 910,
      "Ġdoesn": 911,
      "Ġparty": 912,
      "Ġpost": 913,
      "Ġput": 914,
      "Ġda": 915,
      "Ġla": 916,
      "Ġalso": 917,
      "zz": 918,
      "oke": 919,
      "est": 920,
      "Ġtwo": 921,
      "time": 922,
      "Ġlooks": 923,
      "Ġtalk": 924,
      "Ġcle": 925,
      "Ġfre": 926,
      "Ġwin": 927,
      "lie": 928,
      "Ġface": 929,
      "Ġinter": 930,
      "Ġblo": 931,
      "Ġtra": 932,
      "Ġsaw": 933,
      "Ġmusic": 934,
      "Ġexam": 935,
      "Ġmight": 936,
      "Ġadd": 937,
      "Ġunt": 938,
      "Ġbreak": 939,
      "Ġactually": 940,
      "dd": 941,
      "Ġexcited": 942,
      "ason": 943,
      "Ġthose": 944,
      "sterday": 945,
      "ched": 946,
      "night": 947,
      "io": 948,
      "Ġcat": 949,
      "Ġsweet": 950,
      "Ġworld": 951,
      "Ġwonder": 952,
      "Ġmakes": 953,
      "ord": 954,
      "Ġyesterday": 955,
      "Ġwaiting": 956,
      "ire": 957,
      "Ġsaid": 958,
      ".....": 959,
      "Ġcr": 960,
      "Ġfree": 961,
      "Ġsk": 962,
      "Ġce": 963,
      "Ġstay": 964,
      "les": 965,
      "Ġsince": 966,
      "Ġfar": 967,
      "orm": 968,
      "Ġdri": 969,
      "Ġsund": 970,
      "Ġbeaut": 971,
      "Ġho": 972,
      "Ġ@": 973,
      "ps": 974,
      "Ġuntil": 975,
      "Ġfew": 976,
      "Ġhair": 977,
      "Ġ10": 978,
      "Ġcold": 979,
      "Ġupd": 980,
      "ody": 981,
      "Ġ8": 982,
      "hhhh": 983,
      "Ġvide": 984,
      "Ġthr": 985,
      "Ġthats": 986,
      "Ġsuch": 987,
      "ert": 988,
      "Ġmyself": 989,
      "Ġaround": 990,
      "Ġmonday": 991,
      "the": 992,
      "Ġclass": 993,
      "Ġsit": 994,
      "Ġgotta": 995,
      "Ġmust": 996,
      "Ġjob": 997,
      "ished": 998,
      "Ġfound": 999,
      "Ġmany": 1000,
      "co": 1001,
      "iful": 1002,
      "Ġdin": 1003,
      "Ġdad": 1004,
      "Ġleave": 1005,
      "Ġ7": 1006,
      "Ġuse": 1007,
      "Ġbot": 1008,
      "Ġpar": 1009,
      "Ġfriday": 1010,
      "li": 1011,
      "Ġdes": 1012,
      "Ġmost": 1013,
      "ign": 1014,
      "Ġhang": 1015,
      "rat": 1016,
      "Ġaww": 1017,
      "Ġsounds": 1018,
      "Ġmean": 1019,
      "ying": 1020,
      "ction": 1021,
      "Ġboo": 1022,
      "ary": 1023,
      "Ġsupp": 1024,
      "Ġwoke": 1025,
      "Ġtheir": 1026,
      "land": 1027,
      "gt": 1028,
      "able": 1029,
      "ture": 1030,
      "Ġbo": 1031,
      "Ġawww": 1032,
      "Ġke": 1033,
      "Ġsunday": 1034,
      "Ġ=": 1035,
      "Ġpoor": 1036,
      "Ġbeautiful": 1037,
      "Ġstop": 1038,
      "Ġhaven": 1039,
      "fr": 1040,
      "Ġclo": 1041,
      "come": 1042,
      "Ġgone": 1043,
      "Ġhun": 1044,
      "Ġmaking": 1045,
      "Ġem": 1046,
      "Ġpain": 1047,
      "ach": 1048,
      "ian": 1049,
      "aaaa": 1050,
      "Ġcute": 1051,
      "Ġtot": 1052,
      "oney": 1053,
      "Ġprob": 1054,
      "de": 1055,
      "Ġfav": 1056,
      "most": 1057,
      "Ġacc": 1058,
      "Ġplan": 1059,
      "Ġanything": 1060,
      "Ġrep": 1061,
      "Ġokay": 1062,
      "Ġmissing": 1063,
      "iting": 1064,
      "Ġfood": 1065,
      "Ġlunch": 1066,
      "way": 1067,
      "Ġleast": 1068,
      "Ġrest": 1069,
      "Ġel": 1070,
      "pen": 1071,
      "lieve": 1072,
      "vers": 1073,
      "ully": 1074,
      "mber": 1075,
      "phone": 1076,
      "Ġtill": 1077,
      "ets": 1078,
      "Ġwel": 1079,
      "Ġmonth": 1080,
      "Ġtimes": 1081,
      "Ġ9": 1082,
      "ache": 1083,
      "Ġje": 1084,
      "Ġshit": 1085,
      "ang": 1086,
      "nts": 1087,
      "my": 1088,
      "oot": 1089,
      "Ġfamily": 1090,
      "Ġisn": 1091,
      "more": 1092,
      "Ġalmost": 1093,
      "load": 1094,
      "Ġhurts": 1095,
      "Ġpicture": 1096,
      "Ġgra": 1097,
      "ory": 1098,
      "Ġlistening": 1099,
      "we": 1100,
      "Ġfunny": 1101,
      "Ġsoooo": 1102,
      "la": 1103,
      "als": 1104,
      "Ġwanted": 1105,
      "Ġhahaha": 1106,
      "Ġdef": 1107,
      "Ġrock": 1108,
      "Ġdinner": 1109,
      "Ġz": 1110,
      "Ġeverything": 1111,
      "Ġbroke": 1112,
      "Ġill": 1113,
      "Ġbelieve": 1114,
      "Ġphot": 1115,
      "Ġdream": 1116,
      "Ġass": 1117,
      "got": 1118,
      "hhh": 1119,
      "Ġfinished": 1120,
      "Ġcry": 1121,
      "Ġunder": 1122,
      "Ġwelcome": 1123,
      "Ġsuper": 1124,
      "Ġiphone": 1125,
      "alking": 1126,
      "ked": 1127,
      "ably": 1128,
      "Ġforward": 1129,
      "ved": 1130,
      "Ġfollowers": 1131,
      "Ġplaying": 1132,
      "Ġanyone": 1133,
      "but": 1134,
      "zy": 1135,
      "ple": 1136,
      "ash": 1137,
      "Ġ;)": 1138,
      "Ġthinking": 1139,
      "ffee": 1140,
      "dy": 1141,
      "upid": 1142,
      "fully": 1143,
      "Ġwithout": 1144,
      "Ġsing": 1145,
      "Ġvideo": 1146,
      "Ġclean": 1147,
      "eeting": 1148,
      "Ġkill": 1149,
      "Ġmess": 1150,
      "Â½": 1151,
      "Ġname": 1152,
      "less": 1153,
      "work": 1154,
      "ness": 1155,
      "tt": 1156,
      "book": 1157,
      "ds": 1158,
      "Ġinst": 1159,
      "Ġtu": 1160,
      "ating": 1161,
      "line": 1162,
      "Ġlau": 1163,
      "Â¿": 1164,
      "Ġve": 1165,
      "Ġey": 1166,
      "Ġbook": 1167,
      "Ġstupid": 1168,
      "ance": 1169,
      "Ġsend": 1170,
      "Â¯": 1171,
      "Ġdrink": 1172,
      "Ġoutside": 1173,
      "Ġbuy": 1174,
      "Ġmine": 1175,
      "Ġroom": 1176,
      "Ġtotally": 1177,
      "Ġcoffee": 1178,
      "igh": 1179,
      "Ġthrough": 1180,
      "ect": 1181,
      "ars": 1182,
      "Ġwhich": 1183,
      "Ġhand": 1184,
      "Ġenough": 1185,
      "Ġpers": 1186,
      "Ġthese": 1187,
      "not": 1188,
      "ling": 1189,
      "urday": 1190,
      "nn": 1191,
      "ates": 1192,
      "Ġwrong": 1193,
      "Ġanymore": 1194,
      "hes": 1195,
      "ail": 1196,
      "mmy": 1197,
      "opping": 1198,
      "Ġplace": 1199,
      "Ġcu": 1200,
      "Ġair": 1201,
      "ntly": 1202,
      "30": 1203,
      "br": 1204,
      "mail": 1205,
      "Ġdidnt": 1206,
      "Ġchan": 1207,
      "ouch": 1208,
      "gr": 1209,
      "Ġturn": 1210,
      "Ġcho": 1211,
      "Ġreme": 1212,
      "Ġsec": 1213,
      "Ġsaturday": 1214,
      "Ġweeks": 1215,
      "Ġprobably": 1216,
      "Ġbor": 1217,
      "iv": 1218,
      "Ġ)": 1219,
      "Ġcour": 1220,
      "Ġhehe": 1221,
      "Ġsur": 1222,
      "Ġheart": 1223,
      "Ġhit": 1224,
      "Ġeating": 1225,
      "body": 1226,
      "Ġtweets": 1227,
      "Ġonce": 1228,
      "Ġste": 1229,
      "Ġtrain": 1230,
      "net": 1231,
      "Ġperson": 1232,
      "Ġmoney": 1233,
      "Ġtv": 1234,
      "Ġwed": 1235,
      "Ġtea": 1236,
      "Ġsooo": 1237,
      "Ġcause": 1238,
      "ude": 1239,
      "here": 1240,
      "ither": 1241,
      "ins": 1242,
      "Ġbusy": 1243,
      "--": 1244,
      "man": 1245,
      "ions": 1246,
      "Ġwants": 1247,
      "Ġmother": 1248,
      "Ġheadache": 1249,
      "Ġfollowing": 1250,
      "Ġtre": 1251,
      "Ġxx": 1252,
      "Ġbrother": 1253,
      "Ġcame": 1254,
      "Ġcare": 1255,
      "Ġfail": 1256,
      "Ġpass": 1257,
      "Ġlovely": 1258,
      "Ġserious": 1259,
      "Ġsim": 1260,
      "med": 1261,
      "Ġann": 1262,
      "Ġhalf": 1263,
      "rest": 1264,
      "Ġopen": 1265,
      "Ġmat": 1266,
      "Ġwhole": 1267,
      "ted": 1268,
      "Ġquot": 1269,
      "Ġpay": 1270,
      "Ġbeach": 1271,
      "ild": 1272,
      "Ġpa": 1273,
      "press": 1274,
      "Ġseen": 1275,
      "Ġah": 1276,
      "ding": 1277,
      "Ġca": 1278,
      "Ġforgot": 1279,
      "ons": 1280,
      "Ġind": 1281,
      "ger": 1282,
      "Ġhor": 1283,
      "Ġdel": 1284,
      "Ġsays": 1285,
      "Ġinte": 1286,
      "ank": 1287,
      "Ġcur": 1288,
      "Ġcong": 1289,
      "une": 1290,
      "Ġnews": 1291,
      "Ġset": 1292,
      "Ġtaking": 1293,
      "Ġcompl": 1294,
      "Ġkids": 1295,
      "Ġsn": 1296,
      "Ġguy": 1297,
      "Ġrec": 1298,
      "Ġown": 1299,
      "arn": 1300,
      "Ġconc": 1301,
      "Ġcomput": 1302,
      "Ġkinda": 1303,
      "Ġvis": 1304,
      "Ġcook": 1305,
      "Ġhmm": 1306,
      "Ġep": 1307,
      "Ġcrazy": 1308,
      "Ġfall": 1309,
      "Ġtrue": 1310,
      "eee": 1311,
      "Â¢": 1312,
      "Ġboth": 1313,
      "Ġmeet": 1314,
      "Ġmad": 1315,
      "Ġhung": 1316,
      "Ġidea": 1317,
      "Ġeng": 1318,
      "Ġtook": 1319,
      "ote": 1320,
      "Ġgrad": 1321,
      "ym": 1322,
      "Ġdec": 1323,
      "Ġhop": 1324,
      "Ġsoo": 1325,
      "rs": 1326,
      "Ġbb": 1327,
      "Ġtick": 1328,
      "Ġproble": 1329,
      "Ġter": 1330,
      "Ġyears": 1331,
      "Ġcongrat": 1332,
      "Ġhurt": 1333,
      "Ġhello": 1334,
      "Ġelse": 1335,
      "Ġsist": 1336,
      "Ġmind": 1337,
      "Ġwar": 1338,
      "Ġchill": 1339,
      "Ġred": 1340,
      "Ġfull": 1341,
      "Ġhopefully": 1342,
      "its": 1343,
      "Ġpick": 1344,
      "Ġable": 1345,
      "Ġago": 1346,
      "app": 1347,
      "Ġfan": 1348,
      "Ġres": 1349,
      "Ġgoodnight": 1350,
      "ÂĲ": 1351,
      "Ġjon": 1352,
      "Ġlots": 1353,
      "cial": 1354,
      "ors": 1355,
      "Ġbring": 1356,
      "Ġcut": 1357,
      "inks": 1358,
      "Ġeither": 1359,
      "Ġwasn": 1360,
      "Ġwalk": 1361,
      "Ġbra": 1362,
      "ave": 1363,
      "Ġcount": 1364,
      "Ġshopping": 1365,
      "Ġleaving": 1366,
      "Ġreading": 1367,
      "Ġhigh": 1368,
      "esday": 1369,
      "ards": 1370,
      "Ġcourse": 1371,
      "Ġcomputer": 1372,
      "Ġpack": 1373,
      "Ġsitting": 1374,
      "Ġremember": 1375,
      "Ġgirls": 1376,
      "Ġtext": 1377,
      "ug": 1378,
      "Ġblog": 1379,
      "Ġused": 1380,
      "pr": 1381,
      "ics": 1382,
      "Ġtop": 1383,
      "ney": 1384,
      "Ġ$": 1385,
      "og": 1386,
      "Ġblack": 1387,
      "Ġtest": 1388,
      "Ġer": 1389,
      "vis": 1390,
      "Ġcoll": 1391,
      "Ġac": 1392,
      "Ġstr": 1393,
      "Ġfeels": 1394,
      "Ġunf": 1395,
      "Ġty": 1396,
      "Ġed": 1397,
      "ever": 1398,
      "port": 1399,
      "Ġraining": 1400,
      "ib": 1401,
      "Ġwoo": 1402,
      "Ġcuz": 1403,
      "Ġalone": 1404,
      "ten": 1405,
      "Ġdog": 1406,
      "Ġseems": 1407,
      "you": 1408,
      "Ġemail": 1409,
      "Ġtrip": 1410,
      "Ġtalking": 1411,
      "Ġcouldn": 1412,
      "Ġoffice": 1413,
      "Ġes": 1414,
      "ird": 1415,
      "Ġwatched": 1416,
      "Ġtried": 1417,
      "Ġstuck": 1418,
      "Ġheard": 1419,
      "rible": 1420,
      "Ġneeds": 1421,
      "Ġless": 1422,
      "Ġbtw": 1423,
      "Ġwind": 1424,
      "Ġ100": 1425,
      "vin": 1426,
      "Ġinternet": 1427,
      "ete": 1428,
      "Âĥ": 1429,
      "ump": 1430,
      "Ġfavor": 1431,
      "fast": 1432,
      "ations": 1433,
      "Ġ~": 1434,
      "where": 1435,
      "Ġdefin": 1436,
      "Ġhol": 1437,
      "Ġsometime": 1438,
      "tu": 1439,
      "Ġstarted": 1440,
      "Ġdiff": 1441,
      "ls": 1442,
      "Ġent": 1443,
      "view": 1444,
      "Ġcou": 1445,
      "Ġwww": 1446,
      "Ġwont": 1447,
      "Ġlu": 1448,
      "Ġfinish": 1449,
      "top": 1450,
      "Ġseeing": 1451,
      "Ġinterest": 1452,
      "ipp": 1453,
      "Ġawake": 1454,
      "Ġgoo": 1455,
      "Ġreply": 1456,
      "ball": 1457,
      "leep": 1458,
      "Ġlma": 1459,
      "ines": 1460,
      "Ġfix": 1461,
      "Ġlink": 1462,
      "Ġconf": 1463,
      "Ġwake": 1464,
      "Ġseason": 1465,
      "Ġonline": 1466,
      "fect": 1467,
      "ings": 1468,
      "Ġmac": 1469,
      "Ġusing": 1470,
      "Ġju": 1471,
      "Ġdrive": 1472,
      "ately": 1473,
      "Ġchar": 1474,
      "Ġprom": 1475,
      "Ġquite": 1476,
      "ching": 1477,
      "Ġfine": 1478,
      "Ġ12": 1479,
      "bo": 1480,
      "Ġbreakfast": 1481,
      "Ġice": 1482,
      "oud": 1483,
      "Ġeas": 1484,
      "Ġtold": 1485,
      "Ġpics": 1486,
      "Ġbar": 1487,
      "con": 1488,
      "ppy": 1489,
      "Ġmet": 1490,
      "Ġxxx": 1491,
      "utes": 1492,
      "Ġboring": 1493,
      "Ġchange": 1494,
      "Ġloved": 1495,
      "pm": 1496,
      "Ġshort": 1497,
      "ÂĻ": 1498,
      "Ġgoes": 1499,
      "oooooooo": 1500,
      "Ġfacebook": 1501,
      "ried": 1502,
      "ton": 1503,
      "Ġdead": 1504,
      "Ġtour": 1505,
      "kk": 1506,
      "Ġrem": 1507,
      "Ġspend": 1508,
      "Ġ....": 1509,
      "Ġsunny": 1510,
      "Ġyu": 1511,
      "Ġlap": 1512,
      "Ġmid": 1513,
      "ower": 1514,
      "Ġfil": 1515,
      "Ġshower": 1516,
      "ier": 1517,
      "Ġmove": 1518,
      "ike": 1519,
      "tin": 1520,
      "aught": 1521,
      "Ġseriously": 1522,
      "han": 1523,
      "Ġupdate": 1524,
      "Ġbought": 1525,
      "Ġwear": 1526,
      "sw": 1527,
      "Ġminutes": 1528,
      "att": 1529,
      "Ġconcert": 1530,
      "Ġbur": 1531,
      "Ġdou": 1532,
      "em": 1533,
      "Ġhungry": 1534,
      "ross": 1535,
      "ject": 1536,
      "Ġsho": 1537,
      "Ġgets": 1538,
      "Ġdude": 1539,
      "noon": 1540,
      "gy": 1541,
      "rrrr": 1542,
      "33": 1543,
      "Ġanyway": 1544,
      "Ġcalled": 1545,
      "Ġlmao": 1546,
      "Ġsister": 1547,
      "Ġasleep": 1548,
      "Ġcrap": 1549,
      "Ġwater": 1550,
      "Ġpast": 1551,
      "ead": 1552,
      "rew": 1553,
      "Ġap": 1554,
      "cept": 1555,
      "Ġjune": 1556,
      "ible": 1557,
      "Ġlucky": 1558,
      "Ġstarting": 1559,
      "Ġoo": 1560,
      "Ġreason": 1561,
      "Ġjeal": 1562,
      "Ġsite": 1563,
      "Ġ+": 1564,
      "ley": 1565,
      "urs": 1566,
      "Ġ20": 1567,
      "ÂĤ": 1568,
      "aw": 1569,
      "Ġalb": 1570,
      "Ġstudy": 1571,
      "Ġcor": 1572,
      "ract": 1573,
      "mon": 1574,
      "ared": 1575,
      "Ġtil": 1576,
      "pect": 1577,
      "led": 1578,
      "rent": 1579,
      "ark": 1580,
      "Ġfavorite": 1581,
      "unk": 1582,
      "act": 1583,
      "Ġjealous": 1584,
      "Ġafternoon": 1585,
      "Ġsign": 1586,
      "ortun": 1587,
      "gether": 1588,
      "ici": 1589,
      "Ġsleeping": 1590,
      "Ġmil": 1591,
      "lish": 1592,
      "Ġpap": 1593,
      "Ġfast": 1594,
      "Ġinstead": 1595,
      "Ġart": 1596,
      "Ġheading": 1597,
      "go": 1598,
      "set": 1599,
      "Ġgrand": 1600,
      "lly": 1601,
      "Ġnap": 1602,
      "Ġav": 1603,
      "Ġfore": 1604,
      "Ġlight": 1605,
      "umb": 1606,
      "Ġfig": 1607,
      "Ġsy": 1608,
      "Ġsore": 1609,
      "Ġxd": 1610,
      "Ġsecond": 1611,
      "Ġ11": 1612,
      "Ġny": 1613,
      "ult": 1614,
      "Ġfell": 1615,
      "Ġcam": 1616,
      "ens": 1617,
      "Ġnear": 1618,
      "Ġmc": 1619,
      "Ġjoin": 1620,
      "Ġalbum": 1621,
      "ual": 1622,
      "itely": 1623,
      "Ġexams": 1624,
      "cked": 1625,
      "yyyy": 1626,
      "vel": 1627,
      "Ġge": 1628,
      "Ġcal": 1629,
      "Ġgradu": 1630,
      "Ġmeeting": 1631,
      "av": 1632,
      "lax": 1633,
      "Ġenjoying": 1634,
      "oint": 1635,
      "Ġcol": 1636,
      "Ġbye": 1637,
      "........": 1638,
      "col": 1639,
      "mp": 1640,
      "Ġside": 1641,
      "Ġwonderful": 1642,
      "Ġdear": 1643,
      "Ġperfect": 1644,
      "Ġmov": 1645,
      "Ġask": 1646,
      "form": 1647,
      "Ġtogether": 1648,
      "Ġslow": 1649,
      "Ġproblem": 1650,
      "Ġmome": 1651,
      "Ġbout": 1652,
      "Ġcity": 1653,
      "ama": 1654,
      "Ġhomework": 1655,
      "Ġlaptop": 1656,
      "Ġdefinitely": 1657,
      "Ġdra": 1658,
      "Ġrelax": 1659,
      "Ġip": 1660,
      "Ġinc": 1661,
      "Ġhoping": 1662,
      "ho": 1663,
      "du": 1664,
      "Ġrunning": 1665,
      "ces": 1666,
      "Ġdied": 1667,
      "follow": 1668,
      "Ġlay": 1669,
      "Ġdress": 1670,
      "eak": 1671,
      "Ġband": 1672,
      "Ġchur": 1673,
      "Ġchat": 1674,
      "Ġgoin": 1675,
      "opped": 1676,
      "Ġmeans": 1677,
      "ones": 1678,
      "ition": 1679,
      "Ġstore": 1680,
      "Ġhappened": 1681,
      "space": 1682,
      "Ġcongrats": 1683,
      "over": 1684,
      "Ġworks": 1685,
      "Ġson": 1686,
      "ane": 1687,
      "Ġmag": 1688,
      "Ġweird": 1689,
      "rist": 1690,
      "tube": 1691,
      "Ġfucking": 1692,
      "Ġpray": 1693,
      "Ġlaugh": 1694,
      "ntion": 1695,
      "ont": 1696,
      "ves": 1697,
      "Ġwrite": 1698,
      "Ġvisit": 1699,
      "Ġsometimes": 1700,
      "ina": 1701,
      "cy": 1702,
      "Ġreg": 1703,
      "iley": 1704,
      "gle": 1705,
      "ats": 1706,
      "stand": 1707,
      "Ġword": 1708,
      "Ġclose": 1709,
      "ush": 1710,
      "osed": 1711,
      "Ġppl": 1712,
      "Ġfinal": 1713,
      "Ġvo": 1714,
      "Ġmovies": 1715,
      "Ġchurch": 1716,
      "mit": 1717,
      "Ġcouple": 1718,
      "Ġkick": 1719,
      "Ġeyes": 1720,
      "Ġdownload": 1721,
      "Ġcamp": 1722,
      "Ġevening": 1723,
      "Ġboys": 1724,
      "Ġaccount": 1725,
      "Ġmood": 1726,
      "berry": 1727,
      "iness": 1728,
      "friend": 1729,
      "Ġyoutube": 1730,
      "Ġblood": 1731,
      "Ġannoy": 1732,
      "Ġtown": 1733,
      "Ġvac": 1734,
      "ew": 1735,
      "Ġcomes": 1736,
      "cha": 1737,
      "Ġipod": 1738,
      "Ġnite": 1739,
      "Ġchick": 1740,
      "aking": 1741,
      "any": 1742,
      "Ġinv": 1743,
      "Ġstra": 1744,
      "ical": 1745,
      "Ġmed": 1746,
      "ese": 1747,
      "Ġext": 1748,
      "Ġgym": 1749,
      "Ġpat": 1750,
      "ica": 1751,
      "izz": 1752,
      "cing": 1753,
      "ters": 1754,
      "Ġloves": 1755,
      "Ġmonths": 1756,
      "ik": 1757,
      "Ġru": 1758,
      "tv": 1759,
      "Ġtom": 1760,
      "Ġcatch": 1761,
      "ent": 1762,
      "Ġoffici": 1763,
      "Ġdisapp": 1764,
      "ital": 1765,
      "Ġrealiz": 1766,
      "ied": 1767,
      "Ġsal": 1768,
      "Ġcream": 1769,
      "Ġunfortun": 1770,
      "Ġforget": 1771,
      "outh": 1772,
      "irt": 1773,
      "ict": 1774,
      "Ġstudying": 1775,
      "ches": 1776,
      "Ġworth": 1777,
      "ren": 1778,
      "Ġlearn": 1779,
      "Ġsongs": 1780,
      "Ġseem": 1781,
      "Ġcup": 1782,
      "Ġps": 1783,
      "Ġsent": 1784,
      "Ġlil": 1785,
      "Ġfair": 1786,
      "Ġms": 1787,
      "Ġagree": 1788,
      "Ġsex": 1789,
      "ana": 1790,
      "Ġcolle": 1791,
      "Ġclos": 1792,
      "Ġones": 1793,
      "Ġcomment": 1794,
      "ey": 1795,
      "bby": 1796,
      "Ġdance": 1797,
      "Ġive": 1798,
      "Ġmath": 1799,
      "vice": 1800,
      "ris": 1801,
      "Ġpool": 1802,
      "gin": 1803,
      "ages": 1804,
      "Ġmmm": 1805,
      "ift": 1806,
      "Ġcele": 1807,
      "Ġquest": 1808,
      "Ġpu": 1809,
      "Ġrid": 1810,
      "ring": 1811,
      "ows": 1812,
      "Ġchocol": 1813,
      "Ġmoment": 1814,
      "ced": 1815,
      "Ġstory": 1816,
      "Ġunderstand": 1817,
      "Ġfly": 1818,
      "Ġenglish": 1819,
      "Ġtickets": 1820,
      "ills": 1821,
      "isod": 1822,
      "read": 1823,
      "Ġthro": 1824,
      "......": 1825,
      "Ġhat": 1826,
      "min": 1827,
      "Ġloving": 1828,
      "Ġir": 1829,
      "Ġinteresting": 1830,
      "Ġins": 1831,
      "Ġepisod": 1832,
      "bb": 1833,
      "Ġdiffe": 1834,
      "Ġphoto": 1835,
      "uring": 1836,
      "Ġansw": 1837,
      "Ġate": 1838,
      "Ġchang": 1839,
      "Ġret": 1840,
      "ondon": 1841,
      "head": 1842,
      ";&": 1843,
      "vid": 1844,
      "Ġknew": 1845,
      "Ġupload": 1846,
      "Ġload": 1847,
      "Ġatte": 1848,
      "lic": 1849,
      "Ġahh": 1850,
      "Ġpare": 1851,
      "Ġabs": 1852,
      "Ġna": 1853,
      "Ġphotos": 1854,
      "gest": 1855,
      "fl": 1856,
      "Ġcomm": 1857,
      "Ġwriting": 1858,
      "Ġsupposed": 1859,
      "Ġworst": 1860,
      "Ġawards": 1861,
      "Ġpark": 1862,
      "Ġfire": 1863,
      "Ġpage": 1864,
      "ience": 1865,
      "Ġrad": 1866,
      ".&": 1867,
      "Ġmum": 1868,
      "Ġbroken": 1869,
      "Ġ30": 1870,
      "friday": 1871,
      "Ġwedding": 1872,
      "Ġlondon": 1873,
      "Ġride": 1874,
      "oup": 1875,
      "Ġchocolate": 1876,
      "Ġteam": 1877,
      "Ġwis": 1878,
      "Ġthurs": 1879,
      "Ġrevis": 1880,
      "Ġflight": 1881,
      "Ġsmile": 1882,
      "Ġsaying": 1883,
      "Ġbud": 1884,
      "Ġgi": 1885,
      "tf": 1886,
      "Ġcomplete": 1887,
      "Ġdem": 1888,
      "Ġsunsh": 1889,
      "Ġ15": 1890,
      "Ġgreen": 1891,
      "Ġpoint": 1892,
      "do": 1893,
      "Ġcre": 1894,
      "Ġdie": 1895,
      "ised": 1896,
      "ucks": 1897,
      "ven": 1898,
      "Ġnet": 1899,
      "ange": 1900,
      "Ġsleepy": 1901,
      "orge": 1902,
      "era": 1903,
      "ret": 1904,
      "unt": 1905,
      "Ġwishing": 1906,
      "Ġmark": 1907,
      "Ġmic": 1908,
      "rown": 1909,
      "Ġyep": 1910,
      "Ġthroat": 1911,
      "Ġwi": 1912,
      "lol": 1913,
      "Ġthree": 1914,
      "su": 1915,
      "Ġdriving": 1916,
      "Ġunfortunately": 1917,
      "Ġmoving": 1918,
      "right": 1919,
      "Ġbless": 1920,
      "Ġ200": 1921,
      "ering": 1922,
      "Ġdepress": 1923,
      "Ġposs": 1924,
      "Ġball": 1925,
      "eeps": 1926,
      "uss": 1927,
      "Ġpictures": 1928,
      "illy": 1929,
      "iiii": 1930,
      "Ġupset": 1931,
      "Ġdreams": 1932,
      "Ġsunshine": 1933,
      "Ġfing": 1934,
      "ssss": 1935,
      "Ġshop": 1936,
      "Ġgen": 1937,
      "Ġwarm": 1938,
      "air": 1939,
      "ear": 1940,
      "Ġmoon": 1941,
      "Ġxox": 1942,
      "gn": 1943,
      "Ġtrans": 1944,
      "Ġproject": 1945,
      "Ġcleaning": 1946,
      "Ġgave": 1947,
      "Ġhorrible": 1948,
      "po": 1949,
      "Ġflu": 1950,
      "Ġpop": 1951,
      "Ġsto": 1952,
      "Ġwebs": 1953,
      "Ġlady": 1954,
      "cially": 1955,
      "Ġjonas": 1956,
      "ale": 1957,
      "Ġeff": 1958,
      "Ġtuesday": 1959,
      "Ġquick": 1960,
      "Ġbas": 1961,
      "Ġdate": 1962,
      "astic": 1963,
      "Ġgard": 1964,
      "Ġchance": 1965,
      "Ġworry": 1966,
      "Ġlaz": 1967,
      "sent": 1968,
      "cell": 1969,
      "Ġcollege": 1970,
      "Ġtweeting": 1971,
      "hu": 1972,
      "Ġjack": 1973,
      "Ġdrinking": 1974,
      "Ġspecial": 1975,
      "Ġbeat": 1976,
      "Ġtast": 1977,
      "Ġmr": 1978,
      "Ġappare": 1979,
      "Ġworse": 1980,
      "ns": 1981,
      "Ġrecord": 1982,
      "Ġsug": 1983,
      "Âĳ": 1984,
      "Ġstom": 1985,
      "Ġcont": 1986,
      "Ġpower": 1987,
      "aaa": 1988,
      "Ġrepl": 1989,
      "Ġwouldn": 1990,
      "ertain": 1991,
      "Ġwhats": 1992,
      "Ġfo": 1993,
      "akes": 1994,
      "Ġev": 1995,
      "Ġabsol": 1996,
      "Ġbum": 1997,
      "Ġeasy": 1998,
      "Ġfact": 1999,
      "Ġtee": 2000,
      "lept": 2001,
      "Ġscared": 2002,
      "Ġlonger": 2003,
      "Ġpea": 2004,
      "Ġweb": 2005,
      "Ġaren": 2006,
      "cle": 2007,
      "Ġbday": 2008,
      "Ġdoesnt": 2009,
      "Ġcard": 2010,
      "umber": 2011,
      "Ġsupport": 2012,
      "Ġrather": 2013,
      "ba": 2014,
      "cks": 2015,
      "10": 2016,
      "Ġamer": 2017,
      "Ġstand": 2018,
      "ries": 2019,
      "Ġvote": 2020,
      "cent": 2021,
      "Ġprof": 2022,
      "Ġholiday": 2023,
      "Ġdue": 2024,
      "Ġsafe": 2025,
      "Ġmiley": 2026,
      "Ġroad": 2027,
      "lier": 2028,
      "Ġhold": 2029,
      "Ġ:/": 2030,
      "fly": 2031,
      "Ġrel": 2032,
      "Ġmtv": 2033,
      "Ġcannot": 2034,
      "bye": 2035,
      "Ġcous": 2036,
      "Ġbat": 2037,
      "osp": 2038,
      "Ġapparently": 2039,
      "Ġupdates": 2040,
      "Ġpaper": 2041,
      "Ġbox": 2042,
      "Ġsmall": 2043,
      "Ġfoot": 2044,
      "Ġbody": 2045,
      "Ġeye": 2046,
      "gan": 2047,
      "Ġner": 2048,
      "Ġhuge": 2049,
      "Ġref": 2050,
      "Ġspent": 2051,
      "Ġprop": 2052,
      "Ġparents": 2053,
      "Ġdm": 2054,
      "Ġstress": 2055,
      "Â¡": 2056,
      "Ġfight": 2057,
      "Ġvoice": 2058,
      "Ġ--": 2059,
      "rect": 2060,
      "Ġnope": 2061,
      "Ġforever": 2062,
      "Ġshame": 2063,
      "Ġdv": 2064,
      "Ġinf": 2065,
      "Ġplans": 2066,
      "orn": 2067,
      "Ġpleas": 2068,
      "Ġob": 2069,
      "oop": 2070,
      "Ġearlier": 2071,
      "how": 2072,
      "ze": 2073,
      "cast": 2074,
      "ustr": 2075,
      "now": 2076,
      "reci": 2077,
      "Ġpri": 2078,
      "Ġstre": 2079,
      "ooooo": 2080,
      "ots": 2081,
      "Ġsme": 2082,
      "Ġuk": 2083,
      "Ġroll": 2084,
      "dle": 2085,
      "Ġline": 2086,
      "pecially": 2087,
      "Ġthursday": 2088,
      "Ġlos": 2089,
      "Ġhanging": 2090,
      "Ġfigure": 2091,
      "Ġuni": 2092,
      "reen": 2093,
      "Ġmyspace": 2094,
      "used": 2095,
      "Ġwords": 2096,
      "Ġsub": 2097,
      "Ġprodu": 2098,
      "Ġwtf": 2099,
      "ith": 2100,
      "Ġthx": 2101,
      "Ġwhite": 2102,
      "Ġrand": 2103,
      "Ġgarden": 2104,
      "sit": 2105,
      "Ġdecid": 2106,
      "Ġvacation": 2107,
      "Ġabsolute": 2108,
      "Ġwondering": 2109,
      "Ġpiss": 2110,
      "Ġlazy": 2111,
      "Ġblue": 2112,
      "Ġremind": 2113,
      "that": 2114,
      "Ġdun": 2115,
      "Ġahhh": 2116,
      "just": 2117,
      "well": 2118,
      "Ġplus": 2119,
      "Ġsen": 2120,
      "Ġcop": 2121,
      "Ġwebsite": 2122,
      "iet": 2123,
      "itty": 2124,
      "Ġexact": 2125,
      "box": 2126,
      "Ġluv": 2127,
      "Ġger": 2128,
      "Ġmessage": 2129,
      "Ġ/": 2130,
      "ÂĢ": 2131,
      "Ġsigh": 2132,
      "Ġdavid": 2133,
      "Ġsky": 2134,
      "Ġanswer": 2135,
      "cer": 2136,
      "Ġbeer": 2137,
      "Ġshows": 2138,
      "ork": 2139,
      "nch": 2140,
      "Ġduring": 2141,
      "Ġsims": 2142,
      "Ġappreci": 2143,
      "Ġboyfriend": 2144,
      "ants": 2145,
      "ned": 2146,
      "gas": 2147,
      "Ġstomach": 2148,
      "Ġmeant": 2149,
      "aÂ": 2150,
      "Ġslept": 2151,
      "Ġpan": 2152,
      "Ġhosp": 2153,
      "Ġfant": 2154,
      "Ġnor": 2155,
      "ically": 2156,
      "Ġra": 2157,
      "ml": 2158,
      "ative": 2159,
      "Ġfans": 2160,
      "Ġcons": 2161,
      "Ġsurpr": 2162,
      "nding": 2163,
      "Ġpur": 2164,
      "Ġtan": 2165,
      "Ġcake": 2166,
      "Ġbbq": 2167,
      "Ġthinks": 2168,
      "aster": 2169,
      "Ġchild": 2170,
      "Ġjuly": 2171,
      "Ġtor": 2172,
      "Ġpizz": 2173,
      "wwww": 2174,
      "under": 2175,
      "Ġfather": 2176,
      "Ġairport": 2177,
      "lin": 2178,
      "Ġant": 2179,
      "fa": 2180,
      "wh": 2181,
      "Ġidk": 2182,
      "uuuu": 2183,
      "Ġdifferent": 2184,
      "Ġlooked": 2185,
      "Ġban": 2186,
      "usted": 2187,
      "ming": 2188,
      "Ġlets": 2189,
      "Ġkno": 2190,
      "Ġele": 2191,
      "Ġarri": 2192,
      "Ġouch": 2193,
      "Ġsadly": 2194,
      "Ġshare": 2195,
      "Ġcos": 2196,
      "band": 2197,
      "Ġdeal": 2198,
      ").": 2199,
      "ient": 2200,
      "Ġmot": 2201,
      "Ġradio": 2202,
      "Ġgoogle": 2203,
      "Ġnumber": 2204,
      "Ġstick": 2205,
      "tle": 2206,
      "Ġeach": 2207,
      "Ġhavent": 2208,
      "Ġclot": 2209,
      "Ġalright": 2210,
      "ize": 2211,
      "Ġexpect": 2212,
      "!?": 2213,
      "Ġinside": 2214,
      "Ġyo": 2215,
      "Ġapple": 2216,
      "Ġcase": 2217,
      "ugg": 2218,
      "Ġlone": 2219,
      "Ġfreak": 2220,
      "mb": 2221,
      "Ġpract": 2222,
      "Ġcamera": 2223,
      "Ġcap": 2224,
      "Ġsqu": 2225,
      "Ġinterview": 2226,
      "arch": 2227,
      "Ġliked": 2228,
      "Ġtummy": 2229,
      "Ġespecially": 2230,
      "Ġcd": 2231,
      "Ġexcept": 2232,
      "Ġrandom": 2233,
      "Ġepisode": 2234,
      "rrr": 2235,
      "Ġpub": 2236,
      "Ġpizza": 2237,
      "ial": 2238,
      "**": 2239,
      "Ġclub": 2240,
      "Ġmass": 2241,
      "Ġshall": 2242,
      "Ġdoct": 2243,
      "Ġsunb": 2244,
      "cher": 2245,
      "Ġheal": 2246,
      "Ġwall": 2247,
      "what": 2248,
      "Ġrainy": 2249,
      "Ġcrying": 2250,
      "Ġleg": 2251,
      "ilight": 2252,
      "Ġofficially": 2253,
      "Ġmemor": 2254,
      "mmm": 2255,
      "Ġgraduation": 2256,
      "Ġfelt": 2257,
      "ka": 2258,
      "Ġnick": 2259,
      "Ġyummy": 2260,
      "nesday": 2261,
      "Ġatt": 2262,
      "rd": 2263,
      "nds": 2264,
      "Ġgorge": 2265,
      "ered": 2266,
      "kin": 2267,
      "ular": 2268,
      "Ġsmell": 2269,
      "Ġmi": 2270,
      "Ġfat": 2271,
      "Ġabsolutely": 2272,
      "Ġproud": 2273,
      "Ġgames": 2274,
      "Ġhospital": 2275,
      "unes": 2276,
      "Ġtur": 2277,
      "Ġ0": 2278,
      "ican": 2279,
      "ilar": 2280,
      "Ġbooks": 2281,
      "Ġexper": 2282,
      "Ġjoh": 2283,
      "Ġdecided": 2284,
      "gu": 2285,
      "Ġpot": 2286,
      "Ġconne": 2287,
      "ointed": 2288,
      "?!?!": 2289,
      "Ġfinals": 2290,
      "oh": 2291,
      "Ġhahahaha": 2292,
      "Â¥": 2293,
      "Ġten": 2294,
      "Ġchicken": 2295,
      "Ġhum": 2296,
      "Ġshoes": 2297,
      "bl": 2298,
      "Ġbike": 2299,
      "Ġlame": 2300,
      "Ġworked": 2301,
      "Ġyourself": 2302,
      "Ġtouch": 2303,
      "Ġsam": 2304,
      "Ġvers": 2305,
      "Ġwife": 2306,
      "Ġpull": 2307,
      "Ġrele": 2308,
      "for": 2309,
      "erg": 2310,
      "ession": 2311,
      "Ġhubby": 2312,
      "ulous": 2313,
      "Ġlak": 2314,
      "Ġlonely": 2315,
      "Ġsave": 2316,
      "ship": 2317,
      "Ġcheese": 2318,
      "Ġbrothers": 2319,
      "cu": 2320,
      "Ġyup": 2321,
      "Ġrece": 2322,
      "Ġburn": 2323,
      "ya": 2324,
      "Ġresp": 2325,
      "Ġneeded": 2326,
      "Ġtwilight": 2327,
      "Ġbabe": 2328,
      "Ġ14": 2329,
      "Ġwednesday": 2330,
      "Ġgorgeous": 2331,
      "Ġsold": 2332,
      "Ġdist": 2333,
      "!)": 2334,
      "Ġjam": 2335,
      "Ġtech": 2336,
      "Ġannoying": 2337,
      "Ġorder": 2338,
      "Ġglass": 2339,
      "Ġplayed": 2340,
      "Ġnat": 2341,
      "Ġfront": 2342,
      "Ġexciting": 2343,
      "cess": 2344,
      "Ġfish": 2345,
      "Ġwine": 2346,
      "Ġran": 2347,
      "though": 2348,
      "Ġfrench": 2349,
      "yyy": 2350,
      "!&": 2351,
      "Ġpie": 2352,
      "Ġrob": 2353,
      "Ġself": 2354,
      "Ġexactly": 2355,
      "Ġexha": 2356,
      "Ġhahah": 2357,
      "Ġkeeps": 2358,
      "Â´": 2359,
      "Ġnorm": 2360,
      "Ġliving": 2361,
      "Ġfab": 2362,
      "Ġhug": 2363,
      "Ġquestion": 2364,
      "Ġstarts": 2365,
      "Ġmention": 2366,
      "Ġland": 2367,
      "Ġsand": 2368,
      "Ġwishes": 2369,
      "Ġbrit": 2370,
      "Ġevent": 2371,
      "Ġmis": 2372,
      "Ġgig": 2373,
      "Ġfeet": 2374,
      "ments": 2375,
      "Ġahhhh": 2376,
      "Ġvot": 2377,
      "Ġaff": 2378,
      "itar": 2379,
      ",,": 2380,
      "Ġbusiness": 2381,
      "ga": 2382,
      "ston": 2383,
      "iff": 2384,
      "Ġpink": 2385,
      "Ġpeace": 2386,
      "Ġsell": 2387,
      "Ġpet": 2388,
      "Ġround": 2389,
      "Ġkiss": 2390,
      "Ġpacking": 2391,
      "Ġ18": 2392,
      "Ġholl": 2393,
      "Ġthunder": 2394,
      "Ġbath": 2395,
      "Ġpresent": 2396,
      "Ġhates": 2397,
      "Ġtaken": 2398,
      "Ġdark": 2399,
      "Ġapart": 2400,
      "Ġfit": 2401,
      "Ġdet": 2402,
      "imm": 2403,
      "Ġgerman": 2404,
      "hind": 2405,
      "Ġgun": 2406,
      "zzzz": 2407,
      "Ġprep": 2408,
      "tc": 2409,
      "Ġcent": 2410,
      "Ġjus": 2411,
      "Ġconte": 2412,
      "Ġscary": 2413,
      "Ġdrunk": 2414,
      "eeeeeeee": 2415,
      "Ġyoung": 2416,
      "Ġhmmm": 2417,
      "Ġfu": 2418,
      "Ġhappens": 2419,
      "Ġflo": 2420,
      "Â«": 2421,
      "ails": 2422,
      "let": 2423,
      "rence": 2424,
      "Ġisnt": 2425,
      "Ġxoxo": 2426,
      "Ġturned": 2427,
      "Ġmothers": 2428,
      "Ġcelebr": 2429,
      "Ġcross": 2430,
      "Ġrealized": 2431,
      "reme": 2432,
      "Ġknows": 2433,
      "Ġq": 2434,
      "Ġsna": 2435,
      "lex": 2436,
      "Ġvie": 2437,
      "followfriday": 2438,
      "Ġ24": 2439,
      "Ġange": 2440,
      "Ġaut": 2441,
      "Ġemp": 2442,
      "back": 2443,
      "wa": 2444,
      "Ġdaught": 2445,
      "Ġbehind": 2446,
      "tweet": 2447,
      "Ġsis": 2448,
      "Ġ[": 2449,
      "Ġooo": 2450,
      "Ġpc": 2451,
      "Ġloc": 2452,
      "Ġservice": 2453,
      "Ġgoodbye": 2454,
      "eeter": 2455,
      "Ġhist": 2456,
      "Ġguitar": 2457,
      "some": 2458,
      "Ġtay": 2459,
      "Ġgrow": 2460,
      "Ġeverybody": 2461,
      "Ġbitch": 2462,
      "Ġclothes": 2463,
      "cri": 2464,
      "gging": 2465,
      "Ġshut": 2466,
      "Ġgut": 2467,
      "Ġwaking": 2468,
      "vent": 2469,
      "hoo": 2470,
      "Ġsum": 2471,
      ";.": 2472,
      "Ġkey": 2473,
      "Ġyours": 2474,
      "Ġgettin": 2475,
      "Ġshout": 2476,
      "Ġlose": 2477,
      "Ġminute": 2478,
      "Ġmen": 2479,
      "Ġargh": 2480,
      "lor": 2481,
      "ille": 2482,
      "Ġalong": 2483,
      "Ġdrop": 2484,
      "Ġkilling": 2485,
      "iter": 2486,
      "Ġrelaxing": 2487,
      "Ġscreen": 2488,
      "ground": 2489,
      "fb": 2490,
      "Ġwalking": 2491,
      "key": 2492,
      "Ġalot": 2493,
      "Ġgiving": 2494,
      "Ġvideos": 2495,
      "Ġlow": 2496,
      "Ġfilm": 2497,
      "Ġmain": 2498,
      "ky": 2499,
      "ator": 2500,
      "love": 2501,
      "ex": 2502,
      "ident": 2503,
      "nna": 2504,
      "oman": 2505,
      "Ġfantastic": 2506,
      "Ġthrow": 2507,
      "Ġcompany": 2508,
      "ara": 2509,
      "Ġwhatever": 2510,
      "ru": 2511,
      "Ġnote": 2512,
      "rently": 2513,
      "Ġeh": 2514,
      "bu": 2515,
      "bt": 2516,
      "000": 2517,
      "Ġterrible": 2518,
      "Ġgee": 2519,
      "Ġtex": 2520,
      "Ġmaj": 2521,
      "20": 2522,
      "Ġvegas": 2523,
      "Ġmail": 2524,
      "nite": 2525,
      "ose": 2526,
      "ween": 2527,
      "Ġenjoyed": 2528,
      "Ġcy": 2529,
      "Ġdeath": 2530,
      "Ġjohn": 2531,
      "yle": 2532,
      "ield": 2533,
      "room": 2534,
      "vious": 2535,
      "Ġuh": 2536,
      "ffic": 2537,
      "Ġproduct": 2538,
      "ada": 2539,
      "Ġrevision": 2540,
      "Ġwast": 2541,
      "Ġindeed": 2542,
      "aly": 2543,
      "Ġdat": 2544,
      "itter": 2545,
      "Ġshirt": 2546,
      "ured": 2547,
      "va": 2548,
      "Ġahead": 2549,
      "Ġang": 2550,
      "Ġversion": 2551,
      "Ġposted": 2552,
      "can": 2553,
      "Ġbright": 2554,
      "Ġpassed": 2555,
      "Ġspeak": 2556,
      "nel": 2557,
      "Ġhotel": 2558,
      "ogra": 2559,
      "Ġextra": 2560,
      "Ġvid": 2561,
      "Â£": 2562,
      "Ġcover": 2563,
      "Ġ:-": 2564,
      "Ġstraight": 2565,
      "Ġtrou": 2566,
      "oooooo": 2567,
      "Ġsingle": 2568,
      "Ġden": 2569,
      "Ġmins": 2570,
      "Ġallow": 2571,
      "cl": 2572,
      "good": 2573,
      "Ġpen": 2574,
      "Ġsoft": 2575,
      "Ġgay": 2576,
      "Ġohh": 2577,
      "Ġstorm": 2578,
      "Ġtrail": 2579,
      "Ġdeser": 2580,
      "Ġhangover": 2581,
      "via": 2582,
      "Ġalthough": 2583,
      "Ġbrain": 2584,
      "Ġcountry": 2585,
      "Ġasked": 2586,
      "Ġdying": 2587,
      "Ġeur": 2588,
      "Ġstaying": 2589,
      "Ġlately": 2590,
      "Ġport": 2591,
      "Ġly": 2592,
      "Ġvip": 2593,
      "Ġview": 2594,
      "Ġnights": 2595,
      "use": 2596,
      "Ġbummed": 2597,
      "Ġhistory": 2598,
      "Ġmall": 2599,
      "Ġnon": 2600,
      "Ġlakers": 2601,
      "Ġver": 2602,
      "Ġaint": 2603,
      "gre": 2604,
      "Ġshoot": 2605,
      "Ġnose": 2606,
      "Ġhuh": 2607,
      "Ġsinging": 2608,
      "Ġcost": 2609,
      "Ġ19": 2610,
      "__": 2611,
      "cking": 2612,
      "Ġjer": 2613,
      "Ġ:'": 2614,
      "rain": 2615,
      "Ġdesign": 2616,
      "ato": 2617,
      "pro": 2618,
      "Ġfut": 2619,
      "lla": 2620,
      "Ġmel": 2621,
      "Ġmommy": 2622,
      "Ġdang": 2623,
      "Ġplane": 2624,
      "Ġstep": 2625,
      "Ġhealth": 2626,
      "Ġhav": 2627,
      "Ġgosh": 2628,
      "Ġcompletely": 2629,
      "Ġdoor": 2630,
      "Ġdvd": 2631,
      "Ġbow": 2632,
      "don": 2633,
      "Ġchanged": 2634,
      "Ġfest": 2635,
      "llll": 2636,
      "Ġyum": 2637,
      "Ġreturn": 2638,
      "Ġinstall": 2639,
      "Ġstate": 2640,
      "Ġbetween": 2641,
      "Ġfreaking": 2642,
      "Ġmill": 2643,
      "Ġfill": 2644,
      "Ġchrist": 2645,
      "Ġdaughter": 2646,
      "Ġroo": 2647,
      "Ġmorn": 2648,
      "Ġmajor": 2649,
      "Ġreco": 2650,
      "Ġbegin": 2651,
      "Ġawful": 2652,
      "Ġcurrently": 2653,
      "www": 2654,
      "Ġdisappointed": 2655,
      "ising": 2656,
      "Ġwearing": 2657,
      "ustral": 2658,
      "Ġusually": 2659,
      "Ġtraffic": 2660,
      "Ġbel": 2661,
      "Ġrecom": 2662,
      "Ġshin": 2663,
      "Ġhus": 2664,
      "Ġvia": 2665,
      "Ġwatchin": 2666,
      "Ġheaded": 2667,
      "Ġrub": 2668,
      "Ġworried": 2669,
      "Ġclear": 2670,
      "Ġbloody": 2671,
      "Ġcousin": 2672,
      "ips": 2673,
      "Ġsmo": 2674,
      "Ġtm": 2675,
      "Ġble": 2676,
      "Ġvir": 2677,
      "Ġdent": 2678,
      "Ġgroup": 2679,
      "Ġdoll": 2680,
      "Ġmix": 2681,
      "Ġruin": 2682,
      "Ġdisc": 2683,
      "Ġsexy": 2684,
      "Ġticket": 2685,
      "Ġexhausted": 2686,
      "Ġaud": 2687,
      "Ġvan": 2688,
      "ider": 2689,
      "ville": 2690,
      "Ġ16": 2691,
      "fer": 2692,
      "Ġbuild": 2693,
      "Ġperform": 2694,
      "Ġrecomme": 2695,
      "ence": 2696,
      "Ġaustral": 2697,
      "log": 2698,
      "Ġdu": 2699,
      "Ġform": 2700,
      "Ġothers": 2701,
      "Ġcell": 2702,
      "Ġfml": 2703,
      "Ġdig": 2704,
      "than": 2705,
      "Ġsucc": 2706,
      "Ġga": 2707,
      "Ġkit": 2708,
      "uts": 2709,
      "Ġfresh": 2710,
      "Ġring": 2711,
      "Ġbab": 2712,
      "Ġswimm": 2713,
      "Ġexpl": 2714,
      "Ġsomewhere": 2715,
      "Ġchillin": 2716,
      "Ġcaught": 2717,
      "Ġbag": 2718,
      "Ġhrs": 2719,
      "Ġinsp": 2720,
      "Ġspending": 2721,
      "Ġpissed": 2722,
      "Ġawwww": 2723,
      "Ġprofile": 2724,
      "Ġnobody": 2725,
      "nded": 2726,
      "lent": 2727,
      "deck": 2728,
      "Ġfever": 2729,
      "Ġsuggest": 2730,
      "ired": 2731,
      "py": 2732,
      "zing": 2733,
      "Ġmatter": 2734,
      "Ġcheer": 2735,
      "gggg": 2736,
      "Ġclosed": 2737,
      "Ġjoy": 2738,
      "bile": 2739,
      "Ġloo": 2740,
      "Ġshot": 2741,
      "men": 2742,
      "Ġnearly": 2743,
      "Ġfingers": 2744,
      "Ġlad": 2745,
      "Ġhay": 2746,
      "Ġrequ": 2747,
      "Ġdaddy": 2748,
      "Ġdisney": 2749,
      "Ġfixed": 2750,
      "ca": 2751,
      "Ġsol": 2752,
      "Ġsus": 2753,
      "Ġhands": 2754,
      "Ġsan": 2755,
      "Ġopt": 2756,
      "Ġcongratul": 2757,
      "Ġbrown": 2758,
      "Ġrip": 2759,
      "logy": 2760,
      "Ġitunes": 2761,
      "Ġdunno": 2762,
      "ighb": 2763,
      "Ġappreciate": 2764,
      "Ġheat": 2765,
      "ices": 2766,
      "Ġlear": 2767,
      "Ġooh": 2768,
      "Ġsouth": 2769,
      "Ġhy": 2770,
      "Ġdev": 2771,
      "Ġhugs": 2772,
      "son": 2773,
      "omb": 2774,
      "Ġproblems": 2775,
      "Ġatl": 2776,
      "Ġhilar": 2777,
      "Ġmaths": 2778,
      "Ġproper": 2779,
      "Ġmate": 2780,
      "ature": 2781,
      "Ġdogs": 2782,
      "Ġnyc": 2783,
      "Ġfour": 2784,
      "Ġchic": 2785,
      "Ġfol": 2786,
      "Ġinfo": 2787,
      "Ġow": 2788,
      "Ġnah": 2789,
      "Ġneighb": 2790,
      "Ġcoz": 2791,
      "iest": 2792,
      "Ġwet": 2793,
      "Ġmagic": 2794,
      "Ġspot": 2795,
      "Ġfuture": 2796,
      "Ġjoe": 2797,
      "Ġimag": 2798,
      "Ġgar": 2799,
      "Ġtaylor": 2800,
      "Ġcud": 2801,
      "ison": 2802,
      "Ġide": 2803,
      "mmmm": 2804,
      "Ġended": 2805,
      "Ġsooooo": 2806,
      "Ġsilly": 2807,
      "Ġspam": 2808,
      "Ġstopped": 2809,
      "Ġ17": 2810,
      "Ġtakes": 2811,
      "Ġmanag": 2812,
      "Ġquiet": 2813,
      "ware": 2814,
      "itch": 2815,
      "Ġblast": 2816,
      "Ġcras": 2817,
      "Ġbank": 2818,
      "ker": 2819,
      "Ġ(:": 2820,
      "Ġhusband": 2821,
      "Ġmarket": 2822,
      "Ġwindow": 2823,
      "Ġwal": 2824,
      "oth": 2825,
      "Ġbee": 2826,
      "Ġash": 2827,
      "Ġhoney": 2828,
      "idays": 2829,
      "sc": 2830,
      "ja": 2831,
      "Ġdirect": 2832,
      "aaaaaaaa": 2833,
      "board": 2834,
      "Ġfeed": 2835,
      "Ġreview": 2836,
      "Ġphil": 2837,
      "Ġdesk": 2838,
      "sss": 2839,
      "Ġ13": 2840,
      "Ġwindows": 2841,
      "Ġswimming": 2842,
      "Ġhills": 2843,
      "Ġtheres": 2844,
      "ler": 2845,
      "Ġdoctor": 2846,
      "Ġconta": 2847,
      "like": 2848,
      "Ġage": 2849,
      "Ġtype": 2850,
      "real": 2851,
      ".......": 2852,
      "gram": 2853,
      "Ġ:|": 2854,
      "Ġ50": 2855,
      "Ġnone": 2856,
      "Ġcough": 2857,
      "icious": 2858,
      "Ġaug": 2859,
      "Ġpuppy": 2860,
      "Ġavail": 2861,
      "oid": 2862,
      "Ġkat": 2863,
      "Ġbackground": 2864,
      "iling": 2865,
      "play": 2866,
      "Ġblackberry": 2867,
      "Ġdoin": 2868,
      "Ġblah": 2869,
      "Ġtrouble": 2870,
      "ides": 2871,
      "iced": 2872,
      "res": 2873,
      "xxxx": 2874,
      "Ġko": 2875,
      "Ġscrew": 2876,
      "Ġstarb": 2877,
      "sigh": 2878,
      "Ġpractice": 2879,
      "Ġwoman": 2880,
      "Ġtweetdeck": 2881,
      "Ġclasses": 2882,
      "Ġmcfly": 2883,
      "ago": 2884,
      "ities": 2885,
      "ibly": 2886,
      "ror": 2887,
      "Ġstor": 2888,
      "Ġdemi": 2889,
      "Ġstreet": 2890,
      "Ġhilarious": 2891,
      "ped": 2892,
      "ye": 2893,
      "Ġneck": 2894,
      "Ġpossible": 2895,
      "Ġbraz": 2896,
      "Ġjump": 2897,
      "Ġplz": 2898,
      "Ġplanning": 2899,
      "Ġconfused": 2900,
      "Ġmist": 2901,
      "Ġbill": 2902,
      "ergy": 2903,
      "Ġfb": 2904,
      "Ġcancell": 2905,
      "Ġtraining": 2906,
      "09": 2907,
      "Ġdoubt": 2908,
      "Ġlaying": 2909,
      "pens": 2910,
      "off": 2911,
      "els": 2912,
      "Ġpal": 2913,
      "onest": 2914,
      "ites": 2915,
      "Ġswe": 2916,
      "Ġug": 2917,
      "ime": 2918,
      "Ġmiddle": 2919,
      "hen": 2920,
      "Ġoften": 2921,
      "Ġawh": 2922,
      "vered": 2923,
      "tweeter": 2924,
      "Ġdancing": 2925,
      "Ġ21": 2926,
      "Ġsched": 2927,
      "Ġkate": 2928,
      "Ġtrack": 2929,
      "Ġsar": 2930,
      "Ġbummer": 2931,
      "Ġthru": 2932,
      "Ġ25": 2933,
      "Ġchris": 2934,
      "Ġcalling": 2935,
      "Ġaha": 2936,
      "Ġbf": 2937,
      "tery": 2938,
      "Ġflat": 2939,
      "Ġetc": 2940,
      "ational": 2941,
      "Ġnormal": 2942,
      "Ġri": 2943,
      "Ġbecome": 2944,
      "aces": 2945,
      "Ġteeth": 2946,
      "Ġcongratulations": 2947,
      "Ġtrek": 2948,
      "Ġdar": 2949,
      "Ġfavour": 2950,
      "Ġcertain": 2951,
      "Ġadam": 2952,
      "Ġimport": 2953,
      "da": 2954,
      "Ġyess": 2955,
      "Ġlaund": 2956,
      "Ġdouble": 2957,
      "oring": 2958,
      "lle": 2959,
      "Ġthoughts": 2960,
      "Ġbase": 2961,
      "Ġreport": 2962,
      "Ġfailed": 2963,
      "Ġlaw": 2964,
      "Ġseries": 2965,
      "hi": 2966,
      "Ġlov": 2967,
      "Ġhoo": 2968,
      "Ġpeeps": 2969,
      "aring": 2970,
      "Ġbrazil": 2971,
      "Ġign": 2972,
      "Ġcri": 2973,
      "Ġboard": 2974,
      "Ġcontact": 2975,
      "Ġsort": 2976,
      "Ġbon": 2977,
      "Ġburnt": 2978,
      "Â¸": 2979,
      "Ġlegs": 2980,
      "Ġhasn": 2981,
      "pped": 2982,
      "Ġepic": 2983,
      "Ġalex": 2984,
      "Ġtrailer": 2985,
      "Ġtalent": 2986,
      "Ġstarbucks": 2987,
      "Ġusual": 2988,
      "Ġache": 2989,
      "Ġjen": 2990,
      "Ġbadly": 2991,
      "Ġhonest": 2992,
      "mpt": 2993,
      "Ġahaha": 2994,
      "que": 2995,
      "Ġlaundry": 2996,
      "ino": 2997,
      "Ġclou": 2998,
      "vous": 2999,
      "Ġdentist": 3000,
      "oun": 3001,
      "Ġegg": 3002,
      "Ġrev": 3003,
      "Ġsale": 3004,
      "Ġdropped": 3005,
      "Ġincl": 3006,
      "Ġcopy": 3007,
      "Ġfrance": 3008,
      "Ġdraw": 3009,
      "idge": 3010,
      "Ġcouldnt": 3011,
      "ival": 3012,
      "Ġwest": 3013,
      "attle": 3014,
      "Ġtaste": 3015,
      "Ġclick": 3016,
      "cakes": 3017,
      "verse": 3018,
      "Ġmod": 3019,
      "Ġpress": 3020,
      "Ġprin": 3021,
      "Ġputting": 3022,
      "ograph": 3023,
      "ico": 3024,
      "Ġchoice": 3025,
      "Ġanim": 3026,
      "Ġmiles": 3027,
      "Ġpol": 3028,
      "Ġprogram": 3029,
      "Ġmer": 3030,
      "Ġspo": 3031,
      "Ġskin": 3032,
      "Ġposit": 3033,
      "Ġloads": 3034,
      "bar": 3035,
      "Ġfed": 3036,
      "Ġyall": 3037,
      "this": 3038,
      "Ġstat": 3039,
      "Ġsuppose": 3040,
      "Ġbuddy": 3041,
      "light": 3042,
      "Ġmouth": 3043,
      "Ġavailable": 3044,
      "eeeee": 3045,
      "Ġbull": 3046,
      "Ġknee": 3047,
      "Ġsending": 3048,
      "oul": 3049,
      "Ġgener": 3050,
      "icle": 3051,
      "Ġgutted": 3052,
      "Ġhah": 3053,
      "she": 3054,
      "Ġint": 3055,
      "raid": 3056,
      "Ġsearch": 3057,
      "Ġpaid": 3058,
      "Ġaustralia": 3059,
      "Ġcancelled": 3060,
      "Ġhom": 3061,
      "Ġmsn": 3062,
      "Ġexp": 3063,
      "Ġlearning": 3064,
      "ific": 3065,
      "eted": 3066,
      "ung": 3067,
      "Ġhon": 3068,
      "Ġwasnt": 3069,
      "Ġhelping": 3070,
      "Ġaccident": 3071,
      "Ġdry": 3072,
      "Ġben": 3073,
      "Ġentire": 3074,
      "Ġsuccess": 3075,
      "Ġyr": 3076,
      "Ġbff": 3077,
      "ains": 3078,
      "Ġdarn": 3079,
      "Ġstrong": 3080,
      "15": 3081,
      "have": 3082,
      "Ġmilk": 3083,
      "Ġsense": 3084,
      "Â»": 3085,
      "Ġima": 3086,
      "Ġanyways": 3087,
      "rac": 3088,
      "Ġcontin": 3089,
      "Ġchecking": 3090,
      "dddd": 3091,
      "versity": 3092,
      "Ġ:'(": 3093,
      "Ġpm": 3094,
      "Ġrow": 3095,
      "Ġfalling": 3096,
      "Ġcust": 3097,
      "Ġages": 3098,
      "Ġhanna": 3099,
      "Ġexpens": 3100,
      "Ġbare": 3101,
      "Ġnervous": 3102,
      "Ġbutt": 3103,
      "Ġcand": 3104,
      "Ġdepressed": 3105,
      "Ġideas": 3106,
      "squ": 3107,
      "Ġmach": 3108,
      "Ġfeelin": 3109,
      "Ġchicago": 3110,
      "Ġain": 3111,
      "Ġgold": 3112,
      "Ġspell": 3113,
      "ery": 3114,
      "Ġafraid": 3115,
      "itten": 3116,
      "Ġshouldn": 3117,
      "Ġkidding": 3118,
      "ctions": 3119,
      "Ġchannel": 3120,
      "Ġess": 3121,
      "Ġasking": 3122,
      "Ġshes": 3123,
      "ues": 3124,
      "Ġ40": 3125,
      "iant": 3126,
      "wood": 3127,
      "Ġteacher": 3128,
      "))": 3129,
      "ames": 3130,
      "Ġtit": 3131,
      "Ġos": 3132,
      "Ġyell": 3133,
      "Ġholy": 3134,
      "Ġbal": 3135,
      "Ġearth": 3136,
      "Ġwha": 3137,
      "Ġcried": 3138,
      "using": 3139,
      "Ġlie": 3140,
      "Ġscot": 3141,
      "Ġextreme": 3142,
      "Ġkilled": 3143,
      "Ġlake": 3144,
      "Ġmoved": 3145,
      "Ġhero": 3146,
      "len": 3147,
      "Ġlikes": 3148,
      "Ġafford": 3149,
      "Ġkeeping": 3150,
      "Ġpersonal": 3151,
      "Ġcheap": 3152,
      "Ġswine": 3153,
      "ric": 3154,
      "Ġmobile": 3155,
      "ping": 3156,
      "Ġrace": 3157,
      "Ġbrill": 3158,
      "ior": 3159,
      "ien": 3160,
      "Ġwo": 3161,
      "-)": 3162,
      "Ġimportant": 3163,
      "hope": 3164,
      "ium": 3165,
      "Ġwoot": 3166,
      "Ġcolor": 3167,
      "Âł": 3168,
      "Ġbc": 3169,
      "Ġallerg": 3170,
      "Ġbrand": 3171,
      "Ġry": 3172,
      "Ġorig": 3173,
      "Ġboss": 3174,
      "Ġtwittering": 3175,
      "Ġtweeps": 3176,
      "llen": 3177,
      "Ġeveryday": 3178,
      "vo": 3179,
      "Ġmont": 3180,
      "ased": 3181,
      "Ġcrack": 3182,
      "Ġbuying": 3183,
      "vs": 3184,
      "Ġarrived": 3185,
      "Ġsecret": 3186,
      "Ġsyst": 3187,
      "Ġ^": 3188,
      "morning": 3189,
      "Ġfive": 3190,
      "twitter": 3191,
      "Ġladies": 3192,
      "Ġimpress": 3193,
      "Ġamerican": 3194,
      "iny": 3195,
      "Ġhes": 3196,
      "dered": 3197,
      "Ġblock": 3198,
      "Ġassign": 3199,
      "wards": 3200,
      "Ġaugust": 3201,
      "Ġfinding": 3202,
      "Ġxo": 3203,
      "Ġdnt": 3204,
      "Ġhannah": 3205,
      "roll": 3206,
      "Ġspace": 3207,
      "Ġcalls": 3208,
      "Ġlosing": 3209,
      "Ġbunch": 3210,
      "Ġdisco": 3211,
      "Ġlead": 3212,
      "Ġrocks": 3213,
      "bur": 3214,
      "down": 3215,
      "Ġhehehe": 3216,
      "Ġupgr": 3217,
      "Ġyah": 3218,
      "Ġthanx": 3219,
      "mas": 3220,
      "ron": 3221,
      "Ġaddic": 3222,
      "Ġfreakin": 3223,
      "Ġhappening": 3224,
      "Ġrecommend": 3225,
      "Ġmidnight": 3226,
      "Ġsunburn": 3227,
      "hol": 3228,
      "Ġtelling": 3229,
      "Ġarea": 3230,
      "Ġchecked": 3231,
      "list": 3232,
      "ÂĦ": 3233,
      "Ġloud": 3234,
      "Ġanywhere": 3235,
      "Ġdelicious": 3236,
      "Ġgermany": 3237,
      "Ġkitty": 3238,
      "Ġworkout": 3239,
      "Ġcode": 3240,
      "pic": 3241,
      "Ġmal": 3242,
      "Ġsomebody": 3243,
      "rating": 3244,
      "Ġattack": 3245,
      "hew": 3246,
      "Ġupdated": 3247,
      "Ġpromise": 3248,
      "Ġhook": 3249,
      "Ġmisses": 3250,
      "Ġjk": 3251,
      "omen": 3252,
      "uth": 3253,
      "Ġagainst": 3254,
      "Ġisland": 3255,
      "Ġvs": 3256,
      "Ġspan": 3257,
      "Ġdepressing": 3258,
      "Ġlibr": 3259,
      "Ġexpensive": 3260,
      "Ġcheers": 3261,
      "Ġdanny": 3262,
      "Ġlm": 3263,
      "Ġum": 3264,
      "shi": 3265,
      "Ġbri": 3266,
      "Ġsocial": 3267,
      "Ġissu": 3268,
      "dam": 3269,
      "Ġspr": 3270,
      "Ġarm": 3271,
      "?!?": 3272,
      "Ġcustom": 3273,
      "Ġoutta": 3274,
      "Ġmatch": 3275,
      "Ġexperience": 3276,
      "Ġfavourite": 3277,
      "Ġber": 3278,
      "Ġsurv": 3279,
      "Ġstation": 3280,
      "gged": 3281,
      "Ġgotten": 3282,
      "Ġhowever": 3283,
      "chen": 3284,
      "Ġpositive": 3285,
      "Ġfolks": 3286,
      "Ġgro": 3287,
      "Ġlat": 3288,
      "miss": 3289,
      "Ġcree": 3290,
      "sey": 3291,
      "anda": 3292,
      "Ġtru": 3293,
      "Ġjoke": 3294,
      "rows": 3295,
      "Ġshowing": 3296,
      "owers": 3297,
      "ference": 3298,
      "Ġsnow": 3299,
      "Ġjay": 3300,
      "Ġjap": 3301,
      "Ġtonite": 3302,
      "lfr": 3303,
      "ults": 3304,
      "cut": 3305,
      "Ġyork": 3306,
      "Ġfollowed": 3307,
      "Ġbug": 3308,
      "Ġff": 3309,
      "Ġtomm": 3310,
      "Ġallowed": 3311,
      "ging": 3312,
      "Ġcrappy": 3313,
      "Ġenergy": 3314,
      "bert": 3315,
      "tttt": 3316,
      "Ġcookies": 3317,
      "Ġentertain": 3318,
      "Ġmama": 3319,
      "Ġbrought": 3320,
      "pa": 3321,
      "Ġaaa": 3322,
      "Ġcomf": 3323,
      "Ġissues": 3324,
      "ume": 3325,
      "lfriend": 3326,
      "!...": 3327,
      "Ġlack": 3328,
      "Ġsport": 3329,
      "Ġpls": 3330,
      "Ġwrote": 3331,
      "airs": 3332,
      "sha": 3333,
      "Ġcooking": 3334,
      "Ġking": 3335,
      "Ġtwice": 3336,
      "Ġador": 3337,
      "vy": 3338,
      "Ġia": 3339,
      "Ġspring": 3340,
      "Ġadded": 3341,
      "Ġobs": 3342,
      "Ġfro": 3343,
      "Ġwanting": 3344,
      "Ġprice": 3345,
      "Ġbird": 3346,
      "sm": 3347,
      "ived": 3348,
      "hugs": 3349,
      "Ġgunna": 3350,
      "Ġlang": 3351,
      "Ġmex": 3352,
      "Ġjb": 3353,
      "Ġstayed": 3354,
      "Ġfloor": 3355,
      "af": 3356,
      "wise": 3357,
      "Ġmessages": 3358,
      "Ġempty": 3359,
      "50": 3360,
      "Ġopp": 3361,
      "Ġcharac": 3362,
      "Ġtalked": 3363,
      "Ġstraw": 3364,
      "11": 3365,
      "Ġunless": 3366,
      "Ġdrag": 3367,
      "Ġdumb": 3368,
      "Ġop": 3369,
      "Ġstudio": 3370,
      "athon": 3371,
      "ule": 3372,
      "Ġbun": 3373,
      "cr": 3374,
      "Ġaunt": 3375,
      "Ġexcell": 3376,
      "Ġxbox": 3377,
      "Ġcast": 3378,
      "Ġpoo": 3379,
      "Ġsushi": 3380,
      "Ġphys": 3381,
      "den": 3382,
      "ipped": 3383,
      "Ġnoooo": 3384,
      "gl": 3385,
      "Ġmini": 3386,
      "Ġimagine": 3387,
      "Ġcred": 3388,
      "Ġengland": 3389,
      "Ġ2009": 3390,
      "Ġslight": 3391,
      "Ġoops": 3392,
      "ida": 3393,
      "Ġjess": 3394,
      "Ġstri": 3395,
      "Ġshift": 3396,
      "Ġtrust": 3397,
      "Ġmike": 3398,
      "Ġtravel": 3399,
      "Ġlibrary": 3400,
      "bre": 3401,
      "cket": 3402,
      "Ġchem": 3403,
      "may": 3404,
      "Ġgirlfriend": 3405,
      "Ġswear": 3406,
      "Ġwii": 3407,
      "Ġqual": 3408,
      "Ġsweetie": 3409,
      "Ġbio": 3410,
      "Ġfinale": 3411,
      "Ġfave": 3412,
      "Ġjes": 3413,
      "iring": 3414,
      "Ġscience": 3415,
      "Ġsir": 3416,
      "Ġfinger": 3417,
      "Ġtwitters": 3418,
      "ami": 3419,
      "Ġweight": 3420,
      "Ġmult": 3421,
      "Ġcats": 3422,
      "Ġbutter": 3423,
      "Ġatm": 3424,
      "Ġgift": 3425,
      "Ġstrange": 3426,
      "ipping": 3427,
      "Ġlocal": 3428,
      "Ġadorable": 3429,
      "Ġwol": 3430,
      "haps": 3431,
      "Ġnorth": 3432,
      "Ġconnect": 3433,
      "iot": 3434,
      "Ġhost": 3435,
      "Ġexcellent": 3436,
      "Ġsea": 3437,
      "Ġtmr": 3438,
      "aÂº": 3439,
      "Ġoooh": 3440,
      "cus": 3441,
      "Ġfollower": 3442,
      "Ġmillion": 3443,
      "bing": 3444,
      "Ġorigin": 3445,
      "Ġsoup": 3446,
      "Ġsession": 3447,
      "Ġalive": 3448,
      "Ġamerica": 3449,
      "ob": 3450,
      "Ġtough": 3451,
      "Ġsuff": 3452,
      "Ġhm": 3453,
      "Ġnoticed": 3454,
      "Ġcouch": 3455,
      "amb": 3456,
      "Ġdrinks": 3457,
      "60": 3458,
      "Ġjapan": 3459,
      "ham": 3460,
      "Ġhunt": 3461,
      "Ġpublic": 3462,
      "rol": 3463,
      "Ġswim": 3464,
      "hop": 3465,
      "Ġlar": 3466,
      "Ġmornin": 3467,
      "Ġsystem": 3468,
      "boy": 3469,
      "Ġmax": 3470,
      "Ġsmart": 3471,
      "dom": 3472,
      "ians": 3473,
      "Â°": 3474,
      "Ġmig": 3475,
      "Ġpicked": 3476,
      "Ġpee": 3477,
      "Ġdiffic": 3478,
      "Ġbes": 3479,
      "Ġbattery": 3480,
      "ken": 3481,
      "tom": 3482,
      "Ġcance": 3483,
      "Ġiron": 3484,
      "Ġofficial": 3485,
      "Ġdiet": 3486,
      "Ġintern": 3487,
      "Ġwoohoo": 3488,
      "Ġbutton": 3489,
      "Ġeverywhere": 3490,
      "inese": 3491,
      "Ġsce": 3492,
      "ito": 3493,
      "Ġgrandma": 3494,
      "Ġrelease": 3495,
      "Ġlog": 3496,
      "Ġflor": 3497,
      "Ġdep": 3498,
      "avy": 3499,
      "ours": 3500,
      "Ġkitchen": 3501,
      "Ġdeep": 3502,
      "Ġmatt": 3503,
      "Ġily": 3504,
      "Ġinvite": 3505,
      "Ġkept": 3506,
      "Ġpin": 3507,
      "Ġaccess": 3508,
      "Ġfabulous": 3509,
      "Ġcas": 3510,
      "arm": 3511,
      "Ġsimple": 3512,
      "uuu": 3513,
      "new": 3514,
      "Ġcatching": 3515,
      "Ġcoo": 3516,
      "Ġmoms": 3517,
      "Ġparis": 3518,
      "Ġsix": 3519,
      "Ġnails": 3520,
      "Ġpants": 3521,
      "Ġweekends": 3522,
      "Ġcanada": 3523,
      "dden": 3524,
      "Ġbrilliant": 3525,
      "hael": 3526,
      "mare": 3527,
      "Ġcraving": 3528,
      "ized": 3529,
      "they": 3530,
      "Ġobvious": 3531,
      "Ġmachine": 3532,
      "ita": 3533,
      "Ġloss": 3534,
      "Ġharry": 3535,
      "Ġdeserve": 3536,
      "Ġmas": 3537,
      "Ġohhh": 3538,
      "Ġsudden": 3539,
      "Ġhurting": 3540,
      "Ġboat": 3541,
      "Ġ90": 3542,
      "Ġbarely": 3543,
      "Â¬": 3544,
      "sen": 3545,
      "irty": 3546,
      "Ġdrama": 3547,
      "Ġbi": 3548,
      "Ġgrrrr": 3549,
      "Ġva": 3550,
      "velop": 3551,
      "Ġlaughing": 3552,
      "Ġlab": 3553,
      "Ġpiece": 3554,
      "Ġiss": 3555,
      "Ġque": 3556,
      "ko": 3557,
      "ggy": 3558,
      "Ġflying": 3559,
      "Ġproductive": 3560,
      "house": 3561,
      "nie": 3562,
      "Ġwashing": 3563,
      "rah": 3564,
      "Ġmedia": 3565,
      "Ġholly": 3566,
      "Ġspeed": 3567,
      "Ġletting": 3568,
      "nnnn": 3569,
      "Ġturns": 3570,
      "45": 3571,
      "cake": 3572,
      "Ġcomplain": 3573,
      "Ġdifficult": 3574,
      "Ġarticle": 3575,
      "Ġlmfa": 3576,
      "cs": 3577,
      "Ġholidays": 3578,
      "Ġugly": 3579,
      "Ġtoast": 3580,
      "Ġcab": 3581,
      "Ġyog": 3582,
      "Ġbru": 3583,
      "Ġcru": 3584,
      "Ġchildren": 3585,
      "Ġeurope": 3586,
      "?&": 3587,
      "Ġjour": 3588,
      "Ġgoodness": 3589,
      "Ġincred": 3590,
      "Ġelect": 3591,
      "gers": 3592,
      "Ġmir": 3593,
      "gery": 3594,
      "Ġdammit": 3595,
      "),": 3596,
      "Ġperhaps": 3597,
      "Ġstyle": 3598,
      "Ġ;-)": 3599,
      "Ġeasier": 3600,
      "Ġbey": 3601,
      "anta": 3602,
      "bit": 3603,
      "Ġtweeted": 3604,
      "Ġ80": 3605,
      "tr": 3606,
      "Ġliter": 3607,
      "tern": 3608,
      "ility": 3609,
      "Ġorgan": 3610,
      "Ġpleasure": 3611,
      "Ġchinese": 3612,
      "Ġsurprise": 3613,
      "Ġeast": 3614,
      "Ġwash": 3615,
      "Ġimma": 3616,
      "happy": 3617,
      "Ġsharing": 3618,
      "Ġlesson": 3619,
      "Ġcomments": 3620,
      "Ġbread": 3621,
      "aks": 3622,
      "sor": 3623,
      "Ġcommun": 3624,
      "Ġstage": 3625,
      "Ġending": 3626,
      "Ġadv": 3627,
      "world": 3628,
      "Ġrese": 3629,
      "Ġinclud": 3630,
      "Ġgas": 3631,
      "Ġtons": 3632,
      "cause": 3633,
      "Ġrealize": 3634,
      "Ġwomen": 3635,
      "Ġdow": 3636,
      "Ġrough": 3637,
      "ccer": 3638,
      "iii": 3639,
      "Ġtatt": 3640,
      "Ġheh": 3641,
      "Ġessay": 3642,
      "ala": 3643,
      "Ġnightmare": 3644,
      "Ġpaul": 3645,
      "Ġgah": 3646,
      "Ġdom": 3647,
      "Ġlord": 3648,
      "Ġbreaking": 3649,
      "Ġmarathon": 3650,
      "Ġrequest": 3651,
      "Ġsomehow": 3652,
      "Ġscream": 3653,
      "Ġdaily": 3654,
      "40": 3655,
      "ggg": 3656,
      "Ġapartment": 3657,
      "Ġtexas": 3658,
      "sing": 3659,
      "Ġment": 3660,
      "ooth": 3661,
      "ism": 3662,
      "Ġest": 3663,
      "ugh": 3664,
      "Ġkay": 3665,
      "Ġcir": 3666,
      "ged": 3667,
      "Ġdread": 3668,
      "Ġdest": 3669,
      "aur": 3670,
      "Ġmarried": 3671,
      "hhhhhhhh": 3672,
      "Ġtotal": 3673,
      "Ġpair": 3674,
      "Ġbang": 3675,
      "Ġglasses": 3676,
      "Ġgolf": 3677,
      "ona": 3678,
      "Ġ22": 3679,
      "hy": 3680,
      "Ġnooo": 3681,
      "Ġmuse": 3682,
      "Ġevil": 3683,
      "Ġcoast": 3684,
      "Ġfigured": 3685,
      "Ġwif": 3686,
      "het": 3687,
      "Ġhill": 3688,
      "Ġrespond": 3689,
      "Ġdevelop": 3690,
      "Ġplanned": 3691,
      "Ġsi": 3692,
      "ores": 3693,
      "asty": 3694,
      "morrow": 3695,
      "Ġchamp": 3696,
      "Ġscrat": 3697,
      "Ġplaces": 3698,
      "Ġanytime": 3699,
      "Ġquit": 3700,
      "Ġbottle": 3701,
      "Ġspanish": 3702,
      "ination": 3703,
      "Ġsurgery": 3704,
      "iction": 3705,
      "Ġaddicted": 3706,
      "nis": 3707,
      "Ġgrrr": 3708,
      "Ġdelay": 3709,
      "bed": 3710,
      "Ġannoyed": 3711,
      "Ġoooo": 3712,
      "aked": 3713,
      "Ġfootball": 3714,
      "jo": 3715,
      "Ġfake": 3716,
      "loy": 3717,
      "Ġhelps": 3718,
      "Ġdc": 3719,
      "grees": 3720,
      "Ġjames": 3721,
      "then": 3722,
      "Ġresults": 3723,
      "Ġlen": 3724,
      "Ġnom": 3725,
      "Ġgiven": 3726,
      "Ġtxt": 3727,
      "Ġnd": 3728,
      "Ġsoccer": 3729,
      "Ġacross": 3730,
      "ural": 3731,
      "Ġterri": 3732,
      "Ġjuice": 3733,
      "Ġbay": 3734,
      "Ġsisters": 3735,
      "Ġshining": 3736,
      "Ġwinter": 3737,
      "Ġmessed": 3738,
      "Ġfestival": 3739,
      "Ġschedule": 3740,
      "heart": 3741,
      "Ġsep": 3742,
      "Ġprefer": 3743,
      "igning": 3744,
      "Ġlookin": 3745,
      "Ġextremely": 3746,
      "Ġworries": 3747,
      "'.": 3748,
      "Ġsoul": 3749,
      "Ġtears": 3750,
      "Ġflorida": 3751,
      "Ġsize": 3752,
      "Ġthn": 3753,
      "illed": 3754,
      "Ġvol": 3755,
      "Ġinterested": 3756,
      "Ġbabies": 3757,
      "Ġoffer": 3758,
      "Ġrevising": 3759,
      "Ġsandw": 3760,
      "Ġmanaged": 3761,
      "dr": 3762,
      "Ġni": 3763,
      "Ġol": 3764,
      "Ġfault": 3765,
      "Ġqueen": 3766,
      "Â©": 3767,
      "Ġfer": 3768,
      "Ġtim": 3769,
      "Ġodd": 3770,
      "Ġchoo": 3771,
      "Ġhall": 3772,
      "Ġordered": 3773,
      "Ġblow": 3774,
      "Ġtransform": 3775,
      "Ġworkin": 3776,
      "pping": 3777,
      "Ġboston": 3778,
      "Ġsetting": 3779,
      "Ġtattoo": 3780,
      "ives": 3781,
      "Ġdeli": 3782,
      "arespace": 3783,
      "gger": 3784,
      "Ġ:]": 3785,
      "Ġ.....": 3786,
      "Ġvoted": 3787,
      "ints": 3788,
      "ises": 3789,
      "Ġjul": 3790,
      "Ġfinishing": 3791,
      "Ġrent": 3792,
      "Ġdegrees": 3793,
      "Ġlives": 3794,
      "Ġsigned": 3795,
      "Ġeffect": 3796,
      "cra": 3797,
      "Ġhee": 3798,
      "Ġvict": 3799,
      "Ġruined": 3800,
      "Ġtommor": 3801,
      "Ġcontest": 3802,
      "face": 3803,
      "Ġaim": 3804,
      "ees": 3805,
      "Ġonto": 3806,
      "ops": 3807,
      "Ġamp": 3808,
      "Ġuser": 3809,
      "Ġmemories": 3810,
      "Ġlou": 3811,
      "Ġheck": 3812,
      "ils": 3813,
      "ila": 3814,
      "Ġfur": 3815,
      "Ġconnection": 3816,
      "Ġtruly": 3817,
      "irl": 3818,
      "end": 3819,
      "Ġtooth": 3820,
      "Ġconvers": 3821,
      "Ġreality": 3822,
      "Ġridic": 3823,
      "Ġsarah": 3824,
      "Ġmount": 3825,
      "Ġstream": 3826,
      "Ġcrash": 3827,
      "Ġceleb": 3828,
      "Ġmichael": 3829,
      "Ġblame": 3830,
      "Ġpossibly": 3831,
      "Ġsugar": 3832,
      "Ġquestions": 3833,
      "Ġyuck": 3834,
      "Ġturning": 3835,
      "Ġbear": 3836,
      "Ġorange": 3837,
      "ape": 3838,
      "Ġissue": 3839,
      "Ġwild": 3840,
      "ution": 3841,
      "Ġangry": 3842,
      "mar": 3843,
      "adder": 3844,
      "Ġcali": 3845,
      "iles": 3846,
      "Ġserver": 3847,
      "Ġposting": 3848,
      "otion": 3849,
      "12": 3850,
      "Ġnin": 3851,
      "Ġshitty": 3852,
      "ists": 3853,
      "Ġweren": 3854,
      "Ġhearing": 3855,
      "ointment": 3856,
      "ography": 3857,
      "aÂºa": 3858,
      "Ġchap": 3859,
      "Ġadvice": 3860,
      "Ġwaste": 3861,
      "Ġawhile": 3862,
      "ses": 3863,
      "Ġkar": 3864,
      "Ġagre": 3865,
      "host": 3866,
      "ai": 3867,
      "mi": 3868,
      "Ġyoure": 3869,
      "Ġbeg": 3870,
      "ums": 3871,
      "Ġwk": 3872,
      "Ġlin": 3873,
      "sel": 3874,
      "Ġdut": 3875,
      "Ġnotice": 3876,
      "Ġcorrect": 3877,
      "chy": 3878,
      "Ġshots": 3879,
      "----": 3880,
      "Ġgives": 3881,
      "Ġsalad": 3882,
      "Ġrout": 3883,
      "Ġground": 3884,
      "tered": 3885,
      "Ġfucked": 3886,
      "Ġlatest": 3887,
      "hahaha": 3888,
      "Ġchilling": 3889,
      "Ġwalked": 3890,
      "Ġgross": 3891,
      "Ġcow": 3892,
      "star": 3893,
      "Ġandy": 3894,
      "Ġfuckin": 3895,
      "Ġblessed": 3896,
      "Ġhows": 3897,
      "Ġsyd": 3898,
      "Ġblocked": 3899,
      "Ġpainting": 3900,
      "Ġdecide": 3901,
      "Ġlmfao": 3902,
      "Ġflick": 3903,
      "Ġlearned": 3904,
      "Ġmmmm": 3905,
      "Ġconst": 3906,
      "Ġnasty": 3907,
      "Ġjun": 3908,
      "Ġgrey": 3909,
      "Ġlived": 3910,
      "illa": 3911,
      "uit": 3912,
      "Ġtar": 3913,
      "Ġtree": 3914,
      "Ġval": 3915,
      "Ġmacbook": 3916,
      "Ġcash": 3917,
      "Ġremo": 3918,
      "Ġfran": 3919,
      "Ġughh": 3920,
      "Ġleaves": 3921,
      "Ġstatus": 3922,
      "Ġdownt": 3923,
      "hr": 3924,
      "ket": 3925,
      "Ġsele": 3926,
      "Ġtrending": 3927,
      "tra": 3928,
      "Ġtun": 3929,
      "bay": 3930,
      "Ġpaint": 3931,
      "Ġtiny": 3932,
      "Ġsil": 3933,
      "Ġabt": 3934,
      "Ġtreat": 3935,
      "hood": 3936,
      "Ġjoined": 3937,
      "Ġyard": 3938,
      "Ġheavy": 3939,
      "Ġawe": 3940,
      "Ġspl": 3941,
      "Ġspread": 3942,
      "Ġcalif": 3943,
      "Ġpulled": 3944,
      "Ġcelebrate": 3945,
      ".!": 3946,
      "ushing": 3947,
      "Ġryan": 3948,
      "zzy": 3949,
      "sorry": 3950,
      "fox": 3951,
      "Ġank": 3952,
      "Ġbiggest": 3953,
      "Ġbeginning": 3954,
      "ado": 3955,
      "Ġtwee": 3956,
      "Ġwood": 3957,
      "Ġmassive": 3958,
      "Ġcrossed": 3959,
      "Ġdj": 3960,
      "Ġmanage": 3961,
      "thanks": 3962,
      "Ġepisodes": 3963,
      "Ġtwitpic": 3964,
      "Ġwooo": 3965,
      "Ġdiss": 3966,
      "Ġdave": 3967,
      "Ġconcer": 3968,
      "((": 3969,
      "ini": 3970,
      "org": 3971,
      "coming": 3972,
      "Ġbabysit": 3973,
      "bra": 3974,
      "Ġbgt": 3975,
      "aven": 3976,
      "Ġattention": 3977,
      "Ġcousins": 3978,
      "ening": 3979,
      "azz": 3980,
      "Ġotherwise": 3981,
      "Ġconan": 3982,
      "aga": 3983,
      "Ġfollowfriday": 3984,
      "Ġtrave": 3985,
      "Ġhealthy": 3986,
      "Ġrea": 3987,
      "ipe": 3988,
      "Ġmostly": 3989,
      "Ġlines": 3990,
      "ups": 3991,
      "Ġplayer": 3992,
      "Ġupdating": 3993,
      "Ġmotiv": 3994,
      "erc": 3995,
      "athe": 3996,
      "Ġmode": 3997,
      "Ġpsy": 3998,
      "Ġcher": 3999,
      "still": 4000,
      "Ġreminds": 4001,
      "Ġappro": 4002,
      "Ġtight": 4003,
      "eaking": 4004,
      "Ġtermin": 4005,
      "Ġdiversity": 4006,
      "Ġbell": 4007,
      "Ġanybody": 4008,
      "Ġcredit": 4009,
      "Ġbother": 4010,
      "Ġcontrol": 4011,
      "fit": 4012,
      "wish": 4013,
      "Â¾": 4014,
      "Ġpainful": 4015,
      "Ġexplain": 4016,
      "Ġpix": 4017,
      "Ġjud": 4018,
      "Ġgoodmorning": 4019,
      "ivers": 4020,
      "Ġlinks": 4021,
      "Ġcaliforn": 4022,
      "bly": 4023,
      "ilt": 4024,
      "3333": 4025,
      "car": 4026,
      "ures": 4027,
      "Ġcloser": 4028,
      "Ġsusan": 4029,
      "ray": 4030,
      "name": 4031,
      "Ġtable": 4032,
      "Ġclient": 4033,
      "Ġridiculous": 4034,
      "Ġdirty": 4035,
      "ros": 4036,
      "Ġemails": 4037,
      "irts": 4038,
      "Ġconference": 4039,
      "iam": 4040,
      "Ġdecis": 4041,
      "Ġlt": 4042,
      "Ġfathers": 4043,
      "Ġtht": 4044,
      "ashion": 4045,
      "Ġ^^": 4046,
      "ald": 4047,
      "Ġnoo": 4048,
      "gent": 4049,
      "Ġbaseball": 4050,
      "ders": 4051,
      "aaay": 4052,
      "Ġoper": 4053,
      "Ġkim": 4054,
      "Ġasap": 4055,
      "Ġpraying": 4056,
      "Ġgrr": 4057,
      "Ġcable": 4058,
      "Ġadvent": 4059,
      "eeeeee": 4060,
      "Ġalarm": 4061,
      "Ġarch": 4062,
      "Ġapps": 4063,
      "ws": 4064,
      "ids": 4065,
      "ili": 4066,
      "Ġvet": 4067,
      "har": 4068,
      "Ġtruck": 4069,
      "Ġslightly": 4070,
      "wat": 4071,
      "Ġmontana": 4072,
      "je": 4073,
      "Ġaa": 4074,
      "Ġrepe": 4075,
      "Ġretweet": 4076,
      "Ġvi": 4077,
      "Ġchuck": 4078,
      "Ġlimit": 4079,
      "Ġsear": 4080,
      "Ġflash": 4081,
      "Ġlauren": 4082,
      "Ġiran": 4083,
      "omn": 4084,
      "thin": 4085,
      "Ġtemp": 4086,
      "Ġnumb": 4087,
      "Ġfellow": 4088,
      "Ġreach": 4089,
      "Ġsubs": 4090,
      "Ġtax": 4091,
      "gue": 4092,
      "Ġprocess": 4093,
      "Ġcrow": 4094,
      "ann": 4095,
      "Ġhella": 4096,
      "bered": 4097,
      "Ġnic": 4098,
      "cho": 4099,
      "Ġeverytime": 4100,
      "Ġpod": 4101,
      "Ġtheme": 4102,
      "Ġidol": 4103,
      "Ġolder": 4104,
      "Ġdeleted": 4105,
      "why": 4106,
      "Ġmiser": 4107,
      "town": 4108,
      "Ġdepe": 4109,
      "Ġprem": 4110,
      "Ġbuilding": 4111,
      "Ġcommer": 4112,
      "Ġupgrade": 4113,
      "Ġobviously": 4114,
      "Ġclim": 4115,
      "Ġhandle": 4116,
      "uation": 4117,
      "Ġpages": 4118,
      "Ġears": 4119,
      "life": 4120,
      "Ġdesper": 4121,
      "fin": 4122,
      "Ġpriv": 4123,
      "Ġcalifornia": 4124,
      "Ġsym": 4125,
      "ari": 4126,
      "Ġknowing": 4127,
      "Ġconfir": 4128,
      "Ġsoooooo": 4129,
      "iment": 4130,
      "Ġkicked": 4131,
      "gon": 4132,
      "Ġlevel": 4133,
      "Ġhopes": 4134,
      "aÂµ": 4135,
      "maybe": 4136,
      "uk": 4137,
      "tweeteradder": 4138,
      "Ġpig": 4139,
      "ense": 4140,
      "nc": 4141,
      "Ġuncle": 4142,
      "Ġfreezing": 4143,
      "Ġprot": 4144,
      "Ġcourt": 4145,
      "Ġcards": 4146,
      "Ġlovin": 4147,
      "lock": 4148,
      "Ġacting": 4149,
      "cohol": 4150,
      "rus": 4151,
      "...&": 4152,
      "Ġquickly": 4153,
      "Ġhuman": 4154,
      "Ġtem": 4155,
      "Ġrestaur": 4156,
      "Ġtopic": 4157,
      "Ġsports": 4158,
      "Ġtransformers": 4159,
      "Ġwings": 4160,
      "Ġthird": 4161,
      "Ġeaten": 4162,
      "ok": 4163,
      "Ġham": 4164,
      "Ġsurprised": 4165,
      "of": 4166,
      "Ġmur": 4167,
      "ddd": 4168,
      "Ġquote": 4169,
      "oon": 4170,
      "word": 4171,
      "Ġgrocer": 4172,
      "Ġliterally": 4173,
      "Ġsydney": 4174,
      "ister": 4175,
      "Ġcrashed": 4176,
      "Ġmigrain": 4177,
      "Ġflowers": 4178,
      "Ġfamous": 4179,
      "und": 4180,
      "Ġhurry": 4181,
      "Ġsoftware": 4182,
      "Ġjesus": 4183,
      "hin": 4184,
      "Ġmee": 4185,
      "Ġthankyou": 4186,
      "Ġdiv": 4187,
      "phones": 4188,
      "Ġremem": 4189,
      "ux": 4190,
      "Ġpound": 4191,
      "Ġchallen": 4192,
      "Ġgt": 4193,
      "Ġjosh": 4194,
      "Ġfear": 4195,
      "Ġmondays": 4196,
      ";,": 4197,
      "Ġmart": 4198,
      "Ġew": 4199,
      "Ġshoo": 4200,
      "Ġtix": 4201,
      "Ġfeature": 4202,
      "cou": 4203,
      "Ġjord": 4204,
      "Ġsux": 4205,
      "Ġneither": 4206,
      "Ġfield": 4207,
      "Ġpump": 4208,
      "Ġrecently": 4209,
      "Ġliking": 4210,
      "Ġkevin": 4211,
      "Ġtennis": 4212,
      "fail": 4213,
      "Ġstressed": 4214,
      "Ġwide": 4215,
      "ony": 4216,
      "Ġpour": 4217,
      "Ġrich": 4218,
      "Ġopening": 4219,
      "Ġja": 4220,
      "Ġcounting": 4221,
      "Ġoriginal": 4222,
      "iod": 4223,
      "Ġprayers": 4224,
      "rer": 4225,
      "eek": 4226,
      "Ġtips": 4227,
      "Ġarms": 4228,
      "Ġposts": 4229,
      "cal": 4230,
      "Ġsour": 4231,
      "Ġfoo": 4232,
      "Ġfashion": 4233,
      "Ġpun": 4234,
      "ify": 4235,
      "Ġnetwork": 4236,
      "uses": 4237,
      "Ġsin": 4238,
      "Ġlas": 4239,
      "anna": 4240,
      "Ġapo": 4241,
      "squarespace": 4242,
      "nic": 4243,
      "ounce": 4244,
      "ste": 4245,
      "ittin": 4246,
      "Ġpacked": 4247,
      "Ġfighting": 4248,
      "Ġquality": 4249,
      "mer": 4250,
      "sad": 4251,
      "des": 4252,
      "Ġtyp": 4253,
      "isa": 4254,
      "Ġsuit": 4255,
      "ules": 4256,
      "Ġtruth": 4257,
      "look": 4258,
      "Ġdia": 4259,
      "Ġwhoo": 4260,
      "iled": 4261,
      "Ġgoss": 4262,
      "mark": 4263,
      "too": 4264,
      "Ġbooo": 4265,
      "iversary": 4266,
      "ius": 4267,
      "rup": 4268,
      "Ġbroad": 4269,
      "Ġaccept": 4270,
      "inting": 4271,
      "vert": 4272,
      "wr": 4273,
      "Ġmile": 4274,
      "Ġumm": 4275,
      "Ġknown": 4276,
      "Ġangel": 4277,
      "ek": 4278,
      "Ġwars": 4279,
      "cky": 4280,
      "Ġimpro": 4281,
      "was": 4282,
      "Ġbirds": 4283,
      "Ġankle": 4284,
      "Ġheaven": 4285,
      "Ġgrade": 4286,
      "Ġperformance": 4287,
      "bet": 4288,
      "hrs": 4289,
      "ners": 4290,
      "yes": 4291,
      "yea": 4292,
      "Ġtow": 4293,
      "Ġmeal": 4294,
      "Ġsucked": 4295,
      "Ġ140": 4296,
      "?)": 4297,
      "rad": 4298,
      "Ġequ": 4299,
      "Ġsmh": 4300,
      "Ġhardly": 4301,
      "Ġhaircut": 4302,
      "Ġrice": 4303,
      "Ġka": 4304,
      "Ġrealised": 4305,
      "Ġvisiting": 4306,
      "Ġavoid": 4307,
      "did": 4308,
      "Ġjobs": 4309,
      "Ġcenter": 4310,
      "!..": 4311,
      "who": 4312,
      "Ġpartic": 4313,
      "Ġangels": 4314,
      "Ġproperly": 4315,
      "Ġassignment": 4316,
      "Ġghost": 4317,
      "Â¦": 4318,
      "Ġtip": 4319,
      "Ġalcohol": 4320,
      "icked": 4321,
      "Ġinsane": 4322,
      "Ġaust": 4323,
      "Ġdub": 4324,
      "ollen": 4325,
      "Ġchip": 4326,
      "istry": 4327,
      "Ġteach": 4328,
      "Ġashley": 4329,
      "Ġmeh": 4330,
      "Ġsumm": 4331,
      "Ġends": 4332,
      "hhhhh": 4333,
      "Ġpoop": 4334,
      "Ġkrist": 4335,
      "Ġcompet": 4336,
      "Ġdowntown": 4337,
      "bish": 4338,
      "ges": 4339,
      "Ġcancer": 4340,
      "Ġscore": 4341,
      "Ġslowly": 4342,
      "Ġmemory": 4343,
      "Ġkris": 4344,
      "Ġdeb": 4345,
      "Ġcloudy": 4346,
      "Ġbacon": 4347,
      "Ġregular": 4348,
      "dies": 4349,
      "phew": 4350,
      "onto": 4351,
      "aper": 4352,
      "mbers": 4353,
      "Ġcine": 4354,
      "Ġspir": 4355,
      "Ġriding": 4356,
      "Ġthunderst": 4357,
      "Ġremembered": 4358,
      "Ġbomb": 4359,
      "Ġnie": 4360,
      "Ġau": 4361,
      "Ġsf": 4362,
      "Ġinvol": 4363,
      "Ġdecent": 4364,
      "Ġuploading": 4365,
      "Ġalas": 4366,
      "fection": 4367,
      "Ġexcuse": 4368,
      ";...": 4369,
      "Ġtou": 4370,
      "ushed": 4371,
      "lando": 4372,
      "Ġmodel": 4373,
      "Ġchair": 4374,
      "vision": 4375,
      "Ġpresentation": 4376,
      "Ġallergies": 4377,
      "Ġglo": 4378,
      "Ġdy": 4379,
      "Ġhavin": 4380,
      "Ġattend": 4381,
      "Ġsmoke": 4382,
      "Ġmistake": 4383,
      "with": 4384,
      "Ġder": 4385,
      "Ġchips": 4386,
      "Ġseat": 4387,
      "Ġspin": 4388,
      "Ġdownloading": 4389,
      "Ġinspir": 4390,
      "Ġpor": 4391,
      "Ġhw": 4392,
      "ura": 4393,
      "Ġaction": 4394,
      "Ġhr": 4395,
      "Ġwinning": 4396,
      "Ġriver": 4397,
      "Ġchoose": 4398,
      "Ġtal": 4399,
      "tend": 4400,
      "Ġanniversary": 4401,
      "Ġpaying": 4402,
      "Ġcandy": 4403,
      "gen": 4404,
      "shirt": 4405,
      "Ġtexting": 4406,
      "Ġhid": 4407,
      "Ġmary": 4408,
      "Ġpicking": 4409,
      "Ġinvited": 4410,
      "Ġrite": 4411,
      "Ġexpected": 4412,
      "wl": 4413,
      "Ġmm": 4414,
      "Ġtesting": 4415,
      "Ġpotter": 4416,
      "Ġhonestly": 4417,
      "Ġoce": 4418,
      "vering": 4419,
      "aming": 4420,
      "iel": 4421,
      "dra": 4422,
      "Ġstock": 4423,
      "sch": 4424,
      "Ġdressed": 4425,
      "Ġwire": 4426,
      "Ġfox": 4427,
      "Ġlying": 4428,
      "Ġoct": 4429,
      "Ġrehe": 4430,
      "icated": 4431,
      "Ġexerc": 4432,
      "Ġyeh": 4433,
      "Ġstars": 4434,
      "Ġhelped": 4435,
      "Ġsandwich": 4436,
      "Ġnan": 4437,
      "omy": 4438,
      "Ġdetails": 4439,
      "Ġpreparing": 4440,
      "bble": 4441,
      "val": 4442,
      "usting": 4443,
      "Ġzoo": 4444,
      "Ġrubbish": 4445,
      "Ġscrewed": 4446,
      "Ġpill": 4447,
      "nty": 4448,
      "urt": 4449,
      "Ġclue": 4450,
      "Ġfool": 4451,
      "Ġdiscuss": 4452,
      "gar": 4453,
      "Ġpoints": 4454,
      "again": 4455,
      "Ġstoked": 4456,
      "Ġmiami": 4457,
      "Ġgrowing": 4458,
      "Ġfrustr": 4459,
      "Ġimpressed": 4460,
      "Ġftw": 4461,
      "ilty": 4462,
      "uel": 4463,
      "Ġbigger": 4464,
      "Ġsmooth": 4465,
      "Ġstories": 4466,
      "nes": 4467,
      "chester": 4468,
      "Ġtryin": 4469,
      "monday": 4470,
      "Ġavat": 4471,
      "omnia": 4472,
      "Ġwra": 4473,
      "Ġebay": 4474,
      "Ġcertainly": 4475,
      "Ġeggs": 4476,
      "Ġexist": 4477,
      "Ġbedtime": 4478,
      "Ġbuff": 4479,
      "Ġgoood": 4480,
      "Ġphilipp": 4481,
      "aps": 4482,
      "bour": 4483,
      "ni": 4484,
      "ggie": 4485,
      "Ġesp": 4486,
      "Ġmicro": 4487,
      "Ġpad": 4488,
      "Ġbritney": 4489,
      "ero": 4490,
      "Ġyrs": 4491,
      "Ġlip": 4492,
      "Ġ23": 4493,
      "Ġcavs": 4494,
      "Ġfaster": 4495,
      "mart": 4496,
      "ply": 4497,
      "pack": 4498,
      "zen": 4499,
      "Ġdall": 4500,
      "Ġdro": 4501,
      "Ġstalk": 4502,
      "Ġze": 4503,
      "Ġreceived": 4504,
      "Ġoption": 4505,
      "ttt": 4506,
      "Ġagreed": 4507,
      "Ġtoy": 4508,
      "Ġorlando": 4509,
      "chel": 4510,
      "bow": 4511,
      "Ġyouu": 4512,
      "Ġmissin": 4513,
      "Ġblank": 4514,
      "Ġperiod": 4515,
      "Ġwisdom": 4516,
      "poss": 4517,
      "Ġds": 4518,
      "Ġletter": 4519,
      "Ġrevise": 4520,
      "Ġsigning": 4521,
      "Ġwhenever": 4522,
      "Ġnames": 4523,
      "Ġxxxx": 4524,
      "Ġcontinue": 4525,
      "Ġmuseum": 4526,
      "fg": 4527,
      "Ġpra": 4528,
      "Ġng": 4529,
      "least": 4530,
      "Ġsaved": 4531,
      "Ġsmiling": 4532,
      "Ġsteal": 4533,
      "Ġdoctors": 4534,
      "Ġlv": 4535,
      "Ġgossip": 4536,
      "aff": 4537,
      "see": 4538,
      "ode": 4539,
      "Ġcars": 4540,
      "ivity": 4541,
      "Ġsweat": 4542,
      "Ġwifi": 4543,
      "field": 4544,
      "asy": 4545,
      "Ġbottom": 4546,
      "Ġbasket": 4547,
      "Ġrestaurant": 4548,
      "mus": 4549,
      "rel": 4550,
      "Ġguest": 4551,
      "Ġtele": 4552,
      "Ġbeta": 4553,
      "Ġurgh": 4554,
      "Ġdallas": 4555,
      "Ġtut": 4556,
      "Ġil": 4557,
      "Ġuna": 4558,
      "Ġmagaz": 4559,
      "fee": 4560,
      "Ġnephew": 4561,
      "fever": 4562,
      "Ġlangu": 4563,
      "fing": 4564,
      "Ġfrank": 4565,
      "Ġusa": 4566,
      "Ġjeans": 4567,
      "Ġborn": 4568,
      "Ġreplies": 4569,
      "Ġsuggestions": 4570,
      "Ġnational": 4571,
      "Ġaddress": 4572,
      "Ġtoe": 4573,
      "Ġsmells": 4574,
      "Ġtmrw": 4575,
      "Ġmiserable": 4576,
      "Ġphones": 4577,
      "Ġaccom": 4578,
      "old": 4579,
      "Ġpurple": 4580,
      "Ġscene": 4581,
      "gress": 4582,
      "ral": 4583,
      "Ġways": 4584,
      "Ġunfollow": 4585,
      "give": 4586,
      "Ġbelly": 4587,
      "Ġjason": 4588,
      "Ġraw": 4589,
      "Ġhitting": 4590,
      "Ġcorner": 4591,
      "ju": 4592,
      "Ġhd": 4593,
      "Ġsundays": 4594,
      "Ġinsomnia": 4595,
      "Ġbah": 4596,
      "Ġcomfort": 4597,
      "Ġfunn": 4598,
      "Ġwhoa": 4599,
      "Ġreplace": 4600,
      "Ġboom": 4601,
      "Ġcrew": 4602,
      "Ġjan": 4603,
      "Ġrom": 4604,
      "Ġspeaking": 4605,
      "Ġdoc": 4606,
      "Ġlikely": 4607,
      "Ġsever": 4608,
      "Ġtests": 4609,
      "Ġwoop": 4610,
      "sa": 4611,
      "eez": 4612,
      "Ġitaly": 4613,
      "Ġut": 4614,
      "Ġ45": 4615,
      "Ġseattle": 4616,
      "Ġlaunch": 4617,
      "Ġdesp": 4618,
      "Ġfilled": 4619,
      "aced": 4620,
      "Ġ60": 4621,
      "Ġpancakes": 4622,
      "uce": 4623,
      "Ġcoke": 4624,
      "Ġsniff": 4625,
      "Ġtony": 4626,
      "Ġclassic": 4627,
      "oooooooooooooooo": 4628,
      "Ġbathroom": 4629,
      "cream": 4630,
      "Ġbing": 4631,
      "fest": 4632,
      "Ġboooo": 4633,
      "Ġund": 4634,
      "Ġediting": 4635,
      "Ġseconds": 4636,
      "200": 4637,
      "Ġ|": 4638,
      "Ġamount": 4639,
      "Ġadmit": 4640,
      "Ġstudent": 4641,
      "hehe": 4642,
      "..!": 4643,
      "ndy": 4644,
      "ford": 4645,
      "Ġpush": 4646,
      "Ġnotes": 4647,
      "Ġbrad": 4648,
      "Ġcurrent": 4649,
      "Ġresearch": 4650,
      "Ġji": 4651,
      "::": 4652,
      "Ġnut": 4653,
      "Ġhip": 4654,
      "Ġheyy": 4655,
      "Ġchatting": 4656,
      "Ġrecording": 4657,
      "Ġrehears": 4658,
      "ove": 4659,
      "Ġtis": 4660,
      "Ġsteve": 4661,
      "Ġloser": 4662,
      "Ġburned": 4663,
      "Âĺ": 4664,
      "Ġfort": 4665,
      "antly": 4666,
      "Ġguilty": 4667,
      "Ġcamping": 4668,
      "Ġobsess": 4669,
      "cious": 4670,
      "will": 4671,
      "Ġbite": 4672,
      "Ġweak": 4673,
      "pet": 4674,
      "lll": 4675,
      "esh": 4676,
      "ett": 4677,
      "Ġwouldnt": 4678,
      "Ġswitch": 4679,
      "Ġughhh": 4680,
      "Ġcreative": 4681,
      "Ġtweeters": 4682,
      "Ġii": 4683,
      "pper": 4684,
      "Ġshake": 4685,
      "Ġprincess": 4686,
      "Ġcart": 4687,
      "Ġhorse": 4688,
      "had": 4689,
      "idering": 4690,
      "selves": 4691,
      "damn": 4692,
      "Ġswift": 4693,
      "kkkk": 4694,
      "Ġstrawberry": 4695,
      "Ġwicked": 4696,
      "Ġmeat": 4697,
      "Ġerror": 4698,
      "Ġvoting": 4699,
      "Ġbesides": 4700,
      "ki": 4701,
      "Ġmaster": 4702,
      "Ġbrows": 4703,
      "atic": 4704,
      "sea": 4705,
      "Ġrot": 4706,
      "Ġwave": 4707,
      "Ġembar": 4708,
      "Ġedit": 4709,
      "Ġfruit": 4710,
      "antic": 4711,
      "atest": 4712,
      "ffff": 4713,
      "Ġprint": 4714,
      "Ġcurious": 4715,
      "Ġkeyboard": 4716,
      "Ġneighbor": 4717,
      "fun": 4718,
      "Ġnail": 4719,
      "luck": 4720,
      "Ġnove": 4721,
      "Ġarent": 4722,
      "Ġlights": 4723,
      "Ġocean": 4724,
      "Ġphilippines": 4725,
      "gie": 4726,
      "Ġaward": 4727,
      "gra": 4728,
      "Ġharder": 4729,
      "Ġreleased": 4730,
      "fc": 4731,
      "Ġavatar": 4732,
      "Ġsaving": 4733,
      "Ġros": 4734,
      "Ġcramp": 4735,
      "Ġparade": 4736,
      "iano": 4737,
      "nnn": 4738,
      "Ġjersey": 4739,
      "sn": 4740,
      "Ġtooo": 4741,
      "Ġgoal": 4742,
      "Ġjustin": 4743,
      "Ġsites": 4744,
      "Ġregret": 4745,
      "oof": 4746,
      "ency": 4747,
      "Ġbreath": 4748,
      "Ġsituation": 4749,
      "donald": 4750,
      "ban": 4751,
      "oned": 4752,
      "Ġhood": 4753,
      "Ġrac": 4754,
      "Ġplant": 4755,
      "Ġspain": 4756,
      "Ġlemon": 4757,
      "Ġdads": 4758,
      "Ġfancy": 4759,
      "Ġcharge": 4760,
      "fm": 4761,
      "made": 4762,
      "Ġgd": 4763,
      "Ġnood": 4764,
      "Ġot": 4765,
      "ading": 4766,
      "Ġimp": 4767,
      "Ġrofl": 4768,
      "Ġtoronto": 4769,
      "Ġjet": 4770,
      "Ġscri": 4771,
      "Ġchanging": 4772,
      "99": 4773,
      "Ġtb": 4774,
      "Ġgur": 4775,
      "Ġocc": 4776,
      "Ġthrew": 4777,
      "roy": 4778,
      "Ġgrass": 4779,
      "Ġjeff": 4780,
      "Ġattempt": 4781,
      "ser": 4782,
      "Ġapplic": 4783,
      "Ġstarving": 4784,
      "Ġatleast": 4785,
      "Ġgreet": 4786,
      "ained": 4787,
      "Ġblond": 4788,
      "Ġcookie": 4789,
      "Ġskype": 4790,
      "Ġterminator": 4791,
      "Ġmit": 4792,
      "stairs": 4793,
      "Ġwithin": 4794,
      "Ġparties": 4795,
      "boo": 4796,
      "Ġtg": 4797,
      "Ġlic": 4798,
      "Ġappear": 4799,
      "tweeterfollow": 4800,
      "Ġire": 4801,
      "Ġwins": 4802,
      "Ġdata": 4803,
      "Ġapr": 4804,
      "eral": 4805,
      "Ġlif": 4806,
      "ients": 4807,
      "25": 4808,
      "Ġ26": 4809,
      "osh": 4810,
      "Ġstole": 4811,
      "ety": 4812,
      "Ġbasically": 4813,
      "Ġconsidering": 4814,
      "mc": 4815,
      "Ġmam": 4816,
      "Ġmrs": 4817,
      "Ġwen": 4818,
      "Ġnowhere": 4819,
      "Ġcond": 4820,
      "Ġkeys": 4821,
      "Ġsneak": 4822,
      "iiiiiiii": 4823,
      "Ġchel": 4824,
      "Ġhole": 4825,
      "Ġtechno": 4826,
      "Ġclouds": 4827,
      "cos": 4828,
      "Ġgoooo": 4829,
      "tage": 4830,
      "Ġcafe": 4831,
      "Ġballs": 4832,
      "Ġcuddle": 4833,
      "fire": 4834,
      "ora": 4835,
      "Ġgreatest": 4836,
      "Ġdelete": 4837,
      "Ġdifference": 4838,
      "Ġfocus": 4839,
      "Ġbunny": 4840,
      "Ġnothin": 4841,
      "Ġshar": 4842,
      "Ġboyle": 4843,
      "Ġmigraine": 4844,
      "Ġgf": 4845,
      "Ġrude": 4846,
      "Ġspee": 4847,
      "Ġmassage": 4848,
      "Ġinform": 4849,
      "mma": 4850,
      "aaaaa": 4851,
      "Ġintro": 4852,
      "Ġmultip": 4853,
      "Ġay": 4854,
      "Ġbeauty": 4855,
      "Ġseveral": 4856,
      "Ġtas": 4857,
      "Ġheads": 4858,
      "Ġscar": 4859,
      "Ġappointment": 4860,
      "Ġcyrus": 4861,
      "Ġhayfever": 4862,
      "Ġtommorow": 4863,
      "uc": 4864,
      "hee": 4865,
      "Ġital": 4866,
      "Ġclock": 4867,
      "Ġcrowd": 4868,
      "Ġspoke": 4869,
      "Ġcarry": 4870,
      "Ġsuddenly": 4871,
      "resh": 4872,
      "Ġpit": 4873,
      "Ġpure": 4874,
      "Ġfri": 4875,
      "Ġgeorge": 4876,
      "Ġstanding": 4877,
      "Ġdarling": 4878,
      "Ġstates": 4879,
      "Ġamy": 4880,
      "Ġgloom": 4881,
      "Ġ500": 4882,
      "Ġhou": 4883,
      "Ġglor": 4884,
      "Ġgaga": 4885,
      "Ġvod": 4886,
      "Ġyellow": 4887,
      "Ġgrocery": 4888,
      "mes": 4889,
      "lection": 4890,
      "Ġtear": 4891,
      "Ġblink": 4892,
      "ios": 4893,
      "Ġiv": 4894,
      "Ġreplied": 4895,
      "Ġpeter": 4896,
      "run": 4897,
      "Ġlee": 4898,
      "Ġsomeday": 4899,
      "Ġplenty": 4900,
      "Ġfeelings": 4901,
      "Ġmeds": 4902,
      "Ġwasted": 4903,
      "school": 4904,
      "Â¼": 4905,
      "Ġindian": 4906,
      "Ġfirefox": 4907,
      "ugs": 4908,
      "Ġbattle": 4909,
      "Ġidiot": 4910,
      "yyyyyyyy": 4911,
      "Ġbanana": 4912,
      "break": 4913,
      "Ġpas": 4914,
      "ffe": 4915,
      "Ġcovered": 4916,
      "Ġ70": 4917,
      "Ġbooked": 4918,
      "Ġapolog": 4919,
      "ikes": 4920,
      "ointing": 4921,
      "rop": 4922,
      "Ġtune": 4923,
      "Ġak": 4924,
      "Ġshowed": 4925,
      "xy": 4926,
      "Ġnig": 4927,
      "Ġimage": 4928,
      "Ġfaith": 4929,
      "Ġrained": 4930,
      "Ġwoken": 4931,
      "Ġemotion": 4932,
      "hs": 4933,
      "icy": 4934,
      "Ġterm": 4935,
      "going": 4936,
      "Ġbt": 4937,
      "Ġult": 4938,
      "Ġrap": 4939,
      "Ġlim": 4940,
      "Ġbeyond": 4941,
      "when": 4942,
      "Ġlocked": 4943,
      "Ġwhether": 4944,
      "works": 4945,
      "zzz": 4946,
      "Ġburning": 4947,
      "Ġpurcha": 4948,
      "possible": 4949,
      "Ġteen": 4950,
      "Ġbk": 4951,
      "Ġnuts": 4952,
      "Ġhawa": 4953,
      "Ġexpress": 4954,
      "Ġprobs": 4955,
      "Ġswollen": 4956,
      "Ġbugs": 4957,
      "Ġresult": 4958,
      "Ġpalm": 4959,
      "sed": 4960,
      "eared": 4961,
      "Ġtalkin": 4962,
      "Ġdelayed": 4963,
      "Ġdrove": 4964,
      "Ġlam": 4965,
      "Ġkore": 4966,
      "Ġdownloaded": 4967,
      "Ġgeek": 4968,
      "ems": 4969,
      "vv": 4970,
      "Ġcomb": 4971,
      "Ġmedic": 4972,
      ".)": 4973,
      "pha": 4974,
      "rics": 4975,
      "ilst": 4976,
      "Ġchemistry": 4977,
      "gb": 4978,
      "Ġsaf": 4979,
      "Ġhappiness": 4980,
      "Ġchest": 4981,
      "Ġconversation": 4982,
      "Ġpier": 4983,
      "Ġcock": 4984,
      "Ġprivate": 4985,
      "Ġlawn": 4986,
      "Ġped": 4987,
      "Ġitself": 4988,
      "Ġthinkin": 4989,
      "please": 4990,
      "Ġholding": 4991,
      "Ġwolver": 4992,
      "Ġinfection": 4993,
      "Ġhadn": 4994,
      "Ġrespon": 4995,
      "Ġkisses": 4996,
      "Ġpodcast": 4997,
      "omg": 4998,
      "Ġswit": 4999,
      "Ġsearching": 5000,
      "Ġbestie": 5001,
      "Ġcharacter": 5002,
      "cd": 5003,
      "cript": 5004,
      "Ġdates": 5005,
      "Ġhating": 5006,
      "oming": 5007,
      "Ġplug": 5008,
      "Ġnamed": 5009,
      "Ġesc": 5010,
      "every": 5011,
      "hered": 5012,
      "Ġjac": 5013,
      "Ġmembers": 5014,
      "Ġcla": 5015,
      "Ġwritten": 5016,
      "Ġhide": 5017,
      "Ġsilver": 5018,
      "Ġray": 5019,
      "Ġram": 5020,
      "Ġbrings": 5021,
      "Ġmcdonald": 5022,
      "Ġcontent": 5023,
      "Ġyoga": 5024,
      "Ġfrustrated": 5025,
      "Ġrush": 5026,
      "---": 5027,
      "Ġkatie": 5028,
      "Ġcelebrating": 5029,
      "Ġtarget": 5030,
      "gic": 5031,
      "mind": 5032,
      "Ġtexts": 5033,
      "die": 5034,
      "Ġcs": 5035,
      "Ġtweep": 5036,
      "Ġshorts": 5037,
      "bro": 5038,
      "Ġell": 5039,
      "Ġ27": 5040,
      "Ġgraph": 5041,
      "Ġbringing": 5042,
      "Ġ1000": 5043,
      "cted": 5044,
      "Ġshoulder": 5045,
      "Ġrose": 5046,
      "Ġanimal": 5047,
      "away": 5048,
      "Ġmetro": 5049,
      "Ġgeneral": 5050,
      "Ġlarge": 5051,
      "Ġecon": 5052,
      "Ġcleaned": 5053,
      "Ġenter": 5054,
      "Ġsenior": 5055,
      "Ġbowl": 5056,
      "Ġappreciated": 5057,
      "Ġconsider": 5058,
      "Ġniece": 5059,
      "part": 5060,
      "Ġnad": 5061,
      "Ġactual": 5062,
      "Ġchanges": 5063,
      "Ġloose": 5064,
      "Ġkitt": 5065,
      "Ġscare": 5066,
      "Ġcharger": 5067,
      "Ġpotato": 5068,
      "Ġwoooo": 5069,
      "Ġjail": 5070,
      "Ġcomin": 5071,
      "Ġmornings": 5072,
      "Ġcinema": 5073,
      "Ġmouse": 5074,
      "only": 5075,
      "Ġdod": 5076,
      "Ġanx": 5077,
      "Ġmakeup": 5078,
      "Ġhott": 5079,
      "Ġbowling": 5080,
      "Ġresponse": 5081,
      "Ġrules": 5082,
      "Ġbreathe": 5083,
      "izing": 5084,
      "Ġtaco": 5085,
      "Âĳ?": 5086,
      "Ġopin": 5087,
      "Ġhawaii": 5088,
      "bad": 5089,
      "bc": 5090,
      "Ġspider": 5091,
      "Ġclosing": 5092,
      "Ġselling": 5093,
      "Ġcruise": 5094,
      "Ġtheat": 5095,
      "berries": 5096,
      "Ġhimself": 5097,
      "Ġlistened": 5098,
      "Ġsnugg": 5099,
      "Ġdd": 5100,
      "Ġbak": 5101,
      "Ġimpossible": 5102,
      "Ġpicnic": 5103,
      "Ġparts": 5104,
      "Ġvids": 5105,
      "bourne": 5106,
      "orting": 5107,
      "Ġkelly": 5108,
      "Ġmiche": 5109,
      "Ġdistract": 5110,
      "Ġpouring": 5111,
      "Ġpiano": 5112,
      "Ġwhilst": 5113,
      "moro": 5114,
      "Ġkiller": 5115,
      "Ġcharacters": 5116,
      ";?": 5117,
      "oc": 5118,
      "Â¤": 5119,
      "Ġast": 5120,
      "Ġfle": 5121,
      "Ġeu": 5122,
      "tember": 5123,
      "Ġcrush": 5124,
      "pre": 5125,
      "Â§": 5126,
      "Ġtid": 5127,
      "Ġawsome": 5128,
      "Ġyey": 5129,
      "Ġrelation": 5130,
      "Ġdiscovered": 5131,
      "nat": 5132,
      "Ġmt": 5133,
      "nal": 5134,
      "Ġlooo": 5135,
      "vest": 5136,
      "Ġcupcakes": 5137,
      "Ġinspiration": 5138,
      "bles": 5139,
      ".........": 5140,
      "Ġtag": 5141,
      "Ġcris": 5142,
      "Ġcreepy": 5143,
      "Ġmexico": 5144,
      "Ġjordan": 5145,
      "oe": 5146,
      "Ġapt": 5147,
      "check": 5148,
      "Ġgrab": 5149,
      "Ġgarage": 5150,
      "rage": 5151,
      "Ġprogress": 5152,
      "Ġstrugg": 5153,
      "fuck": 5154,
      "free": 5155,
      "rie": 5156,
      "Ġwil": 5157,
      "Ġskool": 5158,
      "Ġlanguage": 5159,
      "Ġtong": 5160,
      "owing": 5161,
      "Ġnoon": 5162,
      "soft": 5163,
      "Ġsuffering": 5164,
      "aÂµa": 5165,
      "Ġwolverine": 5166,
      "long": 5167,
      "hey": 5168,
      "Ġpean": 5169,
      "Ġbuzz": 5170,
      "Ġhungover": 5171,
      "Ġarrive": 5172,
      "Ġdrawing": 5173,
      "Ġscott": 5174,
      "Ġireland": 5175,
      "Ġspeech": 5176,
      "Ġpac": 5177,
      "Ġfrm": 5178,
      "Ġquiz": 5179,
      "Ġhahahah": 5180,
      "Ġexplo": 5181,
      "pare": 5182,
      "Ġups": 5183,
      "Ġtweetie": 5184,
      "Ġlessons": 5185,
      "Ġhumid": 5186,
      "ax": 5187,
      "Ġdick": 5188,
      "Ġswed": 5189,
      "Ġcolour": 5190,
      "Ġbands": 5191,
      "Ġkicking": 5192,
      "Ġrepeat": 5193,
      "Ġspirit": 5194,
      "ents": 5195,
      "Ġtat": 5196,
      "Ġsile": 5197,
      "Ġmission": 5198,
      "Ġsales": 5199,
      "za": 5200,
      "Ġita": 5201,
      "Ġchi": 5202,
      "Ġarr": 5203,
      "Ġjapanese": 5204,
      "Ġthnx": 5205,
      "Ġshooting": 5206,
      "Ġcro": 5207,
      "Ġles": 5208,
      "Ġpity": 5209,
      "Ġparking": 5210,
      "Ġbasketball": 5211,
      "bal": 5212,
      "kn": 5213,
      "ckey": 5214,
      "Ġreun": 5215,
      "Ġblues": 5216,
      "there": 5217,
      "Ġcanceled": 5218,
      "Ġdreading": 5219,
      "your": 5220,
      "Ġnk": 5221,
      "Ġmah": 5222,
      "Ġdrank": 5223,
      "Ġerra": 5224,
      "Ġlyrics": 5225,
      "Ġgri": 5226,
      "Ġuber": 5227,
      "Ġreall": 5228,
      "Ġshine": 5229,
      "Ġomfg": 5230,
      "Ġmomma": 5231,
      "Ġfully": 5232,
      "Ġpoker": 5233,
      "Ġroast": 5234,
      "Ġmeaning": 5235,
      "Ġmentioned": 5236,
      "Ġincredible": 5237,
      "Ġseptember": 5238,
      "Ġbabysitting": 5239,
      "athing": 5240,
      "Ġrespect": 5241,
      "Ġexercise": 5242,
      "cel": 5243,
      "Ġdriver": 5244,
      "Ġgraduate": 5245,
      "yay": 5246,
      "edom": 5247,
      "Ġdemo": 5248,
      "Ġbecoming": 5249,
      "Ġmarketing": 5250,
      "Ġmagazine": 5251,
      "gree": 5252,
      "ÂŃ": 5253,
      "Ġpens": 5254,
      "stal": 5255,
      "Ġseats": 5256,
      "ified": 5257,
      "Ġven": 5258,
      "Ġchelsea": 5259,
      "Ġaar": 5260,
      "Ġbuck": 5261,
      "Ġgal": 5262,
      "Ġscra": 5263,
      "music": 5264,
      "Ġappe": 5265,
      "ags": 5266,
      "Ġyumm": 5267,
      "Ġpupp": 5268,
      "Ġdesktop": 5269,
      "yeah": 5270,
      "wing": 5271,
      "Ġwah": 5272,
      "lyn": 5273,
      "Ġmuff": 5274,
      "andy": 5275,
      "Ġcereal": 5276,
      "Ġcorn": 5277,
      "................": 5278,
      "cles": 5279,
      "hone": 5280,
      "Ġaswell": 5281,
      "Ġtopics": 5282,
      "Ġdecision": 5283,
      "Ġhouston": 5284,
      "ole": 5285,
      "Ġmusical": 5286,
      "Ġclearly": 5287,
      "cas": 5288,
      "Ġgrown": 5289,
      "seb": 5290,
      "Ġsection": 5291,
      "cis": 5292,
      "lot": 5293,
      "Ġrare": 5294,
      "Ġpos": 5295,
      "Ġsadness": 5296,
      "Ġbothered": 5297,
      "Ġnaked": 5298,
      "Ġaddict": 5299,
      "Ġfarm": 5300,
      "Ġpleased": 5301,
      "Ġjimmy": 5302,
      "cul": 5303,
      "Ġdeck": 5304,
      "bel": 5305,
      "Ġawwwww": 5306,
      "Ġsquare": 5307,
      "Ġcontacts": 5308,
      "Ġmoo": 5309,
      "Ġcnt": 5310,
      "...!": 5311,
      "Ġship": 5312,
      "Ġlem": 5313,
      "ording": 5314,
      "Ġrule": 5315,
      "Ġchallenge": 5316,
      "need": 5317,
      "Ġbiz": 5318,
      "Ġfile": 5319,
      "Ġsoci": 5320,
      "Ġsimply": 5321,
      "Ġbs": 5322,
      "asses": 5323,
      "shop": 5324,
      "Ġruns": 5325,
      "Ġjourney": 5326,
      "vation": 5327,
      "Ġmp": 5328,
      "Ġbags": 5329,
      "usion": 5330,
      "Ġvamp": 5331,
      "ifts": 5332,
      "Ġrobert": 5333,
      "Ġadding": 5334,
      "Ġdemons": 5335,
      "Ġcontract": 5336,
      "Ġtitle": 5337,
      "Ġrelationship": 5338,
      "rid": 5339,
      "wd": 5340,
      "Ġtomorow": 5341,
      "Ġstudents": 5342,
      "Ġfiles": 5343,
      "18": 5344,
      "pool": 5345,
      "Ġflip": 5346,
      "Ġ=(": 5347,
      "Ġ$$": 5348,
      "Ġduty": 5349,
      "zer": 5350,
      "hem": 5351,
      "Ġeaster": 5352,
      "Ġfried": 5353,
      "Ġ28": 5354,
      "Ġfriendly": 5355,
      "Ġzomb": 5356,
      "Ġstorms": 5357,
      "Ġitalian": 5358,
      "itis": 5359,
      "Ġtap": 5360,
      "Ġprolly": 5361,
      "Ġfarrah": 5362,
      "Ġmsg": 5363,
      "Ġgiant": 5364,
      "Ġprojects": 5365,
      "Ġted": 5366,
      "Ġfrust": 5367,
      "Ġtwitte": 5368,
      "Ġfuneral": 5369,
      "Ġbleed": 5370,
      "Ġerrands": 5371,
      "Â²": 5372,
      "Ġbrunch": 5373,
      "333": 5374,
      "Ġnumbers": 5375,
      "Ġmanchester": 5376,
      "uper": 5377,
      "Ġemily": 5378,
      "Ġindia": 5379,
      "Ġartist": 5380,
      "lan": 5381,
      "Ġchina": 5382,
      "Ġbreaks": 5383,
      "Ġken": 5384,
      "Ġsubject": 5385,
      "Ġmotor": 5386,
      "even": 5387,
      "think": 5388,
      "Ġlolz": 5389,
      "oppin": 5390,
      "Ġerr": 5391,
      "Ġtransl": 5392,
      "Ġcig": 5393,
      "orms": 5394,
      "days": 5395,
      "Ġsauce": 5396,
      "Ġpassing": 5397,
      "Ġburger": 5398,
      "Ġcreate": 5399,
      "Ġaustin": 5400,
      "100": 5401,
      "full": 5402,
      "Ġtet": 5403,
      "Ġstaff": 5404,
      "Ġbob": 5405,
      "Ġscratch": 5406,
      "Ġchapter": 5407,
      "cat": 5408,
      "god": 5409,
      "Ġbump": 5410,
      "Ġft": 5411,
      "Ġsoph": 5412,
      "Ġsittin": 5413,
      "Ġwinner": 5414,
      "rentice": 5415,
      "bor": 5416,
      "vi": 5417,
      "Ġou": 5418,
      "Ġnoooooooo": 5419,
      "Ġmeetings": 5420,
      "~~": 5421,
      "Ġdoo": 5422,
      "Ġprevious": 5423,
      "Ġcares": 5424,
      "Ġsimilar": 5425,
      "Ġconfusing": 5426,
      "Ġgear": 5427,
      "Ġvirgin": 5428,
      "Ġobsessed": 5429,
      ".-": 5430,
      "Ġtall": 5431,
      "Ġlind": 5432,
      "Ġhig": 5433,
      "aged": 5434,
      "Ġreasons": 5435,
      "Ġaudio": 5436,
      "Â±": 5437,
      "aded": 5438,
      "Ġfrig": 5439,
      "Ġignore": 5440,
      "mys": 5441,
      "uh": 5442,
      "icing": 5443,
      "Ġshirts": 5444,
      "Ġmakin": 5445,
      "ista": 5446,
      "itted": 5447,
      "Ġrains": 5448,
      "anelection": 5449,
      "Ġuploaded": 5450,
      "Ġapril": 5451,
      "Ġfunction": 5452,
      "Ġpapers": 5453,
      "Ġcommunity": 5454,
      "Ġmountain": 5455,
      "Ġawk": 5456,
      "Ġcoughing": 5457,
      "Ġadventure": 5458,
      "mel": 5459,
      "Ġfridge": 5460,
      "apore": 5461,
      "Ġcollect": 5462,
      "Ġie": 5463,
      "asing": 5464,
      "pppp": 5465,
      "Ġknight": 5466,
      "Ġpreview": 5467,
      "which": 5468,
      "Ġnovember": 5469,
      "Ġglorious": 5470,
      ";.&": 5471,
      "di": 5472,
      "Ġgm": 5473,
      "Ġapply": 5474,
      "Ġblogs": 5475,
      "Ġmelbourne": 5476,
      "thank": 5477,
      ";/": 5478,
      "sters": 5479,
      "itting": 5480,
      "ams": 5481,
      "Ġblind": 5482,
      "Ġfreedom": 5483,
      "ires": 5484,
      "Ġxoxox": 5485,
      "Ġinstalled": 5486,
      "Ġbegins": 5487,
      "track": 5488,
      "rome": 5489,
      "Ġneg": 5490,
      "rick": 5491,
      "Ġthrowing": 5492,
      "Ġphysics": 5493,
      "lling": 5494,
      "Ġoutfit": 5495,
      "Ġgud": 5496,
      "Ġ360": 5497,
      "Ġjokes": 5498,
      "Ġwana": 5499,
      "rrrrrrrr": 5500,
      "Ġfi": 5501,
      "Ġlock": 5502,
      "Ġeasily": 5503,
      "Ġaccompl": 5504,
      "hip": 5505,
      "sk": 5506,
      "wc": 5507,
      "Ġace": 5508,
      "Ġroy": 5509,
      "Ġrise": 5510,
      "Ġker": 5511,
      "Ġadvert": 5512,
      "Ġpopular": 5513,
      "Ġeffort": 5514,
      "Ġcompetition": 5515,
      "hor": 5516,
      "try": 5517,
      "Â®": 5518,
      "Ġdud": 5519,
      "Ġtwin": 5520,
      "Ġcommon": 5521,
      "Ġconv": 5522,
      "Ġforgotten": 5523,
      "Ġbbc": 5524,
      "Ġcutting": 5525,
      "Ġtorn": 5526,
      "Ġsunbur": 5527,
      "Ġelectric": 5528,
      "Ġpred": 5529,
      "icles": 5530,
      "Ġsorted": 5531,
      "Ġdisappointing": 5532,
      "Ġfeedback": 5533,
      "Ġbucks": 5534,
      "Ġgall": 5535,
      "urity": 5536,
      "Ġlightning": 5537,
      "Ġvirus": 5538,
      "crast": 5539,
      "ghed": 5540,
      "inst": 5541,
      "Ġyikes": 5542,
      "Ġforgive": 5543,
      "Ġlongest": 5544,
      "Ġindo": 5545,
      "Ġtyping": 5546,
      "Ġrelated": 5547,
      "Ġcudd": 5548,
      "400": 5549,
      "Ġwid": 5550,
      "Ġbast": 5551,
      "Ġevents": 5552,
      "Ġpride": 5553,
      "Ġdawn": 5554,
      "Ġeric": 5555,
      "Ġbased": 5556,
      "ashed": 5557,
      "Ġjunk": 5558,
      "Ġsadd": 5559,
      "Ġgran": 5560,
      "corn": 5561,
      "mins": 5562,
      "Â³": 5563,
      "really": 5564,
      "Ġdust": 5565,
      "Ġnam": 5566,
      "Ġkitten": 5567,
      "Ġherself": 5568,
      "Ġcareful": 5569,
      "after": 5570,
      "Ġhollywood": 5571,
      "Ġdesperate": 5572,
      "Ġbills": 5573,
      "Ġnooooo": 5574,
      "Ġoil": 5575,
      "Ġheels": 5576,
      "chie": 5577,
      "moz": 5578,
      "Ġsingapore": 5579,
      "Ġwaff": 5580,
      "Ġgrind": 5581,
      "Ġhoor": 5582,
      "burgh": 5583,
      ";!": 5584,
      "ober": 5585,
      "Ġyer": 5586,
      "Ġric": 5587,
      "Ġphilly": 5588,
      "Ġsurely": 5589,
      "Ġrefresh": 5590,
      "aÂª": 5591,
      "Ġmexican": 5592,
      "Ġic": 5593,
      "Ġsens": 5594,
      "Ġinten": 5595,
      "outs": 5596,
      "Ġyeahh": 5597,
      "Ġspec": 5598,
      "Ġallergic": 5599,
      "Ġvictor": 5600,
      "Ġsunburnt": 5601,
      "bie": 5602,
      "Ġ29": 5603,
      "Ġamazon": 5604,
      "nam": 5605,
      "sis": 5606,
      "Ġmia": 5607,
      "Ġdw": 5608,
      "Ġsinger": 5609,
      "Ġnerd": 5610,
      "Ġsurvive": 5611,
      "Ġincluding": 5612,
      "jon": 5613,
      "lines": 5614,
      "Ġparan": 5615,
      "Ġatlanta": 5616,
      "Ġdespite": 5617,
      "Ġsang": 5618,
      "Ġprocrast": 5619,
      "Ġprese": 5620,
      "Ġaccording": 5621,
      "hetic": 5622,
      "Ġstone": 5623,
      "Ġtwitt": 5624,
      "Ġplayin": 5625,
      "Ġcutest": 5626,
      "Ġopened": 5627,
      "Ġsnee": 5628,
      "ssssssss": 5629,
      "Ġdais": 5630,
      "ounge": 5631,
      "Ġcommercial": 5632,
      "hard": 5633,
      "stic": 5634,
      "working": 5635,
      "rey": 5636,
      "...?": 5637,
      "Ġtempt": 5638,
      "Ġhockey": 5639,
      "Ġtomato": 5640,
      "core": 5641,
      "sy": 5642,
      "reat": 5643,
      "Ġohhhh": 5644,
      "Ġstink": 5645,
      "aah": 5646,
      "Ġdire": 5647,
      "Ġskills": 5648,
      "Ġbritish": 5649,
      "Ġrick": 5650,
      "Ġpasta": 5651,
      "Ġtalented": 5652,
      "Ġwoah": 5653,
      "jam": 5654,
      "Ġsom": 5655,
      "Ġforum": 5656,
      "Ġtwitterverse": 5657,
      "Ġwonders": 5658,
      "Ġrespons": 5659,
      "ua": 5660,
      "llo": 5661,
      "imate": 5662,
      "fied": 5663,
      "Ġ300": 5664,
      "Ġmonkey": 5665,
      "shit": 5666,
      "Ġdishes": 5667,
      "bury": 5668,
      "Ġsoftball": 5669,
      "Ġopportun": 5670,
      "loved": 5671,
      "Ġtub": 5672,
      "Ġbass": 5673,
      "Ġyee": 5674,
      "Ġforce": 5675,
      "lend": 5676,
      "Ġscr": 5677,
      "Ġscotland": 5678,
      "Ġpir": 5679,
      "met": 5680,
      "ette": 5681,
      "Ġseemed": 5682,
      "Ġboot": 5683,
      "Ġexpecting": 5684,
      "14": 5685,
      "Ġaka": 5686,
      "Ġduck": 5687,
      "Ġrate": 5688,
      "Ġcoach": 5689,
      "Ġvent": 5690,
      "Ġoctober": 5691,
      "Ġgloomy": 5692,
      "sl": 5693,
      "Ġaid": 5694,
      "Ġcarol": 5695,
      "Ġpeanut": 5696,
      "Ġwrist": 5697,
      "Ġandrew": 5698,
      "Ġbaking": 5699,
      "Ġawa": 5700,
      "Ġresist": 5701,
      "Ġmoments": 5702,
      "Ġnormally": 5703,
      "Ġpolit": 5704,
      "Ġflickr": 5705,
      "Ġbust": 5706,
      "Ġbedroom": 5707,
      "Ġtx": 5708,
      "Ġsight": 5709,
      "Ġbein": 5710,
      "Ġsteak": 5711,
      "Ġnoise": 5712,
      "Ġgrill": 5713,
      "Ġannounce": 5714,
      "Ġcancel": 5715,
      "Ġmelt": 5716,
      "Ġmember": 5717,
      "Ġafr": 5718,
      "Ġdamnit": 5719,
      "Ġhunting": 5720,
      "Ġleno": 5721,
      "Ġdissap": 5722,
      "Ġded": 5723,
      "Ġore": 5724,
      "Ġummm": 5725,
      "Ġnighty": 5726,
      "mcfly": 5727,
      "Ġfrustrating": 5728,
      "?...": 5729,
      "yo": 5730,
      "Ġshat": 5731,
      "Ġfy": 5732,
      "Ġdegree": 5733,
      "Ġmonster": 5734,
      "Ġhighly": 5735,
      "Ġcomfy": 5736,
      "put": 5737,
      "Ġbound": 5738,
      "Ġthera": 5739,
      "Ġflav": 5740,
      "Ġjacket": 5741,
      "Ġhous": 5742,
      "ghh": 5743,
      "Ġrache": 5744,
      "urk": 5745,
      "Ġborrow": 5746,
      "Ġmmmmm": 5747,
      "girl": 5748,
      "Ġcomic": 5749,
      "Ġ=/": 5750,
      "Ġteaching": 5751,
      "Ġlanded": 5752,
      "Ġsnap": 5753,
      "Ġanimals": 5754,
      "Ġuseful": 5755,
      "yyyyy": 5756,
      "Ġscreaming": 5757,
      "Ġmicrosoft": 5758,
      "Ġdough": 5759,
      "Ġdare": 5760,
      "Ġpow": 5761,
      "Ġhv": 5762,
      "Ġjav": 5763,
      "Ġrum": 5764,
      "Ġfries": 5765,
      "Ġcentral": 5766,
      "90": 5767,
      "tte": 5768,
      "ories": 5769,
      "Ġpho": 5770,
      "Ġclar": 5771,
      "Ġbuen": 5772,
      "Ġopinion": 5773,
      "lim": 5774,
      "Ġgang": 5775,
      "Ġprince": 5776,
      "Ġflood": 5777,
      "Ġrocked": 5778,
      "Ġunfair": 5779,
      "Ġshoe": 5780,
      "Ġscript": 5781,
      "Ġdocu": 5782,
      "athy": 5783,
      "Ġuniverse": 5784,
      "Ġtanning": 5785,
      "Ġwre": 5786,
      "Ġtwist": 5787,
      "Ġtodays": 5788,
      "Ġdisg": 5789,
      "Ġhmmmm": 5790,
      "Ġtastes": 5791,
      "Ġroof": 5792,
      "Ġtongue": 5793,
      "pace": 5794,
      "Ġsry": 5795,
      "Ġcin": 5796,
      "sex": 5797,
      "Ġsup": 5798,
      "Ġcharlie": 5799,
      "aaaay": 5800,
      "13": 5801,
      "Ġwud": 5802,
      "Ġkings": 5803,
      "Ġpregn": 5804,
      "male": 5805,
      "Ġedward": 5806,
      "Ġreplying": 5807,
      "Ġpressure": 5808,
      "Ġgolden": 5809,
      "Ġparticular": 5810,
      "str": 5811,
      "urance": 5812,
      "ilton": 5813,
      "Ġterribly": 5814,
      "cue": 5815,
      "Ġmates": 5816,
      "rella": 5817,
      "Ġlover": 5818,
      "Ġrt": 5819,
      "Ġoffline": 5820,
      "Ġgrace": 5821,
      "Ġtasty": 5822,
      "Ġselena": 5823,
      "Ġrehearsal": 5824,
      "lest": 5825,
      "Ġjst": 5826,
      "Ġsooner": 5827,
      "hahahaha": 5828,
      "Ġemploy": 5829,
      "cam": 5830,
      "Ġbis": 5831,
      "ances": 5832,
      "test": 5833,
      "Ġgona": 5834,
      "Ġtells": 5835,
      "Ġpoorly": 5836,
      "Ġsubway": 5837,
      "Ġknock": 5838,
      "____": 5839,
      "wel": 5840,
      "Ġ2010": 5841,
      "Ġyahoo": 5842,
      "Ġcustomer": 5843,
      "Ġtechnology": 5844,
      "parents": 5845,
      "Ġlon": 5846,
      "nda": 5847,
      "stone": 5848,
      "issa": 5849,
      "Ġbubble": 5850,
      "Ġcooked": 5851,
      "Ġengine": 5852,
      "cribe": 5853,
      "Ġlag": 5854,
      "Ġmeg": 5855,
      "hern": 5856,
      "Ġquar": 5857,
      "Ġphotoshop": 5858,
      "Ġdiego": 5859,
      "cuz": 5860,
      "Ġsmoking": 5861,
      "Ġcondition": 5862,
      "nin": 5863,
      "Ġmeee": 5864,
      "itor": 5865,
      "Ġjim": 5866,
      "Ġrab": 5867,
      "Ġtire": 5868,
      "Ġcloud": 5869,
      "Ġurl": 5870,
      "Ġtechn": 5871,
      "Ġbleh": 5872,
      "Ġamanda": 5873,
      "Ġbla": 5874,
      "Ġfailing": 5875,
      "Ġpopcorn": 5876,
      "Ġbrian": 5877,
      "Ġaz": 5878,
      "Ġactiv": 5879,
      "Ġaccounts": 5880,
      "Ġpolice": 5881,
      "Ġspoil": 5882,
      "Ġari": 5883,
      "Ġwhis": 5884,
      "eeeeeee": 5885,
      "Ġboots": 5886,
      "Ġgenius": 5887,
      "ev": 5888,
      "Ġmut": 5889,
      "Ġpartying": 5890,
      "hange": 5891,
      "lies": 5892,
      "Ġauss": 5893,
      "ghhh": 5894,
      "Ġsaus": 5895,
      "Ġstrang": 5896,
      "Ġcherry": 5897,
      "Ġdepends": 5898,
      "Ġinvolved": 5899,
      "Ġembarr": 5900,
      "!.": 5901,
      "hot": 5902,
      "Ġforced": 5903,
      "imp": 5904,
      "Ġlaughed": 5905,
      "Ġfold": 5906,
      "zzzzzzzz": 5907,
      "Ġchristmas": 5908,
      "Ġdollars": 5909,
      "Â¹": 5910,
      "lli": 5911,
      "Ġitchy": 5912,
      "seng": 5913,
      "ief": 5914,
      "Ġtool": 5915,
      "Ġplays": 5916,
      "Ġwaitin": 5917,
      "Ġcalm": 5918,
      "Ġanti": 5919,
      "Ġeventually": 5920,
      "great": 5921,
      "Ġassignments": 5922,
      "Ġmcdonalds": 5923,
      "tain": 5924,
      "Ġeee": 5925,
      "once": 5926,
      "Ġwhoop": 5927,
      "Ġpackage": 5928,
      "Ġmanager": 5929,
      "Ġahah": 5930,
      "Ġblonde": 5931,
      "_-": 5932,
      "ury": 5933,
      "Ġwu": 5934,
      "inger": 5935,
      "Ġpunch": 5936,
      "Ġans": 5937,
      "Ġcomedy": 5938,
      "Ġmaria": 5939,
      "Ġsmith": 5940,
      "Ġguessing": 5941,
      "Ġgrandpa": 5942,
      "Ġparent": 5943,
      "Ġcrashing": 5944,
      "Ġwalmart": 5945,
      "',": 5946,
      "big": 5947,
      "din": 5948,
      "mu": 5949,
      "pot": 5950,
      "Ġwise": 5951,
      "sec": 5952,
      "igan": 5953,
      "Ġfaces": 5954,
      "azing": 5955,
      "Ġbites": 5956,
      "Ġmeth": 5957,
      "glasses": 5958,
      "Ġhooray": 5959,
      ";-": 5960,
      "stick": 5961,
      "Ġspare": 5962,
      "Ġwindy": 5963,
      "Ġawkward": 5964,
      "17": 5965,
      "Ġtty": 5966,
      "Ġai": 5967,
      "inating": 5968,
      "iranelection": 5969,
      "Ġlege": 5970,
      "Ġattemp": 5971,
      "Ġstolen": 5972,
      "bled": 5973,
      "Ġtie": 5974,
      "hah": 5975,
      "mester": 5976,
      "Ġthom": 5977,
      "Ġabove": 5978,
      "Ġwheel": 5979,
      "Ġpres": 5980,
      "take": 5981,
      "pose": 5982,
      "Ġwallet": 5983,
      "Ġwireless": 5984,
      "Ġtgif": 5985,
      "lr": 5986,
      "Ġirr": 5987,
      "ined": 5988,
      "inated": 5989,
      "Ġwithdra": 5990,
      "Ġseven": 5991,
      "Ġcoursework": 5992,
      "Ġstores": 5993,
      "Ġtrade": 5994,
      "Ġunbe": 5995,
      "Ġmainten": 5996,
      "Ġinspired": 5997,
      "blo": 5998,
      "uled": 5999,
      "Ġgooood": 6000,
      "Ġdelivery": 6001,
      "Ġdivor": 6002,
      "Ġsomethin": 6003,
      "Ġrecogn": 6004,
      "xxxxxxxx": 6005,
      "Ġtheatre": 6006,
      "Ġloooo": 6007,
      "Ġsocks": 6008,
      "amed": 6009,
      "Ġplanet": 6010,
      "Ġtunes": 6011,
      "Ġtoes": 6012,
      "Ġpushing": 6013,
      "ades": 6014,
      "ulu": 6015,
      "Ġtryna": 6016,
      "Ġsayin": 6017,
      "tail": 6018,
      "Ġbitches": 6019,
      "Ġaccidentally": 6020,
      "Ġincredibly": 6021,
      "''": 6022,
      ".,": 6023,
      "itude": 6024,
      "Ġruss": 6025,
      "Ġpoison": 6026,
      "Ġluckily": 6027,
      "Ġhangin": 6028,
      "Ġnature": 6029,
      "Ġvodka": 6030,
      "anic": 6031,
      "Ġish": 6032,
      "Ġfridays": 6033,
      "hate": 6034,
      "Ġsweetheart": 6035,
      "Ġxxxxx": 6036,
      "Ġgraduating": 6037,
      "Ġ09": 6038,
      "Ġtbh": 6039,
      "80": 6040,
      "Ġtoil": 6041,
      "Ġhaz": 6042,
      "Ġanna": 6043,
      "Ġfamil": 6044,
      "Ġ=]": 6045,
      "Ġnico": 6046,
      "aaaaaa": 6047,
      "bron": 6048,
      "Ġfixing": 6049,
      "Ġhel": 6050,
      "Ġsounded": 6051,
      "Ġsecurity": 6052,
      "Ġwarning": 6053,
      "Ġdisneyland": 6054,
      "ÂĨ": 6055,
      "Ġsd": 6056,
      "umbs": 6057,
      "Ġapprentice": 6058,
      "Ġrealise": 6059,
      "Ġkobe": 6060,
      "Ġtank": 6061,
      "Ġtheater": 6062,
      "Ġtheory": 6063,
      "Ġdies": 6064,
      "otb": 6065,
      "Ġallen": 6066,
      "Ġbree": 6067,
      "Ġcure": 6068,
      "Ġky": 6069,
      "Ġtakin": 6070,
      "Ġsteph": 6071,
      "47": 6072,
      "fu": 6073,
      "ht": 6074,
      "home": 6075,
      "Ġyouuu": 6076,
      "Ġras": 6077,
      "Ġheadphones": 6078,
      "Ġsatis": 6079,
      "Ġcollection": 6080,
      "Ġahhhhh": 6081,
      "Ġcelebrity": 6082,
      "Ġauto": 6083,
      "Ġentertaining": 6084,
      "Ġbiology": 6085,
      "fi": 6086,
      "Ġbilly": 6087,
      "Ġdrew": 6088,
      "Ġnu": 6089,
      "Ġnaw": 6090,
      "Ġporn": 6091,
      "Ġub": 6092,
      "Ġfemale": 6093,
      "uuuuuuuu": 6094,
      "Ġprepare": 6095,
      "Ġrecovering": 6096,
      "Ġpremie": 6097,
      "Ġreunion": 6098,
      "Ġlit": 6099,
      "Ġsolo": 6100,
      "ample": 6101,
      "Ġpassion": 6102,
      "ception": 6103,
      "Ġbelong": 6104,
      "Ġrachel": 6105,
      "yard": 6106,
      "Ġicon": 6107,
      "Ġbik": 6108,
      "esy": 6109,
      "Ġinvest": 6110,
      "Ġliver": 6111,
      "Ġthingy": 6112,
      "Ġeuro": 6113,
      "Ġmixed": 6114,
      "Ġyesss": 6115,
      "Ġchampion": 6116,
      "win": 6117,
      "Ġlisa": 6118,
      "vere": 6119,
      "Ġ()": 6120,
      "istic": 6121,
      "sident": 6122,
      "Ġsaturdays": 6123,
      "Ġpassword": 6124,
      "Ġuniversity": 6125,
      "Ġhiding": 6126,
      "Ġnoodles": 6127,
      "wow": 6128,
      "Ġhaa": 6129,
      "Ġshud": 6130,
      "ened": 6131,
      "cture": 6132,
      "Ġplain": 6133,
      "flu": 6134,
      "Ġreminded": 6135,
      "(:": 6136,
      "itive": 6137,
      "Ġjazz": 6138,
      "Ġsunglasses": 6139,
      "Ġyayy": 6140,
      "Ġshiny": 6141,
      "camp": 6142,
      "dog": 6143,
      "Ġdull": 6144,
      "Ġconcent": 6145,
      "Ġblip": 6146,
      "Ġappt": 6147,
      "Ġcraz": 6148,
      "words": 6149,
      "inson": 6150,
      "Ġregist": 6151,
      "Ġdestroy": 6152,
      "Ġmotivation": 6153,
      "Ġlvatt": 6154,
      "bon": 6155,
      "fic": 6156,
      "Ġbond": 6157,
      "Ġpj": 6158,
      "Ġ-.-": 6159,
      "Ġwilliam": 6160,
      "Ġwaited": 6161,
      "Ġthankful": 6162,
      "Ġcricket": 6163,
      "fish": 6164,
      "rate": 6165,
      "Ġbella": 6166,
      "Ġbridge": 6167,
      "acle": 6168,
      "Ġlayout": 6169,
      ";)": 6170,
      "Ġpete": 6171,
      "Ġyouth": 6172,
      "Ġpocket": 6173,
      "acy": 6174,
      "Ġdreaming": 6175,
      "Ġapplication": 6176,
      "Ġmaintenance": 6177,
      "bee": 6178,
      "ÂĹ": 6179,
      "Ġtam": 6180,
      "Ġasian": 6181,
      "umpy": 6182,
      "Ġturkey": 6183,
      "Ġfyi": 6184,
      "Ġaye": 6185,
      "Ġsout": 6186,
      "Ġfred": 6187,
      "erson": 6188,
      "Ġjoey": 6189,
      "Ġshape": 6190,
      "Ġphotography": 6191,
      "Ġhits": 6192,
      "Ġregard": 6193,
      "Ġdemand": 6194,
      "Ġparanoid": 6195,
      "wi": 6196,
      "whe": 6197,
      "Ġtumb": 6198,
      "Ġhaw": 6199,
      "Ġthread": 6200,
      "Ġstack": 6201,
      "aining": 6202,
      "Ġtwits": 6203,
      "Ġnicely": 6204,
      "Ġbudget": 6205,
      "Ġlicense": 6206,
      "Ġlun": 6207,
      "Ġpha": 6208,
      "Ġdonuts": 6209,
      "Ġsemester": 6210,
      "iphone": 6211,
      "Ġstuffed": 6212,
      "Ġlaura": 6213,
      "Ġpieces": 6214,
      "Ġnadal": 6215,
      "mt": 6216,
      "pes": 6217,
      "sick": 6218,
      "Ġbones": 6219,
      "Ġtowards": 6220,
      "Ġgmail": 6221,
      "oma": 6222,
      "amore": 6223,
      "Ġdece": 6224,
      "Ġshel": 6225,
      "Ġplaylist": 6226,
      "never": 6227,
      "iously": 6228,
      "Ġuseless": 6229,
      "Ġhighlight": 6230,
      "Ġhooked": 6231,
      "Ġpillow": 6232,
      "Ġpil": 6233,
      "Ġstinks": 6234,
      "Ġwrk": 6235,
      "tual": 6236,
      "Ġrefer": 6237,
      "thats": 6238,
      "Ġfishing": 6239,
      "ograp": 6240,
      "Ġfrozen": 6241,
      "Ġintrodu": 6242,
      "Ġemotional": 6243,
      "Ġdre": 6244,
      "eta": 6245,
      "Ġmegan": 6246,
      "udge": 6247,
      "Ġ35": 6248,
      "Ġargent": 6249,
      "ola": 6250,
      "Ġclip": 6251,
      "Ġdropping": 6252,
      "Ġbits": 6253,
      "rry": 6254,
      "want": 6255,
      "Ġlogo": 6256,
      "Ġremix": 6257,
      "Ġshock": 6258,
      "Ġgraduated": 6259,
      "Ġgeez": 6260,
      "Ġmedicine": 6261,
      "Ġbeats": 6262,
      "Ġkyle": 6263,
      "Ġslee": 6264,
      "Ġposter": 6265,
      "Ġafterwards": 6266,
      "Ġskip": 6267,
      "Ġdigital": 6268,
      "Ġsuccessful": 6269,
      "Ġusername": 6270,
      "Ġfir": 6271,
      "Ġsty": 6272,
      "hers": 6273,
      "olution": 6274,
      "Ġbubb": 6275,
      "Ġtrick": 6276,
      "Ġfailure": 6277,
      "Ġwordpress": 6278,
      "Ġretard": 6279,
      "Ġvolunt": 6280,
      "yr": 6281,
      "Ġmater": 6282,
      "Ġthee": 6283,
      "Ġdeserved": 6284,
      "Ġpanda": 6285,
      "itions": 6286,
      "Ġinj": 6287,
      "Ġtape": 6288,
      "Ġpartner": 6289,
      "anky": 6290,
      "player": 6291,
      "Ġkl": 6292,
      "Ġliz": 6293,
      "Ġbestfriend": 6294,
      "Ġcompleted": 6295,
      "Ġsnack": 6296,
      "24": 6297,
      "wed": 6298,
      "Ġxp": 6299,
      "Ġadm": 6300,
      "Ġserv": 6301,
      "Ġdanger": 6302,
      "Ġcomputers": 6303,
      "Ġwarped": 6304,
      "Ġremoved": 6305,
      "Ġpounds": 6306,
      "ught": 6307,
      "Ġiced": 6308,
      "Ġbusted": 6309,
      "Ġvin": 6310,
      "Ġfeat": 6311,
      "Ġinsurance": 6312,
      "Ġboxes": 6313,
      "Ġlocation": 6314,
      "Ġmental": 6315,
      "Ġgw": 6316,
      "itas": 6317,
      "otha": 6318,
      "Ġwashed": 6319,
      "inem": 6320,
      "Ġchee": 6321,
      "aging": 6322,
      "Ġours": 6323,
      "otent": 6324,
      "Ġtypical": 6325,
      "Ġwth": 6326,
      "Ġhp": 6327,
      "eeds": 6328,
      "Ġenvy": 6329,
      "Ġcreated": 6330,
      "Ġ?!": 6331,
      "Ġemma": 6332,
      "Ġki": 6333,
      "Ġmummy": 6334,
      "Ġjones": 6335,
      "Ġjudge": 6336,
      "Ġlift": 6337,
      "Ġvar": 6338,
      "Ġsav": 6339,
      "Ġpeoples": 6340,
      "Ġmarry": 6341,
      "Ġhonor": 6342,
      "Ġimprove": 6343,
      "Ġinformation": 6344,
      "lee": 6345,
      "Ġmunch": 6346,
      "Ġnugg": 6347,
      "Ġbeans": 6348,
      "Ġtend": 6349,
      "Ġcompliment": 6350,
      "Ġdefinately": 6351,
      "Ġobama": 6352,
      "Ġsurprising": 6353,
      "Ġconcerts": 6354,
      "Ġcus": 6355,
      "stop": 6356,
      "Ġbean": 6357,
      "Ġswing": 6358,
      "Ġpops": 6359,
      "Ġeffing": 6360,
      "Ġbabes": 6361,
      "Ġintense": 6362,
      "Ġmes": 6363,
      "Ġbene": 6364,
      "Ġgreek": 6365,
      "izon": 6366,
      "Ġhuhu": 6367,
      "Ġtues": 6368,
      "Ġcurry": 6369,
      "Ġirrit": 6370,
      "mates": 6371,
      "sun": 6372,
      "Ġsher": 6373,
      "Ġnash": 6374,
      "Ġku": 6375,
      "Ġrole": 6376,
      "Ġmetal": 6377,
      "Ġshops": 6378,
      "ock": 6379,
      "Ġnapp": 6380,
      "Ġpatt": 6381,
      "Ġemo": 6382,
      "Ġmosqu": 6383,
      "uming": 6384,
      "cials": 6385,
      "Ġrockin": 6386,
      "Ġcutie": 6387,
      "Ġ......": 6388,
      "Ġprayer": 6389,
      "Ġ//": 6390,
      "Ġpanic": 6391,
      "nice": 6392,
      "Ġtiring": 6393,
      "Ġmich": 6394,
      "order": 6395,
      "Ġnc": 6396,
      "Ġzero": 6397,
      "Ġcramps": 6398,
      "'!": 6399,
      "Ġjake": 6400,
      "ousand": 6401,
      "Ġbride": 6402,
      "Ġtrash": 6403,
      "make": 6404,
      "Ġshaun": 6405,
      "Ġinstru": 6406,
      "Ġcaffe": 6407,
      "Ġooooh": 6408,
      "mother": 6409,
      "Ġstairs": 6410,
      "Ġhiya": 6411,
      "times": 6412,
      "Ġheadaches": 6413,
      "Ġneighbors": 6414,
      "itos": 6415,
      "table": 6416,
      "Ġemerg": 6417,
      "Ġsooooooo": 6418,
      "Ġopera": 6419,
      "Ġmichelle": 6420,
      "!,": 6421,
      "cant": 6422,
      "kers": 6423,
      "ication": 6424,
      "alley": 6425,
      "Ġtweeter": 6426,
      "Ġencou": 6427,
      "Ġblogging": 6428,
      "Ġsett": 6429,
      "Ġdisappeared": 6430,
      "Ġstephen": 6431,
      "Ġhyper": 6432,
      "Ġclimb": 6433,
      "party": 6434,
      "install": 6435,
      "Ġembarrass": 6436,
      "Ġnurs": 6437,
      "Ġhasnt": 6438,
      "Ġschools": 6439,
      "Ġaddiction": 6440,
      "Ġnkotb": 6441,
      "Ġik": 6442,
      "Ġbamb": 6443,
      "Ġlounge": 6444,
      "Ġris": 6445,
      "Ġrang": 6446,
      "Ġohio": 6447,
      "Ġadop": 6448,
      "Ġglas": 6449,
      "Ġsettle": 6450,
      "Ġrecipe": 6451,
      "Ġjerk": 6452,
      "ji": 6453,
      "wind": 6454,
      "Ġfawc": 6455,
      "Ġunpack": 6456,
      "Ġcooler": 6457,
      "Ġannoun": 6458,
      "Ġbrace": 6459,
      "Ġdenver": 6460,
      "Ġbrowser": 6461,
      "19": 6462,
      "bi": 6463,
      "oons": 6464,
      "Ġoz": 6465,
      "Ġeww": 6466,
      "Ġthumb": 6467,
      "Ġthousand": 6468,
      "Ġshy": 6469,
      "Ġlebron": 6470,
      "Ġzone": 6471,
      "gotta": 6472,
      "pected": 6473,
      "Ġtoilet": 6474,
      "Ġnicole": 6475,
      "!?!": 6476,
      "live": 6477,
      "Ġdump": 6478,
      "ctic": 6479,
      "lief": 6480,
      "Ġperfectly": 6481,
      "Ġyounger": 6482,
      "Ġthunderstorm": 6483,
      "cool": 6484,
      "Ġtad": 6485,
      "Ġmw": 6486,
      "Ġhated": 6487,
      "ims": 6488,
      "Ġtwitterland": 6489,
      "Ġpear": 6490,
      "Ġjoining": 6491,
      "Ġrolling": 6492,
      "Ġreceive": 6493,
      "Ġkristen": 6494,
      "Ġtutor": 6495,
      "bus": 6496,
      "erer": 6497,
      "Ġthai": 6498,
      "Ġrelieve": 6499,
      "thy": 6500,
      "ula": 6501,
      "Ġusers": 6502,
      "Ġclients": 6503,
      "Ġyawn": 6504,
      "Ġgrandparents": 6505,
      "Ġincre": 6506,
      "***": 6507,
      "Ġexperien": 6508,
      "Ġreached": 6509,
      "Ġaching": 6510,
      "Ġcass": 6511,
      "Ġdea": 6512,
      "Ġnba": 6513,
      "Ġumb": 6514,
      "Ġbeha": 6515,
      "Ġbitter": 6516,
      "Ġshortly": 6517,
      "sweet": 6518,
      "Ġcupcake": 6519,
      "Ġjackson": 6520,
      "Ġknocked": 6521,
      "Ġwknd": 6522,
      "Ġlegend": 6523,
      "chat": 6524,
      "etch": 6525,
      "Ġdope": 6526,
      "rip": 6527,
      "Ġhappier": 6528,
      "Ġbugger": 6529,
      "Ġ:@": 6530,
      "Ġgrate": 6531,
      "Ġcarpet": 6532,
      "Ġlaid": 6533,
      "Ġpathetic": 6534,
      "Ġnatural": 6535,
      "Ġconfirm": 6536,
      "Ġnegative": 6537,
      "mond": 6538,
      "Ġcakes": 6539,
      "Ġpud": 6540,
      "Ġhack": 6541,
      "Ġmums": 6542,
      "kkk": 6543,
      "Ġpapa": 6544,
      "Ġsplit": 6545,
      "Ġlemme": 6546,
      "Ġopportunity": 6547,
      "Ġdocument": 6548,
      "fort": 6549,
      "Ġcul": 6550,
      "Ġcub": 6551,
      "Ġpotent": 6552,
      "Ġowe": 6553,
      "Ġreck": 6554,
      "Ġchores": 6555,
      "Ġblows": 6556,
      "Ġexcite": 6557,
      "Ġedge": 6558,
      "Ġstrawberries": 6559,
      "iving": 6560,
      "walk": 6561,
      "Ġloll": 6562,
      "Ġtiming": 6563,
      "Ġarmy": 6564,
      "Ġparamore": 6565,
      "Ġpumped": 6566,
      "myspace": 6567,
      "jonas": 6568,
      "ded": 6569,
      "Ġphew": 6570,
      "Ġellen": 6571,
      "Ġyayyy": 6572,
      "Ġpromised": 6573,
      "Ġjournal": 6574,
      "Ġlouis": 6575,
      "Ġassh": 6576,
      "Ġ-_-": 6577,
      "Ġsemi": 6578,
      "Ġdownstairs": 6579,
      "Ġautom": 6580,
      "Ġlower": 6581,
      "vention": 6582,
      "Ġthou": 6583,
      "aint": 6584,
      "Ġdefe": 6585,
      "Ġwilling": 6586,
      "Ġ:\\": 6587,
      "Ġdrivers": 6588,
      "Ġforecast": 6589,
      "Ġsms": 6590,
      "Ġbn": 6591,
      "Ġloop": 6592,
      "Ġfrick": 6593,
      "Ġguide": 6594,
      "Ġthemselves": 6595,
      "Ġpersonally": 6596,
      "Ġdvds": 6597,
      "Ġ:-/": 6598,
      "Ġnightmares": 6599,
      "Ġthomas": 6600,
      "Âĭ": 6601,
      "Ġwished": 6602,
      "Ġlan": 6603,
      "Ġoven": 6604,
      "Ġrat": 6605,
      "Ġfilming": 6606,
      "Ġtraveling": 6607,
      "gow": 6608,
      "Ġwim": 6609,
      "Ġhs": 6610,
      "Ġhen": 6611,
      "Ġroot": 6612,
      "Ġsmiles": 6613,
      "Ġbuddies": 6614,
      "Ġtalks": 6615,
      "vir": 6616,
      "Ġike": 6617,
      "Ġcot": 6618,
      "Ġdish": 6619,
      "Ġawes": 6620,
      "ooooooo": 6621,
      "Ġtracks": 6622,
      "Ġtrees": 6623,
      "Ġfawcett": 6624,
      ")!": 6625,
      ")...": 6626,
      "mate": 6627,
      "Ġale": 6628,
      "iti": 6629,
      "Ġlips": 6630,
      "Ġpepper": 6631,
      "Ġprepared": 6632,
      "mom": 6633,
      "Ġsow": 6634,
      "Ġsanta": 6635,
      "rets": 6636,
      "Ġnt": 6637,
      "Ġeatin": 6638,
      "Ġeminem": 6639,
      "Ġcareer": 6640,
      "untu": 6641,
      "Ġyogurt": 6642,
      "Ġconfirmed": 6643,
      "Ġbeast": 6644,
      "issy": 6645,
      "essions": 6646,
      "Ġtheyre": 6647,
      "Ġeveryones": 6648,
      "Ġpoke": 6649,
      "Ġicecream": 6650,
      "Ġvirtual": 6651,
      "call": 6652,
      "case": 6653,
      "Ġwore": 6654,
      "aning": 6655,
      "verage": 6656,
      "Ġhorri": 6657,
      "Ġbrownies": 6658,
      "Ġreviews": 6659,
      "Ġspelling": 6660,
      "hopefully": 6661,
      "Ġprotect": 6662,
      "Ġdublin": 6663,
      "broken": 6664,
      "par": 6665,
      "Âĵ": 6666,
      "Ġtn": 6667,
      "Ġmyster": 6668,
      "Ġstun": 6669,
      "Ġnegle": 6670,
      "Ġnoone": 6671,
      "Ġgram": 6672,
      "Ġrocking": 6673,
      "Ġgeorg": 6674,
      "Ġnorway": 6675,
      "Ġpremiere": 6676,
      "fo": 6677,
      "Ġdh": 6678,
      "Ġnxt": 6679,
      "Ġrug": 6680,
      "Ġentry": 6681,
      "Ġteena": 6682,
      "Ġincluded": 6683,
      "ep": 6684,
      "Ġee": 6685,
      "ads": 6686,
      "Ġkara": 6687,
      "Ġbaked": 6688,
      "nya": 6689,
      "Ġskate": 6690,
      "hold": 6691,
      "Ġtweeple": 6692,
      "Ġpuppies": 6693,
      "Ġbin": 6694,
      "Ġdona": 6695,
      "Ġbritt": 6696,
      "Ġanswers": 6697,
      "Ġnatal": 6698,
      "Ġreturned": 6699,
      "Ġignoring": 6700,
      "Ġfurther": 6701,
      "pal": 6702,
      "wee": 6703,
      "Ġnv": 6704,
      "Ġhan": 6705,
      "Ġcanad": 6706,
      "Ġmango": 6707,
      "Ġargu": 6708,
      "Ġprices": 6709,
      "Ġsucky": 6710,
      "Ġmario": 6711,
      "wered": 6712,
      "..........": 6713,
      ",,,": 6714,
      "remember": 6715,
      "del": 6716,
      "mr": 6717,
      "eting": 6718,
      "Ġvista": 6719,
      "Ġ-&": 6720,
      "Ġplat": 6721,
      "Ġhahaa": 6722,
      "Ġremote": 6723,
      "Ġgeography": 6724,
      "Ġirish": 6725,
      "Ġdvr": 6726,
      "Ġfilling": 6727,
      "Ġaudition": 6728,
      "Ġdisgusting": 6729,
      "Ġargentina": 6730,
      "Ġlens": 6731,
      "Ġnur": 6732,
      "Ġrecent": 6733,
      "Ġteh": 6734,
      "Ġsurf": 6735,
      "ibility": 6736,
      "Ġchristian": 6737,
      "Ġrecommendation": 6738,
      "Ġcomplaining": 6739,
      "point": 6740,
      "Ġdess": 6741,
      "Ġnas": 6742,
      "ota": 6743,
      "Ġimm": 6744,
      "Ġmuscle": 6745,
      "Ġdaniel": 6746,
      "Ġkills": 6747,
      "Ġearthqu": 6748,
      "Ġpregnant": 6749,
      "22": 6750,
      "bust": 6751,
      "clock": 6752,
      "sleep": 6753,
      "Ġnj": 6754,
      "amer": 6755,
      "Ġbage": 6756,
      "enix": 6757,
      "Ġplants": 6758,
      "Ġnevermind": 6759,
      "Ġcraw": 6760,
      "Ġdealing": 6761,
      "Ġholla": 6762,
      "Ġstruggling": 6763,
      "Ġsociety": 6764,
      "Ġnecess": 6765,
      "Ġtiff": 6766,
      "uffy": 6767,
      "Ġstops": 6768,
      "Ġhomie": 6769,
      "Ġthunderstorms": 6770,
      "fol": 6771,
      "hmm": 6772,
      "Ġtoooo": 6773,
      "Ġox": 6774,
      "asm": 6775,
      "Ġstret": 6776,
      "Ġsean": 6777,
      "Ġchin": 6778,
      "Ġprovid": 6779,
      "Ġjose": 6780,
      "Ġunited": 6781,
      "tired": 6782,
      "Ġsony": 6783,
      "Ġsalt": 6784,
      "Ġflights": 6785,
      "Ġroomm": 6786,
      "gonna": 6787,
      "fam": 6788,
      "Ġnoes": 6789,
      "arts": 6790,
      "Ġslack": 6791,
      "umps": 6792,
      "Ġblu": 6793,
      "Ġbliss": 6794,
      "Ġhelpful": 6795,
      "Ġpulling": 6796,
      "gal": 6797,
      "..?": 6798,
      "Ġhomemade": 6799,
      "iped": 6800,
      "Ġzac": 6801,
      "Ġhearts": 6802,
      "Ġcomplicated": 6803,
      "natural": 6804,
      "Ġvolunte": 6805,
      "food": 6806,
      "Ġiz": 6807,
      "Ġdip": 6808,
      "Ġmega": 6809,
      "Ġrome": 6810,
      "Ġarse": 6811,
      "Ġjelly": 6812,
      "Ġveget": 6813,
      "Ġfilms": 6814,
      "Ġcolors": 6815,
      "char": 6816,
      "Ġrobin": 6817,
      "Ġflew": 6818,
      "35": 6819,
      "Ġtodd": 6820,
      "Ġpi": 6821,
      "Ġcondo": 6822,
      "Ġgrumpy": 6823,
      "Ġexchange": 6824,
      "ussy": 6825,
      "Ġjohnny": 6826,
      "Ġbeef": 6827,
      "Ġunable": 6828,
      "Ġfriggin": 6829,
      "Ġfamilies": 6830,
      "Ġcaffeine": 6831,
      "vide": 6832,
      "Ġsleepover": 6833,
      "Ġmarri": 6834,
      "Ġassist": 6835,
      "Ġcoolest": 6836,
      "tles": 6837,
      "ining": 6838,
      "Ġinvent": 6839,
      "Ġwhore": 6840,
      "Ġimages": 6841,
      "Ġvib": 6842,
      "Ġwhoever": 6843,
      "Ġads": 6844,
      "Ġgent": 6845,
      "annoy": 6846,
      "Ġbleeding": 6847,
      "last": 6848,
      "say": 6849,
      "wy": 6850,
      "Ġaches": 6851,
      "eth": 6852,
      "Ġvill": 6853,
      "Ġcraig": 6854,
      "Ġminus": 6855,
      "Ġcruel": 6856,
      "bbing": 6857,
      "Ġphotosh": 6858,
      "Ġrelig": 6859,
      "Ġhahahahaha": 6860,
      "Ġgrateful": 6861,
      "Ġexcitement": 6862,
      "Ġss": 6863,
      "Ġbom": 6864,
      "Ġpoll": 6865,
      "Ġprecious": 6866,
      "Ġbecame": 6867,
      "Ġdisplay": 6868,
      "Ġcrunch": 6869,
      "Ġhorror": 6870,
      "Ġrecital": 6871,
      "mission": 6872,
      "Ġsafari": 6873,
      "Ġescape": 6874,
      "bout": 6875,
      "dont": 6876,
      "til": 6877,
      "Ġsrs": 6878,
      "Ġmick": 6879,
      "Ġcore": 6880,
      "Ġdating": 6881,
      "Ġitems": 6882,
      "Ġlily": 6883,
      "Ġmale": 6884,
      "Ġrafa": 6885,
      "Ġjamie": 6886,
      "Ġdollar": 6887,
      "Ġtitanic": 6888,
      "Ġoppos": 6889,
      "Ġsource": 6890,
      "Ġvampire": 6891,
      "df": 6892,
      "dis": 6893,
      "Ġ_": 6894,
      "Ġian": 6895,
      "Ġhacked": 6896,
      "ata": 6897,
      "Ġron": 6898,
      "Ġsupr": 6899,
      "Ġupon": 6900,
      "Ġwhew": 6901,
      "Ġputs": 6902,
      "lands": 6903,
      "Ġcloset": 6904,
      "Ġforgetting": 6905,
      "baby": 6906,
      "Ġlegal": 6907,
      "Ġglasgow": 6908,
      "hur": 6909,
      "Âĩ": 6910,
      "Ġbry": 6911,
      "Ġthin": 6912,
      "Ġreception": 6913,
      "Ġrh": 6914,
      "ounds": 6915,
      "bell": 6916,
      "Ġpretend": 6917,
      "show": 6918,
      "tag": 6919,
      "Ġdelight": 6920,
      "ymaster": 6921,
      "Ġheroes": 6922,
      "itz": 6923,
      "Ġhic": 6924,
      "ando": 6925,
      "Ġactive": 6926,
      "Ġmarley": 6927,
      "Ġtransfer": 6928,
      "lu": 6929,
      "Ġwer": 6930,
      "oto": 6931,
      "Ġreject": 6932,
      "Ġknw": 6933,
      "Ġtent": 6934,
      "Ġ32": 6935,
      "Ġcarr": 6936,
      "Ġmessing": 6937,
      "Ġcamer": 6938,
      "couver": 6939,
      "Ġib": 6940,
      "Ġdye": 6941,
      "Ġgots": 6942,
      "Ġtwitterberry": 6943,
      "Ġovernight": 6944,
      "Ġscan": 6945,
      "ika": 6946,
      "summer": 6947,
      "screen": 6948,
      "Ġskinny": 6949,
      "Ġafrica": 6950,
      "Ġwithdraw": 6951,
      "idence": 6952,
      "Ġrly": 6953,
      "Ġconvo": 6954,
      "Ġcracked": 6955,
      "Ġstaring": 6956,
      "web": 6957,
      "Ġanswered": 6958,
      "know": 6959,
      "onder": 6960,
      "Ġpills": 6961,
      "iture": 6962,
      "vey": 6963,
      "Ġstays": 6964,
      "Ġrainbow": 6965,
      "Ġaccent": 6966,
      "Ġdeter": 6967,
      "Ġpengu": 6968,
      "Ġduh": 6969,
      "Ġttyl": 6970,
      "16": 6971,
      "card": 6972,
      "Ġ]": 6973,
      "Ġbars": 6974,
      "Ġfurn": 6975,
      "Ġdork": 6976,
      "Ġpup": 6977,
      "Ġbake": 6978,
      "onge": 6979,
      "Ġ---": 6980,
      "Ġshoulda": 6981,
      "many": 6982,
      "Ġcaps": 6983,
      "Ġjacob": 6984,
      "Ġappears": 6985,
      "ÂĮ": 6986,
      "omp": 6987,
      "Ġvom": 6988,
      "Ġcleve": 6989,
      "Ġrepair": 6990,
      "Ġfoods": 6991,
      "Ġrescue": 6992,
      "Ġshocked": 6993,
      "Ġstressful": 6994,
      "Ġfund": 6995,
      "Ġnuggets": 6996,
      "kia": 6997,
      "Ġsara": 6998,
      "aaah": 6999,
      "Ġbron": 7000,
      "Ġflower": 7001,
      "Ġross": 7002,
      "Ġlistenin": 7003,
      "Ġprofession": 7004,
      "wwwww": 7005,
      "Â¨": 7006,
      "Ġtl": 7007,
      "alo": 7008,
      "Ġvalley": 7009,
      "Ġsway": 7010,
      "ggies": 7011,
      "berg": 7012,
      "Ġresting": 7013,
      "Ġdistur": 7014,
      "Ġaussie": 7015,
      "Âķ": 7016,
      "Ġsober": 7017,
      "asion": 7018,
      "Ġoutdo": 7019,
      "Ġhund": 7020,
      "Ġpains": 7021,
      "Ġacce": 7022,
      "emp": 7023,
      "iki": 7024,
      "Ġfederer": 7025,
      "Ġjessica": 7026,
      "Ġmultiple": 7027,
      "Ġvictoria": 7028,
      "aay": 7029,
      "Âľ": 7030,
      "Ġbul": 7031,
      "rers": 7032,
      "Ġpitt": 7033,
      "Ġhalo": 7034,
      "Ġjr": 7035,
      "Ġleague": 7036,
      "Ġbros": 7037,
      "nothing": 7038,
      "Ġkaty": 7039,
      "Ġbiscu": 7040,
      "Ġattempting": 7041,
      "Ġako": 7042,
      "Ġmb": 7043,
      "ople": 7044,
      "Ġbackup": 7045,
      "Ġsleeps": 7046,
      "today": 7047,
      "Ġeduc": 7048,
      "Ġsignal": 7049,
      "ued": 7050,
      "Ġamen": 7051,
      "Ġasha": 7052,
      "Ġspa": 7053,
      "inda": 7054,
      "Ġtube": 7055,
      "awesome": 7056,
      "Ġpleasant": 7057,
      "Ġinstalling": 7058,
      "Ġoptions": 7059,
      "Ġtuned": 7060,
      "ÂĪ": 7061,
      "Ġack": 7062,
      "hang": 7063,
      "Ġnz": 7064,
      "Ġthumbs": 7065,
      "Ġheaps": 7066,
      "mobile": 7067,
      "Ġbraces": 7068,
      "Ġsonic": 7069,
      "Ġvotes": 7070,
      "Ġblew": 7071,
      "Ġsolid": 7072,
      "Ġtherapy": 7073,
      "Ġphoenix": 7074,
      "sion": 7075,
      "Ġmun": 7076,
      "Ġmoder": 7077,
      "Ġmines": 7078,
      "Ġvancouver": 7079,
      "Ġsuspe": 7080,
      "Ġtempted": 7081,
      "burn": 7082,
      "Ġdur": 7083,
      "Ġoli": 7084,
      "Ġjane": 7085,
      "Ġaltern": 7086,
      "Ġdeff": 7087,
      "Ġhash": 7088,
      "Ġadore": 7089,
      "hhhhhh": 7090,
      "Ġsnl": 7091,
      "Ġinternational": 7092,
      "Ġlinux": 7093,
      "Ġpurchase": 7094,
      "Ġzombie": 7095,
      "fy": 7096,
      "Ġmeeee": 7097,
      "essa": 7098,
      "Ġbrook": 7099,
      "Ġproof": 7100,
      "Ġ::": 7101,
      "Ġdrugs": 7102,
      "Ġcheesecake": 7103,
      "Ġsurvived": 7104,
      "Ġsymp": 7105,
      "Ġshattered": 7106,
      "Ġbamboo": 7107,
      "70": 7108,
      "ration": 7109,
      "Ġooooo": 7110,
      "Ġave": 7111,
      "Ġgim": 7112,
      "Ġunex": 7113,
      "Ġdizzy": 7114,
      "Ġcharlot": 7115,
      "kki": 7116,
      "Ġdresses": 7117,
      "Ġrecorded": 7118,
      "iety": 7119,
      "Ġposition": 7120,
      "Ġspark": 7121,
      "Ġprison": 7122,
      "Ġdougie": 7123,
      "Ġrandomly": 7124,
      "Ġlaker": 7125,
      "Ġcoverage": 7126,
      "Ġsolution": 7127,
      "Ġfrost": 7128,
      "Ġkarma": 7129,
      "Ġreaction": 7130,
      "cription": 7131,
      "Ġcleveland": 7132,
      "Ġfal": 7133,
      "Ġplastic": 7134,
      "Ġfollows": 7135,
      "Ġunhappy": 7136,
      "Ġkinds": 7137,
      "Ġclever": 7138,
      "liev": 7139,
      "bbed": 7140,
      "Ġsweden": 7141,
      "rek": 7142,
      "eel": 7143,
      "Ġrod": 7144,
      "roit": 7145,
      "Ġsafely": 7146,
      "Ġneckl": 7147,
      "Ġaaron": 7148,
      "Ġhigher": 7149,
      "Ġmcc": 7150,
      "Ġginger": 7151,
      "Ġyank": 7152,
      "Ġec": 7153,
      "Ġeight": 7154,
      "Ġsoaked": 7155,
      "Ġsomewhat": 7156,
      "Ġaware": 7157,
      "Ġbackyard": 7158,
      "Ġwats": 7159,
      "umn": 7160,
      "Ġthankfully": 7161,
      "Ġrove": 7162,
      "iance": 7163,
      "Ġ99": 7164,
      "Ġjenn": 7165,
      "Ġinclude": 7166,
      ",&": 7167,
      "books": 7168,
      "kill": 7169,
      "ras": 7170,
      "Ġbol": 7171,
      "Ġheld": 7172,
      "rock": 7173,
      "Ġmand": 7174,
      "Ġleon": 7175,
      "best": 7176,
      "Ġcentre": 7177,
      "Ġsneezing": 7178,
      "Ġjava": 7179,
      "Ġikea": 7180,
      "aid": 7181,
      "fs": 7182,
      "page": 7183,
      "wis": 7184,
      "Ġgg": 7185,
      "Ġcp": 7186,
      "Ġnort": 7187,
      "Ġnaught": 7188,
      "vern": 7189,
      "Ġdiscon": 7190,
      "Ġhardcore": 7191,
      "Ġmatthe": 7192,
      "Ġreports": 7193,
      "Ġhosting": 7194,
      "dri": 7195,
      "Ġaj": 7196,
      "Ġgaw": 7197,
      "Ġsox": 7198,
      "Ġtwitterville": 7199,
      "Ġuns": 7200,
      "Ġboredom": 7201,
      "Ġphotograp": 7202,
      "Ġminds": 7203,
      "Ġreminder": 7204,
      "Ġneighbours": 7205,
      "hon": 7206,
      "Ġfone": 7207,
      "Ġbeers": 7208,
      "Ġdonnie": 7209,
      "ctive": 7210,
      "Ġconvin": 7211,
      "Ġusb": 7212,
      "tsy": 7213,
      "Ġsickness": 7214,
      "medi": 7215,
      "Ġmitchel": 7216,
      "Ġdecember": 7217,
      "Ġemergency": 7218,
      "Ġhundred": 7219,
      "Ġnine": 7220,
      "Ġvines": 7221,
      "nament": 7222,
      "olley": 7223,
      "Ġtrop": 7224,
      "nels": 7225,
      "Ġgirly": 7226,
      "ngth": 7227,
      "Ġsimon": 7228,
      "sssss": 7229,
      "Ġsepar": 7230,
      "Ġaddictive": 7231,
      "Ġdudes": 7232,
      "Ġumbrella": 7233,
      "hug": 7234,
      "mic": 7235,
      "Ġaly": 7236,
      "Ġleavin": 7237,
      "Ġjunior": 7238,
      "Ġwrap": 7239,
      "sniff": 7240,
      "Ġconvince": 7241,
      "fon": 7242,
      "Ġachie": 7243,
      "itation": 7244,
      "Ġinbox": 7245,
      "tel": 7246,
      "Ġdrun": 7247,
      "Ġhousew": 7248,
      "Ġmarch": 7249,
      "Ġsweets": 7250,
      "Ġsteps": 7251,
      "Ġfavorites": 7252,
      "Ġpatrick": 7253,
      "Ġattract": 7254,
      "Ġshoutout": 7255,
      "Ġdevil": 7256,
      "nut": 7257,
      "Ġnause": 7258,
      "Ġpunk": 7259,
      "Ġhint": 7260,
      "Ġinno": 7261,
      "Ġworn": 7262,
      "Ġtwins": 7263,
      "Ġsorta": 7264,
      "Ġdislike": 7265,
      "Ġhardest": 7266,
      "Ġfactory": 7267,
      "Ġdetroit": 7268,
      "Ġsettings": 7269,
      "Ġstalker": 7270,
      "Ġdistracted": 7271,
      "Ġindoors": 7272,
      "cling": 7273,
      "Ġandre": 7274,
      "Ġstopping": 7275,
      "oms": 7276,
      "Ġliqu": 7277,
      "Ġplurk": 7278,
      "Ġleve": 7279,
      "Ġblur": 7280,
      "law": 7281,
      "Ġanswering": 7282,
      "Ġstatement": 7283,
      "Ġjumping": 7284,
      "orter": 7285,
      "Ġnation": 7286,
      "ani": 7287,
      "Ġmint": 7288,
      "Ġperry": 7289,
      "Ġsurfing": 7290,
      "Ġcampus": 7291,
      "Ġeffin": 7292,
      "Ġreplaced": 7293,
      "Ġdiscount": 7294,
      "Ġgoooood": 7295,
      "Ġnashville": 7296,
      "Ġdee": 7297,
      "Ġnoooooo": 7298,
      "Ġsofa": 7299,
      "Ġcoco": 7300,
      "olic": 7301,
      "Ġadult": 7302,
      "Ġbuilt": 7303,
      "Ġstudies": 7304,
      "Ġpostp": 7305,
      "rrrrr": 7306,
      "watch": 7307,
      "Ġkorean": 7308,
      "Ġaccomplished": 7309,
      "Ġconcentrate": 7310,
      "Ġpattinson": 7311,
      "ell": 7312,
      "spe": 7313,
      "year": 7314,
      "Ġbid": 7315,
      "Ġcum": 7316,
      "Ġlor": 7317,
      "Ġet": 7318,
      "Ġshipping": 7319,
      "Ġjoking": 7320,
      "Ġcountdown": 7321,
      "Ġdistance": 7322,
      "Ġhavnt": 7323,
      "Ġcustomers": 7324,
      "Ġmanagement": 7325,
      "limited": 7326,
      ";--": 7327,
      "overs": 7328,
      "uary": 7329,
      "Ġsou": 7330,
      "Ġgc": 7331,
      "otic": 7332,
      "Ġewww": 7333,
      "Ġtail": 7334,
      "mony": 7335,
      "Ġsquir": 7336,
      "Ġvanilla": 7337,
      "Ġoptim": 7338,
      "Ġpsych": 7339,
      "Ġgurl": 7340,
      "ropri": 7341,
      "Ġservices": 7342,
      ".'": 7343,
      "//": 7344,
      "Ġiam": 7345,
      "Ġgab": 7346,
      "Ġnar": 7347,
      "Ġyaaay": 7348,
      "Ġlied": 7349,
      "Ġanat": 7350,
      "Ġchilly": 7351,
      "Ġrelative": 7352,
      "Ġcelebration": 7353,
      "Ġproducts": 7354,
      "Ġbeyonce": 7355,
      "Ġroute": 7356,
      "Ġlimited": 7357,
      "Ġreckon": 7358,
      "Ġsrsly": 7359,
      "cers": 7360,
      "keep": 7361,
      "nies": 7362,
      "ost": 7363,
      "pop": 7364,
      "Ġagh": 7365,
      "Ġpff": 7366,
      "idi": 7367,
      "Ġtwi": 7368,
      "Ġvit": 7369,
      "Ġexte": 7370,
      "clip": 7371,
      "Ġteachers": 7372,
      "Ġcastle": 7373,
      "Ġdepart": 7374,
      "Ġfurniture": 7375,
      "kay": 7376,
      "Ġaqu": 7377,
      "inc": 7378,
      "Ġneat": 7379,
      "Ġmanila": 7380,
      "Ġflags": 7381,
      "Ġparad": 7382,
      "Ġfails": 7383,
      "ippin": 7384,
      "Ġmoves": 7385,
      "Ġcosts": 7386,
      "Ġlovee": 7387,
      "Ġroutine": 7388,
      "iliar": 7389,
      ";:": 7390,
      "hours": 7391,
      "ano": 7392,
      "Ġrealy": 7393,
      "oles": 7394,
      "Ġgirlie": 7395,
      "bsb": 7396,
      "from": 7397,
      "rupt": 7398,
      "Ġink": 7399,
      "etime": 7400,
      "Ġsponge": 7401,
      "comfort": 7402,
      "Ġemailed": 7403,
      "Ġpurpose": 7404,
      "Ġfrancis": 7405,
      "Â¶": 7406,
      "haa": 7407,
      "Ġcds": 7408,
      "Ġled": 7409,
      "Ġpant": 7410,
      "aries": 7411,
      "Ġeag": 7412,
      "Ġuhh": 7413,
      "Ġlime": 7414,
      "Ġlies": 7415,
      "ctor": 7416,
      "ivered": 7417,
      "Ġ:&": 7418,
      "Ġsoundtrack": 7419,
      "Ġcurse": 7420,
      "Ġtexted": 7421,
      "bob": 7422,
      "Ġprior": 7423,
      "Ġwifey": 7424,
      "Ġrecovery": 7425,
      "Ġentertainment": 7426,
      "Ġcooper": 7427,
      "Ġfeatures": 7428,
      "mill": 7429,
      "Ġist": 7430,
      "Ġgain": 7431,
      "Ġthor": 7432,
      "tho": 7433,
      "ria": 7434,
      "uleta": 7435,
      "Ġgrew": 7436,
      "Ġfare": 7437,
      "Ġ48": 7438,
      "Ġheadin": 7439,
      "Ġheyyy": 7440,
      "lied": 7441,
      "Ġquotes": 7442,
      "Ġperforming": 7443,
      "Ġadvant": 7444,
      "Ġmosquito": 7445,
      "dream": 7446,
      "Ġtin": 7447,
      "Ġwot": 7448,
      "Ġdor": 7449,
      "ators": 7450,
      "allow": 7451,
      "Ġaband": 7452,
      "los": 7453,
      "Ġ400": 7454,
      "Ġbesties": 7455,
      "Ġgrant": 7456,
      "sterdam": 7457,
      "Ġcere": 7458,
      "Ġowner": 7459,
      "Ġsuffer": 7460,
      "2009": 7461,
      "26": 7462,
      "pat": 7463,
      "weet": 7464,
      "ÂĶ": 7465,
      "Ġilove": 7466,
      "chuck": 7467,
      "Ġnokia": 7468,
      "Ġvolley": 7469,
      "Ġunlike": 7470,
      "Ġsupernatural": 7471,
      "Ġedition": 7472,
      "Ġcreating": 7473,
      "burg": 7474,
      "Ġsunburned": 7475,
      "Ġyucky": 7476,
      "Ġremove": 7477,
      "Ġretarded": 7478,
      "care": 7479,
      "iors": 7480,
      "wk": 7481,
      "orate": 7482,
      "Ġyipp": 7483,
      "ppp": 7484,
      "Ġtacos": 7485,
      "Ġmatters": 7486,
      "Ġblessings": 7487,
      "Ġmemorial": 7488,
      "Ġpotential": 7489,
      "bies": 7490,
      "Ġzzzz": 7491,
      "Ġmim": 7492,
      "Ġdot": 7493,
      "stream": 7494,
      "Ġthus": 7495,
      "Ġrus": 7496,
      "Ġsurr": 7497,
      "Ġovers": 7498,
      "Ġawesomeness": 7499,
      "Ġhumor": 7500,
      "Ġmargar": 7501,
      "ledge": 7502,
      "Ġroller": 7503,
      "Ġmenu": 7504,
      "Ġdessert": 7505,
      "cot": 7506,
      "Ġaaaaa": 7507,
      "Ġbible": 7508,
      "Ġupside": 7509,
      "Ġalice": 7510,
      "mming": 7511,
      "Ġtrad": 7512,
      "should": 7513,
      "Ġaffect": 7514,
      "Ġportug": 7515,
      "Ġrefreshing": 7516,
      "Ġubuntu": 7517,
      "Ġcharlotte": 7518,
      "23": 7519,
      "chan": 7520,
      "zle": 7521,
      "Ġwt": 7522,
      "Ġbord": 7523,
      "inge": 7524,
      "Ġgp": 7525,
      "arian": 7526,
      "Ġsoda": 7527,
      "pple": 7528,
      "Ġchile": 7529,
      "Ġshouldnt": 7530,
      "irsty": 7531,
      "Ġfallen": 7532,
      "Ġrecover": 7533,
      "Ġdevelopment": 7534,
      "Ġsausage": 7535,
      "Ġaus": 7536,
      "help": 7537,
      "oured": 7538,
      "Ġlal": 7539,
      "Ġhabit": 7540,
      "iders": 7541,
      "Ġplate": 7542,
      "Ġsevere": 7543,
      "ggers": 7544,
      "Ġwriter": 7545,
      "Ġmessy": 7546,
      "conf": 7547,
      "Ġtournament": 7548,
      "Ġmulti": 7549,
      "Ġwashington": 7550,
      "Ġadvance": 7551,
      "Ġpraise": 7552,
      "Ġsed": 7553,
      "oustic": 7554,
      "Ġrio": 7555,
      "Ġviv": 7556,
      "Ġpolish": 7557,
      "Ġplayers": 7558,
      "Ġprote": 7559,
      "Ġflies": 7560,
      "Ġcompan": 7561,
      "Ġdelivered": 7562,
      "Ġreser": 7563,
      "Ġsync": 7564,
      "Ġpurse": 7565,
      "Ġdomain": 7566,
      "Ġviol": 7567,
      "Ġnicer": 7568,
      "Ġmartin": 7569,
      "Ġanatomy": 7570,
      "Ġwkend": 7571,
      "atly": 7572,
      "roid": 7573,
      "cting": 7574,
      "Ġvic": 7575,
      "Ġurge": 7576,
      "Ġexcl": 7577,
      "Ġstew": 7578,
      "Ġpromo": 7579,
      "Ġsalon": 7580,
      "Ġjerry": 7581,
      "mers": 7582,
      "has": 7583,
      "Ġtoss": 7584,
      "Ġcert": 7585,
      "Ġpt": 7586,
      "Ġlob": 7587,
      "Ġtaught": 7588,
      "Ġbrid": 7589,
      "Ġshoulders": 7590,
      "aka": 7591,
      "rubs": 7592,
      "Ġbasement": 7593,
      "Ġtask": 7594,
      "Ġsuspended": 7595,
      "Ġnaughty": 7596,
      "lets": 7597,
      "Ġtoys": 7598,
      "Ġgate": 7599,
      "Ġlj": 7600,
      "sell": 7601,
      "Ġsheets": 7602,
      "Ġchase": 7603,
      "Ġchildhood": 7604,
      "Ġpsycho": 7605,
      "Ġtidy": 7606,
      "Ġsilence": 7607,
      "Ġdivorce": 7608,
      "Ġdangerous": 7609,
      "Ġphotoshoot": 7610,
      "Ġopposite": 7611,
      "Âħ": 7612,
      "Ġrange": 7613,
      "Ġcana": 7614,
      "Ġmak": 7615,
      "Ġabc": 7616,
      "Ġoverall": 7617,
      "Ġwhose": 7618,
      "Ġbooth": 7619,
      "Ġberry": 7620,
      "Ġmichigan": 7621,
      "ology": 7622,
      "Ġfm": 7623,
      "Ġgil": 7624,
      "Ġrings": 7625,
      "aland": 7626,
      "Ġdoors": 7627,
      "Ġupcoming": 7628,
      "Ġwhit": 7629,
      "place": 7630,
      "Ġcelebs": 7631,
      "Ġtorture": 7632,
      "Ġaaah": 7633,
      "Ġpresents": 7634,
      "Ġchampionship": 7635,
      "gir": 7636,
      "wall": 7637,
      "Âİ": 7638,
      "Ġct": 7639,
      "Ġstood": 7640,
      "alog": 7641,
      "Ġimmedi": 7642,
      "Ġ31": 7643,
      "Ġhousework": 7644,
      "Ġdaw": 7645,
      "Ġjere": 7646,
      "Ġpatient": 7647,
      "Ġstrength": 7648,
      "Ġknees": 7649,
      "Ġberlin": 7650,
      "Ġroyal": 7651,
      "ih": 7652,
      "mble": 7653,
      "Ġsets": 7654,
      "Ġstab": 7655,
      "Ġshell": 7656,
      "Ġbris": 7657,
      "Ġgray": 7658,
      "Ġhandsome": 7659,
      "Ġcalend": 7660,
      "Ġfantasy": 7661,
      "Ġgigs": 7662,
      "annoyed": 7663,
      "employ": 7664,
      "$$": 7665,
      "father": 7666,
      "Ġworkshop": 7667,
      "Ġamsterdam": 7668,
      "Ġchrome": 7669,
      "Ġhugh": 7670,
      "Ġtrips": 7671,
      "while": 7672,
      "Ġspray": 7673,
      "Ġunexpected": 7674,
      "Ġnecklace": 7675,
      "hib": 7676,
      "mal": 7677,
      "Ġbore": 7678,
      "Ġtiger": 7679,
      "Ġamb": 7680,
      "beat": 7681,
      "Ġcheering": 7682,
      "Ġpropos": 7683,
      "Ġlegit": 7684,
      "Ġmarriage": 7685,
      "Ġaah": 7686,
      "Ġaaaa": 7687,
      "Ġmms": 7688,
      "Ġamong": 7689,
      "ribut": 7690,
      "Ġsake": 7691,
      "igner": 7692,
      "Ġbrb": 7693,
      "Ġreader": 7694,
      "Ġhalfway": 7695,
      "Ġdeadline": 7696,
      "Ġrelaxed": 7697,
      "bbie": 7698,
      "Ġprize": 7699,
      "Ġdecisions": 7700,
      "Ġbueno": 7701,
      "Ġashamed": 7702,
      "clipse": 7703,
      "bea": 7704,
      "nor": 7705,
      "Ġtt": 7706,
      "Ġnw": 7707,
      "Ġpy": 7708,
      "asure": 7709,
      "Ġfry": 7710,
      "Ġmonitor": 7711,
      "Ġbestest": 7712,
      "Ġindones": 7713,
      "Ġalbums": 7714,
      "Ġfairy": 7715,
      "Ġgrounded": 7716,
      "Ġblanket": 7717,
      "Ġcomfortable": 7718,
      "Ġutter": 7719,
      "Ġdissapointed": 7720,
      "ropriate": 7721,
      "95": 7722,
      "ij": 7723,
      "mpl": 7724,
      "Ġbone": 7725,
      "iser": 7726,
      "Ġjaw": 7727,
      "Ġsleee": 7728,
      "Ġcombo": 7729,
      "Ġlex": 7730,
      "Ġchef": 7731,
      "Ġsmack": 7732,
      "Ġjumped": 7733,
      "Ġlatte": 7734,
      "Ġaccepted": 7735,
      "Ġparticip": 7736,
      "Ġliverpool": 7737,
      "Ġtumblr": 7738,
      "bull": 7739,
      "cough": 7740,
      "weak": 7741,
      "Ġtes": 7742,
      "Ġbooooo": 7743,
      "Ġugg": 7744,
      "ilities": 7745,
      "lings": 7746,
      "cony": 7747,
      "Ġbeatles": 7748,
      "Â£?": 7749,
      "Ġcrashes": 7750,
      "Ġmirror": 7751,
      ";;": 7752,
      "Ġpork": 7753,
      "Ġrhy": 7754,
      "tycd": 7755,
      "Ġpasses": 7756,
      "Ġluke": 7757,
      "Ġinterviews": 7758,
      "llllllll": 7759,
      "Ġcheaper": 7760,
      "Ġarchuleta": 7761,
      "bledon": 7762,
      "Ġunbeliev": 7763,
      "Ġsurprisingly": 7764,
      "Ġbracelet": 7765,
      "game": 7766,
      "Ġtamp": 7767,
      "Ġsink": 7768,
      "rez": 7769,
      "vet": 7770,
      "Ġetsy": 7771,
      "Ġthick": 7772,
      "Ġripped": 7773,
      "Ġnest": 7774,
      "Ġgreg": 7775,
      "Ġgum": 7776,
      "Ġpoet": 7777,
      "Ġpoem": 7778,
      "Ġ36": 7779,
      "Ġadmin": 7780,
      "xxx": 7781,
      "Ġjohns": 7782,
      "Ġdeserves": 7783,
      "Ġattacked": 7784,
      "Ġearthquake": 7785,
      "Ġgimme": 7786,
      "Ġvolleyball": 7787,
      "cin": 7788,
      "count": 7789,
      "kick": 7790,
      "Ġwier": 7791,
      "Ġcord": 7792,
      "Ġdunk": 7793,
      "Ġnee": 7794,
      "Ġjeez": 7795,
      "Ġkas": 7796,
      "Ġwack": 7797,
      "Ġkicks": 7798,
      "Ġdisappear": 7799,
      "Ġloading": 7800,
      "Ġbroadcast": 7801,
      "Ġfunniest": 7802,
      "Ġbastard": 7803,
      "Ġsurround": 7804,
      "mph": 7805,
      "Ġsoap": 7806,
      "icate": 7807,
      "Ġkool": 7808,
      "Ġwaves": 7809,
      "Ġpros": 7810,
      "Ġscre": 7811,
      "Ġearn": 7812,
      "Ġburr": 7813,
      "Ġdouche": 7814,
      "ternal": 7815,
      "Ġtemper": 7816,
      "Ġtouched": 7817,
      "Ġgreetings": 7818,
      "Ġnigga": 7819,
      "Ġhouses": 7820,
      "Ġstunning": 7821,
      "Ġkaraoke": 7822,
      "Ġhicc": 7823,
      "ae": 7824,
      "iing": 7825,
      "Ġpresident": 7826,
      "Ġgroo": 7827,
      "Ġactor": 7828,
      "Ġtragic": 7829,
      "Ġcrit": 7830,
      "Ġpassport": 7831,
      "Ġvisited": 7832,
      "Ġhols": 7833,
      "Ġgoog": 7834,
      "Ġworrying": 7835,
      "Ġinternship": 7836,
      "finally": 7837,
      "Ġtetris": 7838,
      "Ġdl": 7839,
      "arr": 7840,
      "Ġknack": 7841,
      "Ġlasted": 7842,
      "apers": 7843,
      "Ġhihi": 7844,
      "Ġcompared": 7845,
      "front": 7846,
      "Ġbalcony": 7847,
      "Ġjesse": 7848,
      "Ġironing": 7849,
      "Ġglobal": 7850,
      "Ġultimate": 7851,
      "Ġgeorgia": 7852,
      "uf": 7853,
      "Ġheather": 7854,
      "Ġbeating": 7855,
      "Ġgoodnite": 7856,
      "Ġouts": 7857,
      "loe": 7858,
      "Ġfac": 7859,
      "Ġfriendship": 7860,
      "Ġfamiliar": 7861,
      "Ġedin": 7862,
      "oooooooooo": 7863,
      "Ġspoiled": 7864,
      "Ġracing": 7865,
      "tan": 7866,
      "Ġrs": 7867,
      "Ġatta": 7868,
      "Ġarg": 7869,
      "Ġpainted": 7870,
      "Ġhoped": 7871,
      "Ġpeaceful": 7872,
      "Ġviews": 7873,
      "Ġinspiring": 7874,
      "Ġsuggestion": 7875,
      "watching": 7876,
      "tendo": 7877,
      "jk": 7878,
      "nh": 7879,
      "rise": 7880,
      "Ġ\\": 7881,
      "Ġtink": 7882,
      "Ġward": 7883,
      "Ġgn": 7884,
      "Ġoc": 7885,
      "Ġod": 7886,
      "Ġing": 7887,
      "Ġsorting": 7888,
      "Ġletters": 7889,
      "Ġurban": 7890,
      "Ġdamage": 7891,
      "Ġmarks": 7892,
      "Ġhorses": 7893,
      "Ġcharity": 7894,
      "Ġcorp": 7895,
      "Ġarticles": 7896,
      "poor": 7897,
      "Ġcontinues": 7898,
      "Ġqueens": 7899,
      "Ġconstantly": 7900,
      "Ġneighborhood": 7901,
      "Ġnaman": 7902,
      "Ġrabbit": 7903,
      "Ġnurse": 7904,
      "Ġhousewives": 7905,
      "!....": 7906,
      "?..": 7907,
      "fits": 7908,
      "gi": 7909,
      "sup": 7910,
      "Ġfif": 7911,
      "Ġcit": 7912,
      "ashing": 7913,
      "Ġhectic": 7914,
      "aud": 7915,
      "Ġconver": 7916,
      "Ġuses": 7917,
      "Ġflow": 7918,
      "Ġamazingly": 7919,
      "Ġhorny": 7920,
      "Ġdistra": 7921,
      "Ġbonus": 7922,
      "))))": 7923,
      "Ġdragon": 7924,
      "Ġtommorrow": 7925,
      "500": 7926,
      "Ġmast": 7927,
      "ayay": 7928,
      "Ġhulu": 7929,
      "athan": 7930,
      "Ġsob": 7931,
      "Ġanaly": 7932,
      "aching": 7933,
      "Ġpatience": 7934,
      "Ġconnected": 7935,
      "Ġeffects": 7936,
      "Ġsinus": 7937,
      "Ġderby": 7938,
      "dad": 7939,
      "tim": 7940,
      "inate": 7941,
      "Ġboun": 7942,
      "Ġtomoz": 7943,
      "..&": 7944,
      "Ġther": 7945,
      "Ġnh": 7946,
      "Ġhence": 7947,
      "Ġbeloved": 7948,
      "ths": 7949,
      "Ġabit": 7950,
      "Ġchir": 7951,
      "Ġcoat": 7952,
      "Ġminor": 7953,
      "Ġgrandmother": 7954,
      "Ġ--&": 7955,
      "Ġpubl": 7956,
      "guess": 7957,
      "Ġportland": 7958,
      "Ġlovato": 7959,
      "Ġanxious": 7960,
      "Ġbby": 7961,
      "Ġhai": 7962,
      "Ġhaters": 7963,
      "atch": 7964,
      "Ġflaw": 7965,
      "Ġwrit": 7966,
      "Ġkel": 7967,
      "Ġcounty": 7968,
      "Ġpatch": 7969,
      "Ġrides": 7970,
      "Ġwebcam": 7971,
      "castle": 7972,
      "wwwwwwww": 7973,
      "Ġaustralian": 7974,
      "Ġbrandon": 7975,
      "Ġimpressive": 7976,
      "Ġphysical": 7977,
      "Ġrichard": 7978,
      "Ġannounced": 7979,
      "Ġasshole": 7980,
      "Ġcanadian": 7981,
      "Ġadvantage": 7982,
      "21": 7983,
      "97": 7984,
      "cry": 7985,
      "Ġbod": 7986,
      "Ġgather": 7987,
      "asot": 7988,
      "...)": 7989,
      "Ġrenew": 7990,
      "Ġgoodluck": 7991,
      "Ġsept": 7992,
      "Ġcovers": 7993,
      "Ġblown": 7994,
      "Ġtweetup": 7995,
      "Ġweekly": 7996,
      "ipes": 7997,
      "Ġdise": 7998,
      "Ġ**": 7999,
      "Ġacoustic": 8000,
      "Ġbatter": 8001,
      "Ġprime": 8002,
      "Ġrolls": 8003,
      "Ġcostume": 8004,
      "Ġstrike": 8005,
      "Ġwoods": 8006,
      "looking": 8007,
      "Ġvenue": 8008,
      "Ġmuffin": 8009,
      "Ġwimbledon": 8010,
      "weakness": 8011,
      "wave": 8012,
      "Ġdit": 8013,
      "Ġreward": 8014,
      "Ġreference": 8015,
      "Ġcod": 8016,
      "Ġshad": 8017,
      "pend": 8018,
      "Ġspect": 8019,
      "Ġunderst": 8020,
      "Ġfalls": 8021,
      "Ġburgers": 8022,
      "Ġsigns": 8023,
      "Ġruby": 8024,
      "Ġsunbathing": 8025,
      "Ġbonfire": 8026,
      "Ġdeliver": 8027,
      "Ġreplacement": 8028,
      "dale": 8029,
      "Ġiremember": 8030,
      "Ġmow": 8031,
      "arily": 8032,
      "Ġkir": 8033,
      "Ġframe": 8034,
      "Ġamber": 8035,
      "Ġjogging": 8036,
      "Ġdiam": 8037,
      "Ġsupporting": 8038,
      "Ġchannels": 8039,
      "Ġchoc": 8040,
      "Ġpromot": 8041,
      "Ġwebsites": 8042,
      "Ġprops": 8043,
      "Ġsquee": 8044,
      "ification": 8045,
      "Ġroommate": 8046,
      "ault": 8047,
      "Ġtsk": 8048,
      "Ġwut": 8049,
      "erd": 8050,
      "Ġbears": 8051,
      "Ġdoggy": 8052,
      "Ġali": 8053,
      "Ġsunset": 8054,
      "Ġdrum": 8055,
      "Ġwheres": 8056,
      "Ġughhhh": 8057,
      "Ġcoldplay": 8058,
      "Ġinstant": 8059,
      "Ġrefuse": 8060,
      "Ġscheduled": 8061,
      "Ġawesom": 8062,
      "Ġlevels": 8063,
      "cons": 8064,
      "hooo": 8065,
      "pea": 8066,
      "stra": 8067,
      "amin": 8068,
      "una": 8069,
      "usive": 8070,
      "agne": 8071,
      "Ġamazed": 8072,
      "Ġservers": 8073,
      "Ġyaay": 8074,
      "Ġcelt": 8075,
      "Ġchose": 8076,
      "Ġtrend": 8077,
      "Ġindust": 8078,
      "Ġbritains": 8079,
      "eeeeeeeeeeeeeeee": 8080,
      "Ġdrops": 8081,
      "Ġcrib": 8082,
      "Ġcrime": 8083,
      "Ġmontreal": 8084,
      "Ġvalue": 8085,
      "Ġkittens": 8086,
      "'...": 8087,
      "Ġciv": 8088,
      "Ġpand": 8089,
      "Ġmap": 8090,
      "Ġdean": 8091,
      "Ġtherefore": 8092,
      "Ġstreets": 8093,
      "Ġrobot": 8094,
      "Ġbritain": 8095,
      "Ġcigare": 8096,
      "ials": 8097,
      "Ġwing": 8098,
      "Ġgaming": 8099,
      "Ġchain": 8100,
      "hahah": 8101,
      "Ġsupper": 8102,
      "Ġlaughs": 8103,
      "Ġpissing": 8104,
      "Ġverizon": 8105,
      "Ġkorea": 8106,
      "Ġwierd": 8107,
      "_&": 8108,
      "aign": 8109,
      "pers": 8110,
      "Ġcc": 8111,
      "Ġpile": 8112,
      "Ġont": 8113,
      "Ġreb": 8114,
      "Ġ((": 8115,
      "Ġdisaster": 8116,
      "Ġgods": 8117,
      "Ġmighty": 8118,
      "Ġdrinkin": 8119,
      "Ġevry": 8120,
      "Ġdolls": 8121,
      "Ġlambert": 8122,
      "Ġtornado": 8123,
      "Ġdiamond": 8124,
      "week": 8125,
      "Ġsamp": 8126,
      "Ġpath": 8127,
      "anne": 8128,
      "iches": 8129,
      "Ġkk": 8130,
      "Ġbaha": 8131,
      "Ġfinds": 8132,
      "Ġbrew": 8133,
      "about": 8134,
      "Ġmusicmonday": 8135,
      "Ġassume": 8136,
      "Ġcounter": 8137,
      "Ġrumor": 8138,
      "Ġattending": 8139,
      "Ġgardening": 8140,
      "Ġanth": 8141,
      "Ġcrossing": 8142,
      "Ġformat": 8143,
      "Ġtwitterers": 8144,
      "whel": 8145,
      "cour": 8146,
      "feed": 8147,
      "jack": 8148,
      "Ġgna": 8149,
      "Ġpsp": 8150,
      "chi": 8151,
      "Ġrb": 8152,
      "Ġtequ": 8153,
      "iao": 8154,
      "Ġtelly": 8155,
      "Ġuntill": 8156,
      "Ġseasons": 8157,
      "Ġregister": 8158,
      "Ġbanned": 8159,
      "Ġwalls": 8160,
      "Ġbalance": 8161,
      "Ġconstru": 8162,
      "Ġtempor": 8163,
      "Ġquarter": 8164,
      "Ġeurovision": 8165,
      "Ġ{": 8166,
      "oups": 8167,
      "Ġtooooo": 8168,
      "Ġcba": 8169,
      "Ġeclipse": 8170,
      "umble": 8171,
      "Ġunemploy": 8172,
      "Ġapplied": 8173,
      "Ġminim": 8174,
      "Ġcranky": 8175,
      "Ġnintendo": 8176,
      "Ġfooty": 8177,
      "Ġeconomy": 8178,
      "Ġinjured": 8179,
      "Ġvibes": 8180,
      "bot": 8181,
      "low": 8182,
      "lar": 8183,
      "mars": 8184,
      "Ġhilton": 8185,
      "Ġstats": 8186,
      "Ġgov": 8187,
      "aling": 8188,
      "Ġscrubs": 8189,
      "0000": 8190,
      "tire": 8191,
      "germany": 8192,
      "Ġtyler": 8193,
      "Ġraise": 8194,
      "Ġbelg": 8195,
      "breaking": 8196,
      "Ġsubscri": 8197,
      "dc": 8198,
      "argh": 8199,
      "Ġworship": 8200,
      "aine": 8201,
      "Ġalan": 8202,
      "Ġdonut": 8203,
      "Ġspen": 8204,
      "Ġmuscles": 8205,
      "getting": 8206,
      "?!?!?!": 8207,
      "Ġauthor": 8208,
      "Ġbullshit": 8209,
      "bag": 8210,
      "fall": 8211,
      "Ġgad": 8212,
      "Ġht": 8213,
      "Ġstan": 8214,
      "Ġexample": 8215,
      "Ġorders": 8216,
      "Ġcrushed": 8217,
      "Ġhandy": 8218,
      "Ġchances": 8219,
      "Ġtrains": 8220,
      "Ġinde": 8221,
      "Ġmotivated": 8222,
      "Ġtaxi": 8223,
      "Ġcombination": 8224,
      "Ġcsi": 8225,
      "Ġedinburgh": 8226,
      "goo": 8227,
      "Ġeek": 8228,
      "Ġbash": 8229,
      "Ġcind": 8230,
      "ases": 8231,
      "Ġbelt": 8232,
      "Ġrp": 8233,
      "Ġallergy": 8234,
      "Ġasks": 8235,
      "Ġwhos": 8236,
      "isters": 8237,
      "Ġuncomfort": 8238,
      "ization": 8239,
      "Ġkillers": 8240,
      "Ġcontempl": 8241,
      "Ġdutch": 8242,
      "Ġcommercials": 8243,
      "Ġdesperately": 8244,
      "Ġspinning": 8245,
      "Ġsmoothie": 8246,
      "Ġfirm": 8247,
      "Ġprofessional": 8248,
      "could": 8249,
      "yet": 8250,
      "Ġicky": 8251,
      "inte": 8252,
      "Ġping": 8253,
      "Ġpets": 8254,
      "anks": 8255,
      "Ġrelief": 8256,
      "Ġnovel": 8257,
      "Ġspons": 8258,
      "Ġdru": 8259,
      "Ġcolumb": 8260,
      "Ġvoc": 8261,
      "Ġfairly": 8262,
      "Ġjoys": 8263,
      "Ġjenny": 8264,
      "Ġoccasion": 8265,
      "Ġsouthern": 8266,
      "fying": 8267,
      "Ġsessions": 8268,
      "store": 8269,
      "Ġheee": 8270,
      "Ġrode": 8271,
      "Ġgovern": 8272,
      "Ġana": 8273,
      "Ġconcept": 8274,
      "amel": 8275,
      "Ġbreathing": 8276,
      "cca": 8277,
      "Ġcrystal": 8278,
      "Ġcorre": 8279,
      "Ġforest": 8280,
      "Ġgraphic": 8281,
      "Ġcalendar": 8282,
      "km": 8283,
      "looks": 8284,
      "nk": 8285,
      "pie": 8286,
      "sat": 8287,
      "Ġul": 8288,
      "Ġexten": 8289,
      "Ġneeding": 8290,
      "ously": 8291,
      "Ġscoo": 8292,
      "Ġdesert": 8293,
      "Ġnotebook": 8294,
      "Ġwasting": 8295,
      "Ġsprint": 8296,
      "Ġstreaming": 8297,
      "Ġapologize": 8298,
      "Ġsaddest": 8299,
      "Ġbreeze": 8300,
      "Ġparadise": 8301,
      "fre": 8302,
      "Ġwiz": 8303,
      "Ġgary": 8304,
      "Ġlush": 8305,
      "Ġnp": 8306,
      "Ġpopped": 8307,
      "Ġstalking": 8308,
      "Ġmandy": 8309,
      "Ġfeeding": 8310,
      "igg": 8311,
      "Ġschoo": 8312,
      "Ġunit": 8313,
      "Ġshane": 8314,
      "Ġcarn": 8315,
      "uffle": 8316,
      "Ġbobby": 8317,
      "Ġnaps": 8318,
      "Ġclosest": 8319,
      "Ġseniors": 8320,
      "Ġantic": 8321,
      "?!?!?": 8322,
      "Ġuhm": 8323,
      "Ġignored": 8324,
      "dddddddd": 8325,
      "Ġbrooklyn": 8326,
      "Ġdum": 8327,
      "Ġsusp": 8328,
      "Ġvio": 8329,
      "Ġlolol": 8330,
      "Ġperth": 8331,
      "Ġthrilled": 8332,
      "Ġ75": 8333,
      "Ġbold": 8334,
      "Ġblowing": 8335,
      "Ġadventures": 8336,
      "Ġgraphics": 8337,
      "Ġrarely": 8338,
      "Ġmotorcy": 8339,
      "Ġwaffle": 8340,
      "Ġmaterial": 8341,
      "dan": 8342,
      "fan": 8343,
      "Ġfart": 8344,
      "Ġdim": 8345,
      "style": 8346,
      "Ġforums": 8347,
      "Ġshi": 8348,
      "enjoy": 8349,
      "eaks": 8350,
      "Ġsprain": 8351,
      "Ġplayoff": 8352,
      "iable": 8353,
      "Ġdrums": 8354,
      "ansas": 8355,
      "Ġshaking": 8356,
      "Ġ101": 8357,
      "Ġmadness": 8358,
      "Ġfiguring": 8359,
      "Ġ2000": 8360,
      "Ġfitness": 8361,
      "Ġcycle": 8362,
      "gggggggg": 8363,
      "senger": 8364,
      "Ġlobster": 8365,
      "first": 8366,
      "west": 8367,
      "Ġaverage": 8368,
      "Ġitouch": 8369,
      "add": 8370,
      "Ġmug": 8371,
      "lost": 8372,
      "ander": 8373,
      "Ġyest": 8374,
      "Ġroger": 8375,
      "Ġskies": 8376,
      "Ġskirt": 8377,
      "Ġvegan": 8378,
      "Ġlinked": 8379,
      "Ġapi": 8380,
      "Ġameric": 8381,
      "wait": 8382,
      "'?": 8383,
      "Ġfits": 8384,
      "iry": 8385,
      "ppin": 8386,
      "thr": 8387,
      "Ġamusing": 8388,
      "Ġspilled": 8389,
      "Ġ95": 8390,
      "Ġnetworking": 8391,
      "Ġjackie": 8392,
      "Ġexperiment": 8393,
      "Ġgarlic": 8394,
      "Ġyessss": 8395,
      "Ġzealand": 8396,
      "Ġstranger": 8397,
      "Ġgifts": 8398,
      "asc": 8399,
      "Ġstro": 8400,
      "illion": 8401,
      "Ġtwat": 8402,
      "Ġtwent": 8403,
      "Ġslam": 8404,
      "olly": 8405,
      "Ġbeth": 8406,
      "itto": 8407,
      "note": 8408,
      "Ġchillax": 8409,
      "Ġridiculously": 8410,
      "Ġswitched": 8411,
      "Ġgentle": 8412,
      "Ġhiccups": 8413,
      "lers": 8414,
      "water": 8415,
      "Ġbg": 8416,
      "orrow": 8417,
      "Ġdevice": 8418,
      "Ġspag": 8419,
      "Ġtabl": 8420,
      "Ġ''": 8421,
      "Ġdanie": 8422,
      "Ġdesigner": 8423,
      "Ġjewel": 8424,
      "friends": 8425,
      "Ġpointless": 8426,
      "Ġstressing": 8427,
      "Ġcolorado": 8428,
      "Ġpinea": 8429,
      "Ġbamboozle": 8430,
      ";_&": 8431,
      "park": 8432,
      "pret": 8433,
      "yer": 8434,
      "ishes": 8435,
      "iscoming": 8436,
      "Ġlik": 8437,
      "Ġupstairs": 8438,
      "Ġtools": 8439,
      "ples": 8440,
      "Ġapples": 8441,
      "Ġgroups": 8442,
      "Ġsoooooooo": 8443,
      "Ġconcerned": 8444,
      "Ġwreck": 8445,
      "Ġbnp": 8446,
      "55": 8447,
      "non": 8448,
      "paper": 8449,
      "yl": 8450,
      "Ġtiss": 8451,
      "ormed": 8452,
      "Ġpim": 8453,
      "ooms": 8454,
      "Ġjs": 8455,
      "Ġkeen": 8456,
      "ppa": 8457,
      "Ġknowledge": 8458,
      "Ġnewest": 8459,
      "Ġcarl": 8460,
      "Ġreset": 8461,
      "Ġpaperwork": 8462,
      "Ġromantic": 8463,
      "Ġconvinced": 8464,
      "ube": 8465,
      "Ġsals": 8466,
      "Ġmd": 8467,
      "Ġgin": 8468,
      "Ġharr": 8469,
      "Ġov": 8470,
      "Ġjared": 8471,
      "Ġwht": 8472,
      "Ġalpha": 8473,
      "Ġbackst": 8474,
      "Ġtai": 8475,
      "Ġsmiley": 8476,
      "gtv": 8477,
      "mont": 8478,
      "Ġartists": 8479,
      "Ġcops": 8480,
      "black": 8481,
      "Ġdiscussion": 8482,
      "Ġhumidity": 8483,
      "fil": 8484,
      "ife": 8485,
      "zone": 8486,
      "asha": 8487,
      "Ġbeard": 8488,
      "Ġshr": 8489,
      "Ġdell": 8490,
      "icks": 8491,
      "Ġspicy": 8492,
      "idently": 8493,
      "Ġ(&": 8494,
      "phy": 8495,
      "tweeting": 8496,
      "Ġworlds": 8497,
      "Ġbrave": 8498,
      "Ġchicks": 8499,
      "flix": 8500,
      "Ġcaptain": 8501,
      "Ġowl": 8502,
      "Ġdirection": 8503,
      "Ġimmediately": 8504,
      "lay": 8505,
      "Ġbm": 8506,
      "Ġlamb": 8507,
      "orning": 8508,
      "Ġnga": 8509,
      "anas": 8510,
      "Ġjar": 8511,
      "illing": 8512,
      "Ġdocs": 8513,
      "rian": 8514,
      "Ġfinan": 8515,
      "Ġgree": 8516,
      "Ġovercast": 8517,
      "Ġkidd": 8518,
      "Ġcurly": 8519,
      "Ġcuts": 8520,
      "balls": 8521,
      "Ġeconom": 8522,
      "lah": 8523,
      "Ġwks": 8524,
      "hens": 8525,
      "Ġmour": 8526,
      "Ġnik": 8527,
      "Ġreven": 8528,
      "Ġrant": 8529,
      "tear": 8530,
      "aren": 8531,
      "soannoyed": 8532,
      "Ġspears": 8533,
      "Ġrecession": 8534,
      "Ġterms": 8535,
      "Ġacade": 8536,
      "Ġtransport": 8537,
      "Ġnathan": 8538,
      "Ġbelive": 8539,
      "Ġgenerally": 8540,
      "((((": 8541,
      "Ġdaisies": 8542,
      "Ġbagel": 8543,
      "Ġpitts": 8544,
      "yu": 8545,
      "Ġpitch": 8546,
      "Ġpushed": 8547,
      "Ġyouuuu": 8548,
      "Ġmyweakness": 8549,
      "Ġnewcastle": 8550,
      "Ġslip": 8551,
      "Ġhire": 8552,
      "Ġdrives": 8553,
      "Ġlayin": 8554,
      "Ġteams": 8555,
      "Ġrecords": 8556,
      "Ġfreaked": 8557,
      "Ġcape": 8558,
      "Ġspeakers": 8559,
      "club": 8560,
      "Ġexplore": 8561,
      "Ġbeside": 8562,
      "iamsoannoyed": 8563,
      "Ġsweaty": 8564,
      "runs": 8565,
      "Ġlooove": 8566,
      "Ġrugby": 8567,
      "Ġfrancisco": 8568,
      "war": 8569,
      "Ġwrest": 8570,
      "Ġlg": 8571,
      "Ġud": 8572,
      "Ġshifts": 8573,
      "Ġmau": 8574,
      "Ġoverwhel": 8575,
      "Ġtramp": 8576,
      "Ġclin": 8577,
      "Ġsummertime": 8578,
      "zzle": 8579,
      "does": 8580,
      "Ġbees": 8581,
      "Ġpolitics": 8582,
      "Ġceremony": 8583,
      "Ġknackered": 8584,
      "bage": 8585,
      "Ġfired": 8586,
      "Ġci": 8587,
      "Ġll": 8588,
      "Ġlur": 8589,
      "Ġhut": 8590,
      "Ġhbo": 8591,
      "Ġinfect": 8592,
      "Ġthrown": 8593,
      "ppers": 8594,
      "eng": 8595,
      "Ġvag": 8596,
      "Ġtwittered": 8597,
      "Ġchili": 8598,
      "Ġguard": 8599,
      "Ġtease": 8600,
      "Ġtomoro": 8601,
      "Ġshowered": 8602,
      "Ġglast": 8603,
      "Ġbooze": 8604,
      "Ġ))": 8605,
      "active": 8606,
      "rences": 8607,
      "Ġwales": 8608,
      "Ġrecommendations": 8609,
      "Ġclaim": 8610,
      "Ġmuffins": 8611,
      "Ġtwisted": 8612,
      "marsiscoming": 8613,
      "^^": 8614,
      "cre": 8615,
      "Ġgained": 8616,
      "Ġwendy": 8617,
      "Ġoffered": 8618,
      "Ġorient": 8619,
      "Ġshowers": 8620,
      "Ġcheesy": 8621,
      "Ġgrilled": 8622,
      "Ġjonathan": 8623,
      "Ġcollea": 8624,
      "Ġlucy": 8625,
      "Ġreminding": 8626,
      "Ġdevast": 8627,
      "mmmmmmmm": 8628,
      "Ġahahaha": 8629,
      "Ġwolf": 8630,
      "jury": 8631,
      "aÂªa": 8632,
      "Ġnecessary": 8633,
      "!*": 8634,
      "bers": 8635,
      "must": 8636,
      "obe": 8637,
      "rated": 8638,
      "Ġbarn": 8639,
      "adium": 8640,
      "Ġlogged": 8641,
      "Ġdoggie": 8642,
      "urning": 8643,
      "tell": 8644,
      "Ġcoding": 8645,
      "Ġlecture": 8646,
      "oli": 8647,
      "ublic": 8648,
      "Ġcalcul": 8649,
      "Ġwhale": 8650,
      "Ġariz": 8651,
      "Ġuncomfortable": 8652,
      "-*": 8653,
      "75": 8654,
      "bir": 8655,
      "lady": 8656,
      "yn": 8657,
      "Ġax": 8658,
      "Ġpau": 8659,
      "Ġasia": 8660,
      "Ġvale": 8661,
      "Ġsem": 8662,
      "Ġtwitterfon": 8663,
      "Ġmann": 8664,
      "mac": 8665,
      "Ġsmashed": 8666,
      "Ġstere": 8667,
      "Ġxxxxxxx": 8668,
      "Ġ2008": 8669,
      "Ġautograph": 8670,
      "Ġatlantic": 8671,
      "Ġribs": 8672,
      "Ġcircle": 8673,
      "Ġsummers": 8674,
      "lucky": 8675,
      "Ġwaffles": 8676,
      "Ġcarolina": 8677,
      "Ġgcse": 8678,
      "pos": 8679,
      "hand": 8680,
      "Ġcel": 8681,
      "Ġlion": 8682,
      "orette": 8683,
      "Ġability": 8684,
      "Ġnewsp": 8685,
      "Ġswallow": 8686,
      "Ġtweeties": 8687,
      "Ġcaramel": 8688,
      "Ġbottles": 8689,
      "Ġkent": 8690,
      "Ġhunny": 8691,
      "Ġsteven": 8692,
      "Ġooc": 8693,
      "Ġsonny": 8694,
      "Ġattitude": 8695,
      "Ġbuttons": 8696,
      "Ġcabin": 8697,
      "Ġlemonade": 8698,
      "Ġsalsa": 8699,
      "born": 8700,
      "kins": 8701,
      "Ġlah": 8702,
      "Ġpowers": 8703,
      "aya": 8704,
      "Ġoat": 8705,
      "Ġstil": 8706,
      "Ġsuic": 8707,
      "Ġanime": 8708,
      "Ġdayy": 8709,
      "Ġtied": 8710,
      "Ġslice": 8711,
      "olar": 8712,
      "Ġjoint": 8713,
      "Ġaddition": 8714,
      "Ġcoup": 8715,
      "Ġsalvation": 8716,
      "Ġstandard": 8717,
      "Ġunique": 8718,
      "ugged": 8719,
      "Ġmethod": 8720,
      "Ġbikini": 8721,
      "Ġmickey": 8722,
      "hour": 8723,
      "mod": 8724,
      "Ġdood": 8725,
      "Ġoi": 8726,
      "iently": 8727,
      "Ġslide": 8728,
      "amen": 8729,
      "Ġ:*": 8730,
      "Ġunif": 8731,
      "shirts": 8732,
      "Ġbecu": 8733,
      "Ġharsh": 8734,
      "Ġhotter": 8735,
      "Ġserve": 8736,
      "Ġerm": 8737,
      "Ġcharm": 8738,
      "yyyyyy": 8739,
      "Ġnikki": 8740,
      "Ġmurder": 8741,
      "Ġapologies": 8742,
      "Ġexplode": 8743,
      "Ġpearl": 8744,
      "Ġdrunken": 8745,
      "Ġtootha": 8746,
      "Ġditto": 8747,
      "Ġnak": 8748,
      "Ġpul": 8749,
      "ati": 8750,
      "Ġbeck": 8751,
      "Ġrib": 8752,
      "Ġkr": 8753,
      "Ġdoh": 8754,
      "Ġnov": 8755,
      "Ġleather": 8756,
      "Ġprove": 8757,
      "Ġbrush": 8758,
      "Ġperez": 8759,
      "Ġdamned": 8760,
      "Ġgiveaway": 8761,
      "Ġblogger": 8762,
      "Ġresume": 8763,
      "Ġnetflix": 8764,
      "Ġexpert": 8765,
      "Ġveron": 8766,
      "Ġprinter": 8767,
      "Ġmiracle": 8768,
      "Ġporch": 8769,
      "busters": 8770,
      "ql": 8771,
      "Ġpak": 8772,
      "Ġpussy": 8773,
      "Ġoww": 8774,
      "Ġrege": 8775,
      "Ġkfc": 8776,
      "plan": 8777,
      "Ġcracking": 8778,
      "Ġcrawl": 8779,
      "psi": 8780,
      "Ġsetup": 8781,
      "...........": 8782,
      "Ġcampaign": 8783,
      "Ġsticks": 8784,
      "Ġexhausting": 8785,
      "Ġhype": 8786,
      "Ġbruised": 8787,
      "Ġeuropean": 8788,
      "radine": 8789,
      "jour": 8790,
      "Ġsg": 8791,
      "inter": 8792,
      "meal": 8793,
      "edy": 8794,
      "Ġoutlook": 8795,
      "Ġspy": 8796,
      "soon": 8797,
      "Ġshave": 8798,
      "Ġshared": 8799,
      "ability": 8800,
      "Ġactress": 8801,
      "Ġboobs": 8802,
      "Ġkell": 8803,
      "wear": 8804,
      "Ġburst": 8805,
      "Ġcalories": 8806,
      "Ġunfortunate": 8807,
      "Ġmelissa": 8808,
      "Ġsuspect": 8809,
      "Ġmistakes": 8810,
      "Ġloveee": 8811,
      "Ġmodels": 8812,
      "Ġsilent": 8813,
      "Ġdaisy": 8814,
      "Ġawaiting": 8815,
      "Ġvillage": 8816,
      "Ġmatthew": 8817,
      "Ġtequila": 8818,
      "hus": 8819,
      "Ġihop": 8820,
      "Ġleeds": 8821,
      "Ġeps": 8822,
      "icure": 8823,
      "Ġsequ": 8824,
      "Ġphp": 8825,
      "ggage": 8826,
      "Ġdram": 8827,
      "Ġeyed": 8828,
      "Ġacct": 8829,
      "reading": 8830,
      "Ġbasic": 8831,
      "Ġrecommended": 8832,
      "aaaaaaaaaaaaaaaa": 8833,
      "Ġclicked": 8834,
      "Ġentirely": 8835,
      "Ġoprah": 8836,
      "craft": 8837,
      "Ġpostponed": 8838,
      "Ġspongebob": 8839,
      "Ġspencer": 8840,
      "Ġanticip": 8841,
      "tor": 8842,
      "Ġwp": 8843,
      "ooke": 8844,
      "Ġoak": 8845,
      "atory": 8846,
      "keys": 8847,
      "aste": 8848,
      "Ġasp": 8849,
      "Ġcarradine": 8850,
      "oppy": 8851,
      "Ġdane": 8852,
      "Ġdefault": 8853,
      "Ġsteam": 8854,
      "Ġsimps": 8855,
      "Ġfireworks": 8856,
      "Ġturtle": 8857,
      "forgermany": 8858,
      "Ġsurviv": 8859,
      "Ġconversations": 8860,
      "Ġninja": 8861,
      "Ġcowork": 8862,
      "Ġprocrastinating": 8863,
      "Ġmystery": 8864,
      "Ġaccep": 8865,
      "hm": 8866,
      "lon": 8867,
      "zes": 8868,
      "Ġthesis": 8869,
      "ndo": 8870,
      "Ġinjury": 8871,
      "tering": 8872,
      "Ġshitt": 8873,
      "Ġexhib": 8874,
      "Ġspots": 8875,
      "Ġchop": 8876,
      "Ġurs": 8877,
      "Ġcounts": 8878,
      "gypt": 8879,
      "Ġmaine": 8880,
      "kyo": 8881,
      "Ġqueue": 8882,
      "Ġsnuggle": 8883,
      "Ġalternative": 8884,
      "Ġjeremy": 8885,
      "Ġindonesia": 8886,
      "Ġarizona": 8887,
      "bird": 8888,
      "gate": 8889,
      "pics": 8890,
      "onday": 8891,
      "Ġpb": 8892,
      "sta": 8893,
      "Ġhab": 8894,
      "Ġole": 8895,
      "Ġlogin": 8896,
      "Ġdose": 8897,
      "Ġshri": 8898,
      "Ġtwas": 8899,
      "ksha": 8900,
      "Ġslap": 8901,
      "Ġsack": 8902,
      "Ġfunky": 8903,
      "Ġsadden": 8904,
      "Ġphill": 8905,
      "Ġident": 8906,
      "Ġengage": 8907,
      "Ġbarbe": 8908,
      "Ġmedical": 8909,
      "Ġdepression": 8910,
      "Ġfarewell": 8911,
      ".?": 8912,
      "bes": 8913,
      "iee": 8914,
      "rell": 8915,
      "Ġoy": 8916,
      "Ġbahaha": 8917,
      "Ġmob": 8918,
      "Ġarts": 8919,
      "Ġpeas": 8920,
      "ggin": 8921,
      "Ġperman": 8922,
      "Ġblocks": 8923,
      "Ġkeith": 8924,
      "Ġfoc": 8925,
      "chers": 8926,
      "Ġjulie": 8927,
      "Ġclimbing": 8928,
      "Ġkitties": 8929,
      "Ġsophie": 8930,
      "Ġdetermin": 8931,
      "Ġtampa": 8932,
      "dress": 8933,
      "rant": 8934,
      "super": 8935,
      "trip": 8936,
      "Â·": 8937,
      "Ġwooooo": 8938,
      "eday": 8939,
      "Ġinn": 8940,
      "ateg": 8941,
      "Ġhomesick": 8942,
      "Ġsuns": 8943,
      "Ġlunchtime": 8944,
      "aches": 8945,
      "Ġdisappointment": 8946,
      "post": 8947,
      "Ġeyeb": 8948,
      "Ġdaughters": 8949,
      "Ġrequired": 8950,
      "Ġmountains": 8951,
      "--------": 8952,
      "Ġpirate": 8953,
      "Ġannouncement": 8954,
      "Ġtechnically": 8955,
      "Ġpenguins": 8956,
      ";..": 8957,
      "Ġtang": 8958,
      "Ġhind": 8959,
      "asis": 8960,
      "Ġbebo": 8961,
      "Ġrc": 8962,
      "Ġkha": 8963,
      "Ġtodayy": 8964,
      "Ġmaker": 8965,
      "rier": 8966,
      "Ġscored": 8967,
      "Ġsweetest": 8968,
      "Ġkillin": 8969,
      "Ġ.......": 8970,
      "Ġshocking": 8971,
      "Ġsmaller": 8972,
      "Ġnerves": 8973,
      "uuuuu": 8974,
      "Ġbelated": 8975,
      "Ġruining": 8976,
      "Ġmister": 8977,
      "Ġmalays": 8978,
      "Ġcorrectly": 8979,
      "Ġwhoops": 8980,
      "Ġpotatoes": 8981,
      "Ġwilliams": 8982,
      "Ġdisease": 8983,
      "Ġtwenty": 8984,
      "Ġtoothache": 8985,
      "28": 8986,
      "blog": 8987,
      "cries": 8988,
      "van": 8989,
      "vity": 8990,
      "yout": 8991,
      "Ġnach": 8992,
      "Ġyor": 8993,
      "ssa": 8994,
      "Ġsleepin": 8995,
      "Ġyeahhh": 8996,
      "Ġhola": 8997,
      "Ġgardens": 8998,
      "Ġmotion": 8999,
      "Ġdigging": 9000,
      "Ġspotify": 9001,
      "Ġscratched": 9002,
      "Ġparticularly": 9003,
      "course": 9004,
      "sur": 9005,
      "Ġdorm": 9006,
      "Ġpw": 9007,
      "Ġpeep": 9008,
      "ali": 9009,
      "Ġvou": 9010,
      "Ġsac": 9011,
      "mao": 9012,
      "people": 9013,
      "Ġurself": 9014,
      "Ġenjoyable": 9015,
      "Ġrocky": 9016,
      "Ġloaded": 9017,
      "Ġmicrow": 9018,
      "Ġproduction": 9019,
      "Ġburns": 9020,
      "Ġholland": 9021,
      "someone": 9022,
      "Ġfolk": 9023,
      "Ġessays": 9024,
      "boys": 9025,
      "Ġmask": 9026,
      "Ġpaula": 9027,
      "Ġolive": 9028,
      "feeling": 9029,
      "Ġfic": 9030,
      "Ġdirt": 9031,
      "Ġinflu": 9032,
      "Ġdonate": 9033,
      "ushes": 9034,
      "Ġlewis": 9035,
      "Ġenvir": 9036,
      "twit": 9037,
      "Ġstuffy": 9038,
      "Ġskill": 9039,
      "Ġille": 9040,
      "Ġveggie": 9041,
      "Ġchoices": 9042,
      "Ġopens": 9043,
      "Ġstring": 9044,
      "Ġinformed": 9045,
      "Ġformer": 9046,
      "Ġspelled": 9047,
      "Ġsprink": 9048,
      "sense": 9049,
      "Ġdestroyed": 9050,
      "Ġsettled": 9051,
      "Ġrisk": 9052,
      "Ġculture": 9053,
      "Ġpineapple": 9054,
      "Ġcone": 9055,
      "Ġshite": 9056,
      "Ġtack": 9057,
      "Ġbetty": 9058,
      "Ġcoulda": 9059,
      "Ġjog": 9060,
      "osop": 9061,
      "moon": 9062,
      "Ġbush": 9063,
      "Ġcubs": 9064,
      "bridge": 9065,
      "Ġvacay": 9066,
      "Ġrealizing": 9067,
      "Ġanton": 9068,
      "****": 9069,
      "Ġrooms": 9070,
      "missing": 9071,
      "Ġgrrrrr": 9072,
      "Ġsympt": 9073,
      "Ġlifetime": 9074,
      "ubs": 9075,
      "Ġara": 9076,
      "Ġmk": 9077,
      "Ġtommy": 9078,
      "Ġcage": 9079,
      "Ġnbc": 9080,
      "Ġtel": 9081,
      "Ġbreast": 9082,
      "Ġheartbroken": 9083,
      "Ġcurl": 9084,
      "Ġfilip": 9085,
      "Ġdraft": 9086,
      "Ġsticky": 9087,
      "Ġfestiv": 9088,
      "Ġrequire": 9089,
      "Ġmikey": 9090,
      "Ġteddy": 9091,
      "Ġencourage": 9092,
      "Ġdisconne": 9093,
      "Ġanthony": 9094,
      "27": 9095,
      "bute": 9096,
      "kit": 9097,
      "mary": 9098,
      "ÂĽ": 9099,
      "Ġsig": 9100,
      "Ġgnight": 9101,
      "Ġnich": 9102,
      "Ġkc": 9103,
      "almost": 9104,
      "Ġplot": 9105,
      "Ġmolly": 9106,
      "Ġcheat": 9107,
      "Ġscroll": 9108,
      "Ġtrace": 9109,
      "Ġremembering": 9110,
      "iiiii": 9111,
      "Ġantib": 9112,
      "Ġahhhhhh": 9113,
      "everyone": 9114,
      "Ġanxiety": 9115,
      "lb": 9116,
      "Ġbart": 9117,
      "Ġgh": 9118,
      "Ġthirsty": 9119,
      "Ġjj": 9120,
      "Ġmissy": 9121,
      "Ġspar": 9122,
      "Ġhappily": 9123,
      "Ġ*-*": 9124,
      "laws": 9125,
      "Ġcups": 9126,
      "Ġmixt": 9127,
      "Ġaudience": 9128,
      "Ġspoon": 9129,
      "Ġdryer": 9130,
      "Ġyelling": 9131,
      "Ġaddicting": 9132,
      "Ġbiscuits": 9133,
      "acc": 9134,
      "dance": 9135,
      "Ġbam": 9136,
      "Ġowww": 9137,
      "Ġreve": 9138,
      "ira": 9139,
      "Ġgoodies": 9140,
      "Ġwax": 9141,
      "Ġtwitting": 9142,
      "Ġswap": 9143,
      "Ġ;(": 9144,
      "Ġlaught": 9145,
      "Ġeyel": 9146,
      "Ġowned": 9147,
      "Ġlightening": 9148,
      "Ġvaca": 9149,
      "Ġcontroll": 9150,
      "except": 9151,
      "produ": 9152,
      "tomorrow": 9153,
      "Ġprotest": 9154,
      "Ġachieve": 9155,
      "Ġproposal": 9156,
      "Ġcontemplating": 9157,
      "cies": 9158,
      "Ġtuck": 9159,
      "Ġjill": 9160,
      "utner": 9161,
      "opard": 9162,
      "ryl": 9163,
      "Ġtak": 9164,
      "Ġbrut": 9165,
      "Ġlottery": 9166,
      "Ġchillen": 9167,
      "Ġsytycd": 9168,
      "Ġelement": 9169,
      "Ġhealing": 9170,
      "Ġstraighten": 9171,
      "Ġneighbour": 9172,
      "Ġgirlfriends": 9173,
      "Ġlarry": 9174,
      "Ġtelevision": 9175,
      "Ġkenny": 9176,
      "Ġunpacking": 9177,
      "Ġgadget": 9178,
      "zo": 9179,
      "Ġtp": 9180,
      "Ġsid": 9181,
      "iner": 9182,
      "Ġgel": 9183,
      "Ġcull": 9184,
      "oops": 9185,
      "Ġstav": 9186,
      "Ġkan": 9187,
      "Ġwitness": 9188,
      "Ġalll": 9189,
      "Ġhometown": 9190,
      "Ġbetta": 9191,
      "Ġadjust": 9192,
      "Ġdrain": 9193,
      "Ġlisted": 9194,
      "stern": 9195,
      "Ġblocking": 9196,
      "Ġelbow": 9197,
      "Ġsings": 9198,
      "Ġconstant": 9199,
      "Ġpredic": 9200,
      "Ġnursing": 9201,
      "Ġpittsburgh": 9202,
      "aire": 9203,
      "lif": 9204,
      "turn": 9205,
      "Ġgam": 9206,
      "Ġgnite": 9207,
      "anced": 9208,
      "Ġheidi": 9209,
      "Ġgett": 9210,
      "Ġimo": 9211,
      "Ġhike": 9212,
      "Ġcompare": 9213,
      "Ġcuppa": 9214,
      "Ġtread": 9215,
      "Ġmilksha": 9216,
      "Ġdesigns": 9217,
      "Ġauntie": 9218,
      "Ġchampagne": 9219,
      "Ġstealing": 9220,
      "Ġdedicated": 9221,
      "Ġnapping": 9222,
      "Ġpokemon": 9223,
      "Ġstretch": 9224,
      "bane": 9225,
      "ÂĬ": 9226,
      "ÂŁ": 9227,
      "Ġtops": 9228,
      "llow": 9229,
      "isy": 9230,
      "especially": 9231,
      "Ġthreat": 9232,
      "Ġreinstall": 9233,
      "Ġstadium": 9234,
      "Ġrud": 9235,
      "Ġbachel": 9236,
      "Ġweeds": 9237,
      "Ġwishin": 9238,
      "Ġsunscreen": 9239,
      "Ġtriple": 9240,
      "inton": 9241,
      "Ġ):": 9242,
      "Ġcharging": 9243,
      "Ġpromotion": 9244,
      "Ġtouring": 9245,
      "Ġblessing": 9246,
      "Ġrelay": 9247,
      "Ġbatch": 9248,
      "Ġclothing": 9249,
      "Ġpixar": 9250,
      "Ġbroadband": 9251,
      "Ġguests": 9252,
      "Ġrussian": 9253,
      "Ġmodern": 9254,
      "Ġextended": 9255,
      "Ġsprained": 9256,
      "88": 9257,
      "rom": 9258,
      "yrs": 9259,
      "Ġting": 9260,
      "inn": 9261,
      "Ġbour": 9262,
      "Ġgps": 9263,
      "Ġhail": 9264,
      "another": 9265,
      "thon": 9266,
      "Ġmocha": 9267,
      "Ġpromote": 9268,
      "Ġsyn": 9269,
[...]
