{
  "stoi": {
    "Ġnatal": 6698,
    "Ġfolks": 3286,
    "Ġ5": 713,
    "Ġperformance": 4287,
    "Ġditched": 11840,
    "Ġvw": 17538,
    "Ġcolada": 29953,
    "ppers": 8594,
    "Ġslowing": 19914,
    "Ġgovt": 14514,
    "chic": 14865,
    "Ġtech": 2336,
    "Ġtweetie": 5184,
    "Ġtwitta": 22157,
    "Ġlipgloss": 24315,
    "Ġcorps": 22990,
    "bz": 22588,
    "chick": 13531,
    "Ġphotoshop": 5858,
    "Ġjava": 7179,
    "Ġfran": 3919,
    "ggie": 4485,
    "Ġtru": 3293,
    "Ġnsw": 14450,
    "Ġawesomeeee": 28883,
    "usetts": 22924,
    "unlimited": 13738,
    "Ġworthing": 29114,
    "Ġels": 24929,
    "Ġflyer": 16234,
    "Ġzipp": 29265,
    "Ġsupr": 6899,
    "Ġrico": 11862,
    "arently": 12661,
    "twee": 26132,
    "Ġheights": 13855,
    "Ġassist": 6835,
    "rite": 22596,
    "Ġvul": 13940,
    "Ġskype": 4790,
    "Ġcoco": 7300,
    "Ġhaley": 13299,
    "Ġbugged": 20280,
    "europe": 27798,
    "Ġdinos": 13618,
    "Ġgarrett": 22253,
    "Ġcovers": 7993,
    "Ġworlds": 8497,
    "youtube": 9781,
    "Ġiam": 7345,
    "Ġbrightly": 28766,
    "Ġ110": 13107,
    "things": 13093,
    "little": 10637,
    "hehehe": 14049,
    "rette": 27668,
    "Ġtoothbrush": 19358,
    "eep": 325,
    "Ġwha": 3137,
    "husi": 10785,
    "Ġpeck": 28051,
    "Ġmarath": 19883,
    "Ġmail": 2524,
    "babies": 22053,
    "Ġrele": 2308,
    "Ġdisap": 11023,
    "?!?!?!": 8207,
    "Ġsame": 882,
    "Ġdoubting": 25931,
    "Ġnos": 17275,
    "Ġdefence": 28678,
    "rod": 13381,
    "Ġdepressed": 3105,
    "brian": 20411,
    "yyy": 2350,
    "Ġexit": 11227,
    "Ġwan": 655,
    "Ġrhy": 7754,
    "Ġhalle": 25570,
    "Ġdonna": 14468,
    "x": 63,
    "Ġmisty": 15262,
    "Ġreconsider": 27865,
    "elevensestime": 28978,
    "Ġdrowned": 16500,
    "tar": 16877,
    "Ġehh": 9632,
    "woot": 17756,
    "Ġcv": 13450,
    "Ġalcoholic": 15182,
    "oman": 2505,
    "Ġchrist": 2645,
    "Ġkait": 15839,
    "....": 332,
    "Ġknox": 18559,
    "cester": 20043,
    "usions": 19842,
    "ping": 3156,
    "Ġwinter": 3737,
    "Ġsort": 2976,
    "Ġentire": 3074,
    "Ġbrother": 1253,
    "gia": 13444,
    "change": 15464,
    "Ġpurposely": 27280,
    "Ġhyper": 6432,
    "Ġyearbook": 9854,
    "Ġtitles": 13632,
    "Ġeyebrow": 19175,
    "Ġbeethoven": 24652,
    "Ġikea": 7180,
    "Ġbeautifull": 17111,
    "Ġsalam": 28725,
    "Ġdownt": 3923,
    "Ġfy": 5732,
    "Ġbarack": 21226,
    "Ġdonating": 21401,
    "Ġtomorroww": 20938,
    "Ġtemplate": 15016,
    "Ġtales": 16847,
    "mc": 4815,
    "Ġmission": 5198,
    "Ġtheyr": 24860,
    "Ġisland": 3255,
    "cardi": 25059,
    "Ġstargate": 21939,
    "Ġawes": 6620,
    "Ġcoworker": 13174,
    "Ġloool": 15431,
    "Ġlikey": 10073,
    "Ġ118": 29300,
    "Ġestate": 10960,
    "Ġgoodies": 9140,
    "Ġputtin": 18140,
    "cm": 14288,
    "nas": 11364,
    "tree": 20011,
    "Ġcapital": 9893,
    "Ġblow": 3774,
    "Ġstuf": 27962,
    "Ġapa": 13329,
    "Ġkra": 12146,
    "Ġbrightened": 24642,
    "Ġintuitive": 29559,
    "keeper": 24000,
    "aaaaaaa": 10205,
    "Ġeb": 12588,
    "Ġgrader": 18777,
    "Ġdreamin": 23895,
    "Ġincubus": 20406,
    "Ġwinner": 5414,
    "Ġtutu": 29403,
    "Ġcourier": 27118,
    "dick": 15291,
    "atives": 28181,
    "Ġcombination": 8224,
    "Ġaustria": 14570,
    ";?!": 28436,
    "Ġpf": 15134,
    "Ġpurty": 27162,
    "Ġappra": 29217,
    "tube": 1691,
    "his": 9960,
    "heen": 12644,
    "Ġrihanna": 15359,
    "Ġcam": 1616,
    "umbers": 16588,
    "Ġnda": 26009,
    "Ġwhaa": 27198,
    "tter": 18533,
    "Ġindoors": 7272,
    "Ġleak": 10106,
    "ggs": 12215,
    "Ġjg": 15583,
    "Ġxmas": 11456,
    "Ġohh": 2577,
    "Ġpremi": 23223,
    "Ġsteaks": 16895,
    "ico": 3024,
    "pic": 3241,
    "Ġsquid": 14500,
    "Ġdegree": 5733,
    "Ġtail": 7334,
    "Ġharmon": 19492,
    "Ġduper": 11580,
    "Ġharu": 29227,
    "Ġcorrection": 10061,
    "fg": 4527,
    "Ġchemicals": 21998,
    "Ġbless": 1920,
    "Ġsoo": 1325,
    "Ġtumblar": 22789,
    "Ġuncondition": 27304,
    "Ġhectic": 7914,
    "Ġsme": 2082,
    "today": 7047,
    "Ġjoyce": 19544,
    "Ġnewer": 16664,
    "Ġdistin": 27175,
    "Ġdestiny": 13698,
    "acting": 22224,
    "sol": 21114,
    "Ġkoh": 20239,
    "stats": 29681,
    "erole": 28256,
    "Ġsoldiers": 21006,
    "Ġboxing": 11600,
    "Ġroby": 18134,
    "Ġplayer": 3992,
    "Ġidaho": 20293,
    "asmine": 13909,
    "Ġhoop": 16889,
    "Ġadventurous": 26236,
    "Ġtyra": 16015,
    "azzled": 28243,
    "Ġhows": 3897,
    "Ġforgot": 1279,
    "Ġgooooo": 18079,
    "Ġ220": 24136,
    "irk": 16658,
    "holder": 13707,
    "lining": 17076,
    "Ġtowed": 18980,
    "Ġincred": 3590,
    "Ġmart": 4198,
    "eeting": 1148,
    "eness": 11902,
    "Ġsites": 4744,
    "Ġdistracted": 7271,
    "Ġfarts": 26000,
    "Ġvicariously": 17900,
    "ures": 4027,
    "nie": 3562,
    "Ġhii": 10438,
    "Ġmoney": 1233,
    "Ġdeser": 2580,
    "Ġarnd": 22946,
    "Ġsangria": 17729,
    "Ġhamster": 11163,
    "Ġhospitality": 22488,
    "str": 5811,
    "Ġyaz": 29679,
    "Ġarse": 6811,
    "Ġredeem": 27643,
    "Ġinspirational": 11885,
    "Ġrede": 15041,
    "Ġmarl": 28647,
    "ipedia": 12240,
    "Ġseniors": 8320,
    "france": 16008,
    "Ġsevent": 12957,
    "Ġcarol": 5695,
    "ques": 10468,
    "Ġworrying": 7835,
    "Ġ(:": 2820,
    "Ġtee": 2000,
    "Ġlegs": 2980,
    "Ġstabbing": 22040,
    "Ġneeee": 15305,
    "Ġswans": 26101,
    "Ġangeles": 9740,
    "goodnight": 9474,
    "anya": 10276,
    "Ġtorres": 20556,
    "Ġtomor": 451,
    "ternal": 7815,
    "Ġmarble": 20962,
    "Ġspears": 8533,
    "Ġdyin": 19562,
    "Ġpublishing": 18346,
    "Ġtita": 19937,
    "Ġ!.": 28605,
    "Ġwinn": 18275,
    "Ġtal": 4399,
    "Ġcrank": 13266,
    "Ġvictor": 5600,
    "Ġappar": 17815,
    "Ġvirtu": 27696,
    "oa": 22332,
    "eel": 7143,
    "Ġchurches": 23275,
    "Ġpampering": 21075,
    "lg": 19804,
    "Ġwool": 14301,
    "tie": 10872,
    "Ġdeclare": 20175,
    "Ġgin": 8468,
    "Ġrivers": 20127,
    "Ġtwix": 21163,
    "Ġmaam": 26059,
    "Ġsent": 1784,
    "Ġmature": 13762,
    "ret": 1904,
    "chass": 23919,
    "Ġbirfday": 22435,
    "Ġflies": 7560,
    "opes": 20460,
    "Ġcleaner": 11914,
    "Ġpapa": 6544,
    "Ġmohegan": 25145,
    "Ġsingapore": 5579,
    "Ġsickness": 7214,
    "Ġra": 2157,
    "Ġharpers": 20079,
    "Ġslut": 11105,
    "Ġimiss": 15981,
    "boring": 13790,
    "Ġlittlest": 27056,
    "pher": 27414,
    "Ġcompliments": 12008,
    "iran": 12470,
    "Ġkop": 27970,
    "Ġsnarky": 27639,
    "Ġsurprise": 3613,
    "player": 6291,
    "Ġdonkey": 14389,
    "zle": 7521,
    "ols": 23537,
    "me": 175,
    "Ġroadshow": 24264,
    "Ġyummie": 26745,
    "jkl": 22537,
    "owa": 9933,
    "Ġhanna": 3099,
    "care": 7479,
    "ksa": 23831,
    "blah": 10735,
    "Ġswed": 5189,
    "Ġwarped": 6304,
    "Ġbcn": 28225,
    "Ġyourself": 2302,
    "tt": 1156,
    "'-": 20664,
    "Ġfletcher": 13613,
    "Ġfete": 21848,
    "Ġduct": 19543,
    "pse": 14293,
    "Ġlib": 12466,
    "Ġhar": 716,
    "Ġmothersday": 29337,
    "Ġmomma": 5231,
    "Ġexhib": 8874,
    "Ġlast": 444,
    "Ġdepri": 9426,
    "Ġo": 170,
    "inf": 28475,
    "Ġmorons": 24170,
    "Ġtall": 5431,
    "Ġtri": 767,
    "Ġparallel": 19987,
    "Ġfle": 5121,
    "Ġland": 2367,
    "ring": 1811,
    "Ġlucoz": 28140,
    "Ġbrixton": 26224,
    "Ġsaga": 12411,
    "Ġkelley": 29474,
    "on": 146,
    "ohh": 20419,
    "Ġsaddens": 14268,
    "bom": 28440,
    "Ġchanging": 4772,
    "Ġassass": 10808,
    "Ġwrap": 7239,
    "Ġrotation": 22269,
    "smart": 21511,
    "Ġ67": 16676,
    "Ġexpect": 2212,
    "[UNK]": 1,
    "Ġnephews": 12391,
    "Ġworldwide": 15808,
    "Ġhee": 3798,
    "Ġjo": 558,
    "Ġfreak": 2220,
    "Ġsanctuary": 23411,
    "Ġblame": 3830,
    "Ġerrr": 12332,
    "Ġgrats": 18261,
    "Ġirrespons": 27829,
    "Ġsquished": 22487,
    "Ġtraveled": 25403,
    "Ġfades": 29669,
    "Ġuf": 23482,
    "Ġalredy": 25956,
    "Ġequ": 4299,
    "month": 13330,
    "oke": 919,
    "Ġnaught": 7188,
    "igi": 27006,
    "jr": 25155,
    "Ġsz": 27430,
    "Ġprototype": 14259,
    "Ġarty": 27568,
    "Ġprevented": 26794,
    "Ġshortened": 24244,
    "Ġcardio": 10956,
    "Ġtouch": 2303,
    "Ġstubbed": 23371,
    "Ġ._.": 20076,
    "Ġcram": 9347,
    "Ġendea": 18268,
    "Ġwish": 480,
    "rot": 12453,
    "Ġheartbreaking": 10654,
    "Ġignoring": 6700,
    "Ġrome": 6810,
    "Ġgraff": 19310,
    "planes": 21555,
    "Ġfilming": 6606,
    "quest": 12526,
    "ga": 2382,
    "nnnnnnn": 24306,
    "Ġguards": 24166,
    "Ġachievement": 14843,
    "Ġadvent": 4059,
    "Ġwah": 5272,
    "Ġtraffic": 2660,
    "Ġpark": 1862,
    "Ġharr": 8469,
    "Ġbeantown": 24115,
    "sh": 632,
    "Ġdepressing": 3258,
    "Ġdefinatly": 16585,
    "Ġkayaking": 18811,
    "lfriend": 3326,
    "Ġchair": 4374,
    "Ġsite": 1563,
    "sto": 11416,
    "amo": 21392,
    "Ġdammit": 3595,
    "Ġrearr": 14464,
    "Ġspitting": 24535,
    "Ġcache": 15030,
    "Ġcupboard": 14560,
    "Ġesther": 22504,
    "half": 14527,
    "Ġscreamin": 26715,
    "Ġearrings": 10362,
    "Ġwow": 874,
    "Ġnominations": 23649,
    "Ġflashlight": 28246,
    "Ġbhi": 25997,
    "Ġnsfw": 26327,
    "Ġmandatory": 17736,
    "Ġdeclined": 21713,
    "yle": 2532,
    "Ġattemp": 5971,
    "win": 6117,
    "Ġstorms": 5357,
    "Ġtempo": 26726,
    "Ġtack": 9057,
    "nighter": 14405,
    "Ġsein": 20055,
    "Ġtony": 4626,
    "Ġcitrus": 27289,
    "hael": 3526,
    "Ġcack": 25180,
    "aaaaaaaaaaa": 23018,
    "such": 13211,
    "Ġbooking": 10694,
    "Ġspaz": 15329,
    "Ġwhattt": 26061,
    "Ġtiring": 6393,
    "gery": 3594,
    "Ġtorture": 7632,
    "Ġtorr": 22110,
    "Ġpromises": 12675,
    "inity": 23773,
    "mma": 4850,
    "Ġmistake": 4383,
    "Ġwhatsup": 29973,
    "beer": 13748,
    "Ġlethargic": 22318,
    "Ġclassmate": 17827,
    "Ġchor": 11816,
    "Ġjoan": 16116,
    "Ġboil": 12966,
    "»": 95,
    "sea": 4705,
    "Ġgodd": 11242,
    "Ġcells": 15093,
    "keeps": 22329,
    "Ġlawnmower": 25858,
    "Ġcpu": 13579,
    "Ġsugars": 20775,
    "Ġscur": 27036,
    "plurk": 16565,
    "vr": 12358,
    "Ġcharles": 11076,
    "Ġfunky": 8903,
    "iba": 16129,
    "Ġmake": 534,
    "Ġihop": 8820,
    "fig": 18206,
    "istic": 6121,
    "wooo": 27419,
    "cot": 7506,
    "anced": 9208,
    "Ġhap": 20684,
    "Ġmandy": 8309,
    "Ġstat": 3039,
    "disk": 29449,
    "Ġconsum": 16341,
    "nails": 18728,
    "Ġbelieved": 16012,
    "Ġcapp": 12673,
    "ahn": 29867,
    "Ġshowering": 12544,
    "ttr": 22203,
    "Ġconversion": 22507,
    "Ġtrack": 2929,
    "Ġaliens": 11627,
    "flickr": 25944,
    "Ġena": 10354,
    "Ġplayback": 29840,
    "Ġstruggling": 6763,
    "thinks": 26057,
    "asot": 7988,
    "Ġpaso": 19749,
    "Ġpreser": 22169,
    "Ġuntil": 975,
    "Ġindiana": 9558,
    "uz": 21604,
    "Ġsweep": 10437,
    "Ġclicks": 20335,
    "acious": 19691,
    "ieu": 26972,
    "Ġfeliz": 25898,
    "Ġhahahaha": 2292,
    "Ġwakeup": 18605,
    "Ġbrend": 15339,
    "uling": 14960,
    "Ġgiv": 10756,
    "Ġsharepoint": 18956,
    "Ġcertification": 28874,
    "Ġenlist": 22673,
    "cribing": 25362,
    "Ġdesi": 21945,
    "Ġboomer": 25412,
    "quite": 18236,
    "Ġcrumbs": 21454,
    "Ġtourists": 18664,
    "Ġscrubbing": 27802,
    "Ġwih": 28734,
    "Ġbooster": 23253,
    "Ġintolerant": 21327,
    "Ġthats": 986,
    "xxxxxxxx": 6005,
    "Ġawoke": 15489,
    "Ġcesar": 26913,
    "Ġolives": 19738,
    "Ġranch": 11395,
    "Ġthis": 271,
    "Ġtrains": 8220,
    "Ġstraight": 2565,
    "bows": 11213,
    "Ġintroduce": 11889,
    "wk": 7481,
    "Ġinterstate": 24916,
    "only": 5075,
    "Ġpremium": 13699,
    "!": 5,
    "Ġbalik": 20583,
    "Ġtokio": 13646,
    "future": 23122,
    "Ġausten": 27226,
    "ller": 19818,
    "Ġcels": 26912,
    "Ġjones": 6335,
    "Ġbummed": 2597,
    "our": 330,
    "Ġwives": 13524,
    "Ġwrang": 28631,
    "Ġlosses": 24666,
    "lj": 24422,
    "Ġrichard": 7978,
    "Ġdays": 627,
    "Ġcharley": 29291,
    "Ġbeleive": 14584,
    "Ġhae": 24108,
    "Ġwatson": 21411,
    "Ġgetin": 25223,
    "Â¯?": 18442,
    "Ġpunished": 20138,
    "Ġmonu": 25694,
    "Ġfit": 2401,
    "Ġlongggg": 19680,
    "joy": 758,
    "Ġcaved": 17830,
    "Ġjudgement": 18033,
    "Ġorig": 3173,
    "Ġassured": 27097,
    "eeeeeeeeeee": 14176,
    "Ġtuning": 17717,
    "?....": 12512,
    "Ġhod": 20904,
    "depress": 16223,
    "Ġhur": 693,
    "ippers": 12010,
    "ppie": 20247,
    "Ġnes": 13654,
    "Ġslow": 1649,
    "Ġpulled": 3944,
    "Ġlate": 835,
    "Ġemerson": 29902,
    "Ġmagnif": 17741,
    "Ġbusiest": 22438,
    "Ġtolerance": 22068,
    "Ġwakey": 14345,
    "Ġpei": 24554,
    "thorne": 25509,
    "Ġpushed": 8547,
    "mingham": 9421,
    "Ġsami": 20781,
    "Ġwill": 352,
    "Ġfb": 2904,
    "Ġdoze": 29734,
    "pressed": 20523,
    "hair": 14002,
    "Ġswam": 16917,
    "Ġgaff": 28210,
    "ffy": 12836,
    "Ġalway": 16110,
    "Ġyasmina": 14379,
    "Ġkristy": 29398,
    "Ġsophomore": 18200,
    "Ġappreciative": 28746,
    "Ġregion": 10621,
    "Ġobs": 3342,
    "Ġdri": 969,
    "Ġvolcano": 21272,
    "Ġimprovement": 12877,
    "Ġcommunity": 5454,
    "Ġscrews": 21499,
    "Ġbucks": 5534,
    "Ġomgpop": 29876,
    "Ġsig": 9100,
    "Ġshoutout": 7255,
    "iiing": 20291,
    "Ġnicer": 7568,
    "tune": 26406,
    "Ġroasted": 15186,
    "Ġtmr": 3438,
    "!...": 3327,
    "Ġvoicemails": 29317,
    "Ġfred": 6187,
    "Ġcalcul": 8649,
    "Ġfascinating": 13858,
    "lip": 21827,
    "Ġpowered": 18640,
    "uous": 19224,
    "opract": 16414,
    "omin": 28533,
    "Ġjoo": 29090,
    "Ġteen": 4950,
    "Ġblinding": 26747,
    "challenge": 28983,
    "Ġclumsy": 14674,
    "Ġporn": 6091,
    "fia": 10092,
    "Ġhyp": 17705,
    "Ġbear": 3836,
    "Ġz": 1110,
    "Ġsink": 7768,
    "Ġargos": 26283,
    "Ġpersuade": 21569,
    "Ġfix": 1461,
    "Ġcop": 2121,
    "Ġshuff": 25619,
    "Ġxxxxxxxxx": 21303,
    "Ġfuel": 10094,
    "Ġbarrow": 21471,
    "Ġosc": 10462,
    "Ġandi": 23479,
    "Ġwhack": 11161,
    "Ġpolls": 26768,
    "Ġaka": 5686,
    "Ġwud": 5802,
    "Ġmater": 6282,
    "Ġroot": 6612,
    "Ġaudit": 21749,
    "Ġblast": 2816,
    "Ġrounds": 13040,
    "Ġgag": 13526,
    "Ġoccur": 13054,
    "aÂªn": 18989,
    "Ġforeverrr": 29318,
    "Ġstraightening": 17326,
    "Ġmartinis": 25070,
    "Ġthro": 1824,
    "mington": 21250,
    "ativity": 9724,
    "Ġblogspot": 17219,
    "Ġincent": 21867,
    "health": 18189,
    "Ġchino": 26075,
    "Ġdispos": 16437,
    "Ġcoach": 5689,
    "Ġcrocker": 23053,
    "Ġdyeing": 23995,
    "Ġdar": 2949,
    "Ġ70": 4917,
    "Ġmatching": 14343,
    "selves": 4691,
    "Ġmonies": 13544,
    "stru": 16400,
    "Ġpedi": 10862,
    "uffs": 19094,
    "booting": 26734,
    "Ġmemories": 3810,
    "Ġsiesta": 24446,
    "pouts": 20209,
    "Ġlarge": 5051,
    "Ġreset": 8461,
    "Ġparam": 27621,
    "Ġrecipe": 6451,
    "esar": 17132,
    "Ġcravings": 17709,
    "Ġvelvet": 13124,
    "Ġwhining": 12766,
    "vd": 11298,
    "Ġshizzle": 22141,
    "Ġaces": 25328,
    "Ġfaw": 25662,
    "ometer": 17529,
    "Ġgrandson": 20109,
    "Ġsayang": 12603,
    "Ġstudies": 7304,
    ")-": 20869,
    "enough": 26517,
    "Ġwana": 5499,
    "Ġgalactica": 27370,
    "Ġoverpriced": 23535,
    "je": 4073,
    "3": 22,
    "Ġjobro": 23892,
    "Ġcompact": 28651,
    "Ġjustified": 28546,
    "Ġdaniels": 23082,
    "Ġleafl": 28634,
    "Ġpiper": 26315,
    "Ġvariety": 14270,
    "woods": 21995,
    "paste": 13001,
    "Ġkinds": 7137,
    "Ġaddressed": 25851,
    "Ġseated": 23843,
    "Ġouchh": 24636,
    "uk": 4137,
    "Ġbuggers": 20730,
    "Ġlastfm": 23850,
    "orette": 8683,
    "ada": 2539,
    "Ġwounds": 18697,
    "alling": 21154,
    "Ġswearing": 17708,
    "Ġmidget": 21719,
    "Ġgeee": 19434,
    "Ġgalleria": 22025,
    "Ġsix": 3519,
    "Ġfeline": 24885,
    "Ġdab": 17768,
    "Ġ1996": 27804,
    "Ġlength": 12636,
    "Ġmitche": 11083,
    "Ġsubmitting": 24019,
    "Ġisu": 29702,
    "Ġschooling": 23869,
    "then": 3722,
    "Ġwei": 27489,
    "Ġsynch": 23598,
    "Ġneverending": 23825,
    "Ġ06": 13110,
    "Ġlia": 20039,
    "employ": 7664,
    "Ġgrasshopper": 29410,
    "Ġsausage": 7535,
    "Ġtreadmill": 10185,
    "matic": 23755,
    "Ġcranberry": 16367,
    "rap": 15978,
    "Ġmmm": 1805,
    "Ġpfft": 11443,
    "Ġapolog": 4919,
    "Ġinspir": 4390,
    "Ġmyself": 989,
    "Ġhungary": 18446,
    "Ġbund": 13391,
    "Ġike": 6617,
    "greens": 18617,
    "Ġwoooot": 24697,
    "Ġpenguins": 8956,
    "Ġjoke": 3294,
    "coon": 26146,
    "Ġliii": 29728,
    "Ġbx": 19230,
    "fix": 11260,
    "Ġneighb": 2790,
    "Ġreeling": 29547,
    "Ġultrasound": 23109,
    "Ġdont": 650,
    "Ġherpes": 29182,
    "des": 4252,
    "Ġpolicy": 11326,
    "Ġcivil": 10746,
    "Ġtaipei": 23211,
    "verine": 27493,
    "Ġmag": 1688,
    "Ġbutters": 27503,
    "Ġhorrified": 24337,
    "Ġwinners": 9294,
    "Ġconcerns": 23971,
    "Ġsomewhat": 7156,
    "Ġatl": 2776,
    ")(": 19206,
    "Ġjackass": 21731,
    "Ġprostit": 22165,
    "Ġcoral": 24248,
    "Ġmeetings": 5420,
    "Ġtumor": 17306,
    "Ġserena": 17543,
    "Ġot": 4765,
    "Ġlisbon": 23699,
    "ited": 790,
    "Ġaccident": 3071,
    "Ġguinea": 13988,
    "Ġclut": 10510,
    "athon": 3371,
    "Ġbah": 4596,
    "Ġjackie": 8392,
    "ulting": 14790,
    "redo": 17039,
    "Ġspreadshe": 20134,
    "Ġhamstring": 27223,
    "Ġpaige": 12006,
    "Ġdash": 9565,
    "Ġcraw": 6760,
    "ammm": 27969,
    "eria": 9280,
    "Ġgummi": 27553,
    "Ġtelep": 28831,
    ")))": 11251,
    "Ġfile": 5319,
    "mps": 12308,
    "Ġtrimmed": 19395,
    "Ġbal": 3135,
    "Ġrhys": 26276,
    "Ġpoor": 1036,
    "Ġdestroytwitter": 24332,
    "Ġmicrosoft": 5758,
    "Ġsug": 1983,
    "ice": 376,
    "Ġikr": 11325,
    "Ġorgasm": 23405,
    "Ġmiraculous": 29608,
    "Ġtryouts": 21677,
    "Ġearache": 20073,
    "Ġamigos": 20854,
    "nighty": 25730,
    "pocalypse": 28166,
    "Ġsce": 3492,
    "Ġdist": 2333,
    "Ġanticip": 8841,
    "thon": 9266,
    "Ġcontinuously": 25088,
    "asp": 14691,
    "Ġcargo": 28635,
    "ilo": 17786,
    "Ġjays": 14461,
    "Ġnooooooooooooo": 23057,
    "ose": 2526,
    "Ġyeahhh": 8996,
    "Ġplzz": 20261,
    "Ġstephanie": 12570,
    "verts": 14537,
    "Ġignor": 10144,
    "Ġclaims": 16729,
    "Ġaerosmith": 23128,
    "password": 29483,
    "Ġalice": 7510,
    "Ġcursor": 26634,
    "Ġlaunch": 4617,
    "main": 17000,
    "Ġjou": 27960,
    "Ġrue": 19450,
    "Ġmayn": 29203,
    "Ġloop": 6592,
    "Ġbros": 7037,
    "Ġgroom": 14160,
    "Ġkaya": 13841,
    "Ġtogether": 1648,
    "Ġlahat": 22441,
    "Ġcine": 4354,
    "Ġrover": 25284,
    "Ġedwin": 29933,
    "ÂĨ": 6055,
    "Ġvaguely": 22303,
    "Ġcurt": 10992,
    "ished": 998,
    "Ġsavvy": 20150,
    "amar": 22372,
    "Ġcaus": 23903,
    "dying": 27880,
    "Ġcontain": 10443,
    "Ġsentiment": 13769,
    "Ġmj": 10297,
    "Ġteeth": 2946,
    "encies": 21164,
    ":]": 22851,
    "Ġfantastic": 2506,
    "larious": 28885,
    "Ġgracious": 17305,
    "Ġare": 285,
    "Ġkod": 15318,
    "Ġcataly": 25300,
    "mesis": 24318,
    "Ġartistic": 18986,
    "Ġpod": 4101,
    "Ġverdict": 17749,
    "Ġpaintings": 17210,
    ".": 17,
    "icial": 9552,
    "Ġhoppus": 28506,
    "..(": 19232,
    "[[": 28437,
    "Ġoxy": 14689,
    "Ġnico": 6046,
    "Ġdelivery": 6001,
    "Ġuncom": 22954,
    "Ġfrapp": 12709,
    "borough": 14660,
    "Ġhands": 2754,
    "Ġcarn": 8315,
    "Ġskit": 17684,
    "Ġcrock": 21030,
    "Ġbil": 13185,
    "dances": 26869,
    "66": 9599,
    "Ġlicence": 16156,
    "olulu": 25683,
    "foot": 9663,
    "Ġhafta": 13918,
    "Ġtel": 9081,
    "Ġlivestream": 25717,
    "Ġbartender": 19192,
    "Ġenglish": 1819,
    "Ġkobe": 6060,
    "Ġsporting": 16791,
    "81": 26857,
    "Ġbastards": 11085,
    "Ġnaaah": 28497,
    "sebumps": 18638,
    "Ġmonday": 991,
    "idal": 22369,
    "ises": 3789,
    "Ġahahahah": 21015,
    "Ġvast": 17790,
    "Ġfurn": 6975,
    "Ġtwitteriffic": 20270,
    "Ġinnocence": 26770,
    "Ġrobbie": 16432,
    "zzzzzz": 19535,
    "Ġwens": 25596,
    "Ġthieves": 24751,
    "Ġconan": 3982,
    "Ġind": 1281,
    "Ġsher": 6373,
    "months": 14813,
    "%!": 18856,
    "vail": 11049,
    "Ġbonjour": 15434,
    "Ġginger": 7151,
    "Ġcocaine": 24755,
    "Ġplaylists": 19759,
    "Ġgas": 3631,
    "Ġfob": 11683,
    "ustin": 28534,
    "Ġawh": 2922,
    "Ġgravy": 13760,
    "minded": 21772,
    "Ġspeaker": 10405,
    "Ġner": 2048,
    "Ġcheckers": 25718,
    "Ġcad": 9487,
    "vic": 14443,
    "esday": 1369,
    "Ġpsycho": 7605,
    "Ġuggghhh": 28316,
    "Ġlistenin": 7003,
    "Ġdaaaa": 24801,
    "Ġkut": 16781,
    "life": 4120,
    "Ġgears": 12617,
    "Ġtop": 1383,
    "Ġbests": 28072,
    "Ġheeeeey": 28954,
    "Ġjul": 3790,
    "press": 1274,
    "Ġgurl": 7340,
    "em": 1533,
    "Ġplea": 22424,
    "Ġuncool": 15689,
    "Ġhurted": 26583,
    "orange": 26446,
    "loaded": 21949,
    "Ġprov": 16113,
    "Ġparas": 24222,
    "wel": 5840,
    "Ġcbs": 18880,
    "mil": 9665,
    "Ġsecs": 15074,
    "Ġjuz": 11875,
    "Ġderek": 11628,
    "Ġglitter": 13753,
    "Ġelderly": 18659,
    "heavy": 25173,
    "Ġsignings": 23976,
    "Ġuugh": 23181,
    "Ġfireworks": 8856,
    "Ġsaf": 4979,
    "Ġgraduate": 5245,
    "iou": 19802,
    "Ġlimp": 10164,
    "graph": 14183,
    "Ġliberty": 15947,
    "Ġatkins": 29736,
    "lv": 12891,
    "Ġsickening": 26579,
    "othy": 16708,
    "Ġgardens": 8998,
    "Ġcompete": 14718,
    ";_&": 8431,
    "Ġreplacement": 8028,
    "Ġprocrastinator": 23349,
    "Ġasia": 8660,
    "Ġyaw": 16440,
    "Ġhumph": 17578,
    "Ġsquirrels": 17356,
    "pawty": 29545,
    "Ġyogurtland": 23679,
    "Ġfreebies": 15414,
    "iful": 1002,
    "110": 26373,
    "Ġbel": 2661,
    "Ġwifes": 25394,
    "Ġdirt": 9031,
    "oga": 19111,
    "Ġsuperbad": 22453,
    "Ġhubby": 2312,
    "Ġurgent": 12911,
    "year": 7314,
    "Ġhuge": 2049,
    "Ġprincess": 4686,
    "tire": 8191,
    "Ġpong": 9568,
    "Ġdefro": 27092,
    "Ġtelephone": 19949,
    "Ġsore": 1609,
    "Ġlou": 3811,
    "daily": 25819,
    "leys": 13937,
    "Ġwheather": 29137,
    "Ġcruise": 5094,
    "Ġwishes": 2369,
    "Ġnecklaces": 25065,
    "Ġburns": 9020,
    "Ġdetergent": 28866,
    "Ġslack": 6791,
    "Ġdrinking": 1974,
    "Ġhdtv": 25037,
    "Ġlameee": 28842,
    "Ġaku": 10285,
    "Ġdowner": 13823,
    "Ġhyster": 12230,
    "beck": 29185,
    "Ġbuddha": 22813,
    "Ġnoodles": 6127,
    "Ġspendin": 21228,
    "fact": 12398,
    "Ġharris": 12748,
    "Ġcroche": 26254,
    "Ġsaints": 16391,
    "Ġdaniel": 6746,
    "Ġsubmission": 16829,
    "Ġmyr": 16531,
    "Ġsuprise": 10969,
    "Ġfemin": 18127,
    "Ġnicee": 17600,
    "Ġmep": 23807,
    "ndry": 29062,
    "Ġlooooooong": 27321,
    "Ġtired": 681,
    "Ġkell": 8803,
    "Ġhookah": 12928,
    "!.": 5901,
    "Ġcertified": 19770,
    "Ġreflux": 26853,
    "Ġlatt": 23784,
    "Ġsoon": 643,
    "Ġdownpour": 18577,
    "kings": 15684,
    "Ġmass": 2241,
    "Ġsmartest": 26227,
    "ssssssssssssssss": 15740,
    "Ġmaddy": 19109,
    "ishi": 23839,
    "ely": 26870,
    "Ġvaluable": 16960,
    "Ġlolx": 29135,
    "coll": 12574,
    "Ġskinned": 23634,
    "Ġcookin": 14495,
    "noooo": 26881,
    "ville": 2690,
    "Ġexploding": 22019,
    "Ġ:::": 26107,
    "Ġkendall": 29498,
    "Ġreju": 25594,
    "Ġrapids": 22779,
    "Ġtheore": 24097,
    "Ġpirates": 11255,
    "lences": 9300,
    "Ġsasha": 13075,
    "Ġadams": 12341,
    "rit": 13792,
    "Ġdirection": 8503,
    "ops": 3807,
    "Ġoutstanding": 14786,
    "Ġannouncing": 18034,
    "layer": 18652,
    "Ġnotion": 26046,
    "Ġserendip": 22578,
    "Ġdicks": 19752,
    "Ġtmw": 11782,
    "Ġgrrrrrrrrrrrr": 23964,
    "Ġcleav": 28661,
    "Ġclas": 22171,
    "Ġsurvival": 17331,
    "Ġopposed": 19553,
    "Ġvow": 21895,
    "Ġsurfer": 24932,
    "Ġcatherine": 14940,
    "Ġrena": 15482,
    "cially": 1955,
    "Ġyummm": 10732,
    "Ġunif": 8731,
    "cape": 16381,
    "ymaster": 6921,
    "Ġspoiler": 15188,
    "Ġlindsey": 15187,
    "ees": 3805,
    "Ġdried": 12054,
    "Ġmarve": 19882,
    "Ġnipples": 24742,
    "Ġbelg": 8195,
    "Ġnegle": 6670,
    "ians": 3473,
    "Ġrefriger": 19609,
    "ips": 2673,
    "nooo": 25977,
    "Ġbagel": 8543,
    "Ġnb": 19437,
    "alm": 29730,
    "Ġperfume": 11743,
    "Ġhairsty": 29685,
    "Ġelliott": 22296,
    "Ġfuuuun": 29548,
    "Ġtil": 1576,
    "Ġsurger": 26156,
    "Ġdoor": 2630,
    "Ġwp": 8843,
    "Ġako": 7042,
    "kkin": 18450,
    "Ġcond": 4820,
    "some": 2458,
    "ilda": 22709,
    "Ġlah": 8702,
    "kie": 12138,
    "Ġclay": 10436,
    "itech": 27008,
    "related": 11475,
    "Ġprima": 23934,
    "Ġcoasters": 18486,
    "money": 14677,
    "Ġmmvas": 22011,
    "Ġstopping": 7275,
    "))": 3129,
    "Ġrays": 9791,
    "Ġreview": 2836,
    "Ġrufus": 24255,
    "jn": 20416,
    "Ġelephant": 11612,
    "Ġfn": 13930,
    "Ġstea": 21146,
    "Ġgreener": 24627,
    "Ġoz": 6465,
    "ay": 164,
    "Ġclogged": 21947,
    "Ġballoons": 13212,
    "Ġanthony": 9094,
    "Ġtwiter": 14219,
    "Ġspirits": 12500,
    "Ġtheo": 22616,
    "Ġthailand": 10939,
    "Ġfavourites": 13696,
    "bre": 3401,
    "Ġmore": 437,
    "Ġreceiving": 11557,
    "Ġseptember": 5238,
    "issy": 6645,
    "Ġburied": 14642,
    "Ġnewsroom": 28688,
    "ubs": 9075,
    "Ġadorable": 3429,
    "assing": 11673,
    "Ġclou": 2998,
    "Ġpicky": 14636,
    "enna": 22144,
    "Ġshiiit": 29117,
    "Ġcaval": 16935,
    "Ġeatin": 6638,
    "mpt": 2993,
    "craft": 8837,
    "Ġvalencia": 20626,
    "raid": 3056,
    "Ġskittles": 12330,
    "Ġeur": 2588,
    "Ġbella": 6166,
    "oof": 4746,
    "Ġtf": 10973,
    "Ġstale": 18092,
    "Ġgeog": 21472,
    "Ġpw": 9007,
    "osp": 2038,
    "Ġshit": 1085,
    "Ġdiscip": 16706,
    "Ġlush": 8305,
    "uese": 11895,
    "Ġdamit": 21443,
    "bux": 18801,
    "0": 19,
    "hoe": 13332,
    "maxout": 29520,
    "Ġrequested": 11883,
    "Ġlobster": 8365,
    "Ġgenerations": 29362,
    "Ġsuggesting": 19725,
    "Ġhanging": 2090,
    "wolverine": 28941,
    "Ġabd": 21892,
    "aco": 18762,
    "Ġlmbo": 23960,
    "Ġaspire": 23085,
    "Ġhk": 9335,
    "Ġwtk": 29458,
    "Ġkitt": 5065,
    "Ġpatiently": 11824,
    "Ġross": 7002,
    "Ġmovin": 11107,
    "Ġstranger": 8397,
    "Ġwerewolf": 22180,
    "Ġgarden": 2104,
    "Ġmach": 3108,
    "Ġwna": 17127,
    "hook": 26877,
    "Ġsimps": 8855,
    "Ġslapped": 22389,
    "ood": 243,
    "Ġpuh": 21969,
    "era": 1903,
    "Ġembarrasing": 27765,
    "writing": 9837,
    "Ġpike": 23171,
    "Ġmadly": 19316,
    "Ġmanages": 28039,
    "Ġhomeward": 26540,
    "Ġrican": 26492,
    "Ġconfusing": 5426,
    "Ġscul": 19083,
    "Ġriver": 4397,
    "Ġpiece": 3554,
    "²": 86,
    "Ġtots": 20678,
    "...&": 4152,
    "Ġstrang": 5896,
    "Ġitems": 6882,
    "ven": 1898,
    "Ġcrosses": 28759,
    "Ġfeck": 16562,
    "cat": 5408,
    "Ġumbrella": 7233,
    "Ġtres": 14982,
    "Ġfuneral": 5369,
    "Ġmacchi": 28706,
    "Ġslows": 22474,
    "Ġfianca": 20677,
    "itarian": 29995,
    "Ġshe": 468,
    "Ġrecovery": 7425,
    "kkkk": 4694,
    "Ġmovie": 798,
    "Ġcaroline": 14052,
    "Ġlolz": 5389,
    "Ġcors": 17514,
    "Ġadv": 3627,
    "Ġbookshelf": 23942,
    "Ġcynthia": 23421,
    "Ġrandom": 2233,
    "ension": 12545,
    "Ġcooo": 25559,
    "Ġmiddle": 2919,
    "Ġwhatever": 2510,
    "Ġshhhh": 17404,
    "Ġharvest": 15997,
    "Ġlv": 4535,
    "Ġclot": 2209,
    "Ġnonetheless": 12306,
    "Ġbabygirl": 15697,
    "Ġalbeit": 22148,
    "Ġmarys": 27067,
    "Ġloved": 1495,
    "Ġshowcase": 14878,
    "Ġmoi": 11228,
    "Ġsunburnt": 5601,
    "Ġomgomgomg": 22691,
    "nch": 2140,
    "Ġtrials": 22966,
    "quay": 23821,
    "lovin": 22933,
    "Ġital": 4866,
    "Ġagreement": 19121,
    "Ġpurple": 4580,
    "Ġtaxi": 8223,
    "hay": 11852,
    "omgomg": 15737,
    "Ġyayy": 6140,
    "Ġpushing": 6013,
    "aby": 12354,
    "Ġawwwe": 27088,
    "Ġrumble": 22524,
    "Ġproblemo": 19517,
    "Ġtipping": 22650,
    "ldo": 11374,
    "Ġgathered": 26909,
    "Ġ09": 6038,
    "Ġrecord": 1982,
    "Ġargent": 6249,
    "Ġarrow": 17289,
    "Ġdrawings": 16841,
    "Ġbarker": 27124,
    "Ġbases": 23611,
    "iti": 6629,
    "Ġnightttt": 29776,
    "bah": 21818,
    "umph": 18416,
    "Ġsmelly": 11157,
    "Ġseating": 21177,
    "Ġconsidering": 4814,
    "rp": 21113,
    "Ġreasons": 5435,
    "Ġly": 2592,
    "Ġparag": 14630,
    "robotpickuplines": 24752,
    "Ġactors": 12368,
    "Ġfuckkkk": 28656,
    "Ġmicrowave": 9838,
    "Ġnopes": 28362,
    "itsu": 21958,
    "Ġbirt": 29872,
    "Ġlegend": 6523,
    "Ġpha": 6208,
    "Ġbigtime": 20506,
    "ed": 181,
    "Ġort": 28587,
    "jay": 11533,
    "Ġgump": 21180,
    "Ġscreenshots": 23303,
    "Ġning": 16525,
    "Ġnecessary": 8633,
    "Ġltr": 26917,
    "Ġrid": 1810,
    "Ġfighting": 4248,
    "Ġepically": 22710,
    "cer": 2136,
    "timore": 11088,
    "Ġteams": 8555,
    "Ġclimb": 6433,
    "eeeeeeeeeeeeeeeeeeeeeeeeeeeeeeee": 25884,
    "Ġdowns": 13097,
    "Ġshes": 3123,
    "Ġgreets": 19272,
    "Ġtoler": 13003,
    "Ġdangerous": 7609,
    "eur": 10292,
    "Ġblouse": 28040,
    "Ġsalvador": 21088,
    "Ġcashback": 22003,
    "club": 8560,
    "peg": 26586,
    "Ġpoint": 1892,
    "Ġpicture": 1096,
    "fam": 6788,
    "Ġcoo": 3516,
    "Ġoauth": 29074,
    "Ġbrody": 18434,
    "Ġfoul": 14774,
    "yummy": 14430,
    "gone": 19023,
    "Ġsaus": 5895,
    "Ġistan": 20622,
    "Ġamateur": 20713,
    "Ġhond": 11449,
    "burger": 10251,
    "sed": 4960,
    "Ġsentences": 19328,
    "learn": 16772,
    "Ġcubs": 9064,
    "Ġwent": 780,
    "Ġexhausted": 2686,
    "Ġdebt": 12658,
    "Ġdiscon": 7190,
    "Ġpushes": 29680,
    "Ġculture": 9053,
    "Ġdaz": 18222,
    "foo": 26873,
    "Ġobsess": 4669,
    "Ġissue": 3839,
    "Ġmerced": 19728,
    "Ġpts": 15879,
    "Ġrestrain": 26618,
    "Ġdesktop": 5269,
    "Ġmakeup": 5078,
    "nea": 14856,
    "Ġswa": 14879,
    "Ġtits": 14299,
    "Ġhowling": 25655,
    "Ġbugging": 13750,
    "Ġmustang": 19888,
    "Ġcease": 23251,
    "Ġgm": 5473,
    "Ġyoou": 14563,
    "Ġplays": 5916,
    "vn": 22099,
    "Ġcara": 13317,
    "Ġgoodnite": 7856,
    "3333": 4025,
    "Ġmonk": 18751,
    "hin": 4184,
    "Ġinvitations": 18951,
    "Ġrun": 903,
    "Ġwings": 4160,
    "Ġinfested": 24396,
    "ggling": 19484,
    "aye": 27455,
    "Ġalive": 3448,
    "Ġfirewire": 28164,
    "one": 260,
    "wave": 8012,
    "oooooooooooo": 10731,
    "boi": 29938,
    "Ġcontrols": 15956,
    "Ġignorance": 15856,
    "dannygokeyislove": 28433,
    "Ġoverdo": 20488,
    "Ġmillionth": 27718,
    "Ġ1000": 5043,
    "jamas": 11086,
    "Ġcog": 29796,
    "Ġrehears": 4658,
    "Ġcontinue": 4525,
    "Ġmileycyrus": 25347,
    "Ġpreaching": 22410,
    "pol": 9485,
    "Ġpolo": 12909,
    "speak": 19096,
    "nasty": 21347,
    "Ġsista": 12789,
    "wednesday": 16258,
    "Ġmma": 21614,
    "Ġcomfortable": 7718,
    "Ġgals": 11054,
    "Ġadmiring": 23675,
    "Ġdogs": 2782,
    ":&": 14438,
    "Ġrational": 29102,
    "Ġdmb": 11034,
    "Ġjohan": 27032,
    "Ġchops": 16910,
    "itus": 20444,
    "Ġemails": 4037,
    "stit": 9283,
    "Ġtyres": 22220,
    "Ġsoror": 21431,
    "Ġfinish": 1449,
    "mys": 5441,
    "Ġlived": 3910,
    "arg": 20229,
    "Ġfamily": 1090,
    "Ġwasp": 20461,
    "fied": 5663,
    "Ġdurin": 28307,
    "dh": 16513,
    "ittin": 4246,
    "arly": 12902,
    "Ġconflict": 16508,
    "Ġcases": 9454,
    "brit": 14169,
    "Ġcontinu": 9453,
    "Ġyeeeeee": 26923,
    "uff": 785,
    "Ġck": 13243,
    "um": 456,
    "Ġforbidden": 20187,
    "ject": 1536,
    "Ġfriendships": 25881,
    "Ġfoe": 24263,
    "Ġdrun": 7247,
    "Ġloveeeee": 19727,
    "Ġpsy": 3998,
    "Ġdiana": 12721,
    "berto": 26108,
    "Ġprices": 6709,
    "Ġtm": 2675,
    "ween": 2527,
    "Ġchiropractor": 18679,
    "Ġlads": 14417,
    "Ġconnects": 28231,
    "Ġillustration": 27351,
    "Ġclassical": 16579,
    "Ġheading": 1597,
    "xxxxx": 23019,
    "Ġenergy": 3314,
    "ggy": 3558,
    ",,,": 6714,
    "Ġcous": 2036,
    "quil": 11181,
    "Ġarts": 8919,
    "ttttttt": 22258,
    "Ġcmt": 12085,
    "Ġvar": 6338,
    "Ġsubscribe": 10179,
    "Ġalbums": 7714,
    "sss": 2839,
    "Ġ*.*": 24571,
    "Ġcomput": 1302,
    "Ġ77": 16449,
    "Ġbothering": 9618,
    "Ġsunbur": 5527,
    "Ġreynold": 19003,
    "Ġfucc": 25359,
    "glad": 10859,
    "Ġdailybooth": 20344,
    "Ġdoubt": 2908,
    "otalia": 26458,
    "Ġanything": 1060,
    "Ġsteady": 14981,
    "Ġpub": 2236,
    "Ġshows": 2138,
    "Ġeverr": 19881,
    "fur": 20413,
    "Ġcollar": 13327,
    "Ġaha": 2936,
    "Ġdecades": 24940,
    "itz": 6923,
    "Ġcla": 5015,
    "Ġroadtrip": 12285,
    "asm": 6775,
    "cine": 22325,
    "takeover": 19377,
    "Ġaftermath": 22417,
    "Ġguten": 17080,
    "..!": 4643,
    "meaning": 29693,
    "Ġsheriff": 29439,
    "Ġhmmm": 2417,
    "Ġfoxes": 25411,
    "Ġbooooooooo": 26429,
    "Ġyoull": 12256,
    "Ġawwwwwwwww": 26303,
    "Ġestonia": 22844,
    "iem": 19057,
    "Ġdjoko": 22846,
    "agle": 20285,
    "sit": 2105,
    "Ġmah": 5222,
    "Ġsucks": 888,
    "Ġjoh": 2283,
    "Ġpres": 5980,
    "zema": 24632,
    "tp": 26886,
    "Ġchilis": 21322,
    "Ġpleeease": 20404,
    "Ġpom": 12086,
    "Ġiran": 4083,
    "mine": 9931,
    "Ġsab": 15590,
    "Ġmd": 8467,
    "Ġalec": 23065,
    "Ġcricket": 6163,
    "amb": 3456,
    "profile": 24388,
    "heal": 9309,
    "Ġangry": 3842,
    "Ġportugal": 11566,
    "Ġmustard": 15241,
    "Ġfah": 29161,
    "Ġpremature": 19743,
    "Ġdile": 13593,
    "tony": 22719,
    "Ġtsk": 8048,
    "Ġsmoothie": 8246,
    "Ġpicking": 4409,
    "Ġfocus": 4839,
    "Ġnets": 24102,
    "Ġpanera": 11000,
    "disney": 23358,
    "omy": 4438,
    "iiiit": 21759,
    "Ġrach": 12042,
    "Ġfroyo": 23194,
    "Ġshocking": 8971,
    "Ġdesigner": 8423,
    "Ġtemplates": 26802,
    "Ġmushroom": 14194,
    "Ġdecember": 7217,
    "hopper": 23643,
    "Ġnightt": 16909,
    "lights": 16475,
    "iliar": 7389,
    "ben": 13925,
    "Ġescap": 10963,
    "Ġratings": 21325,
    "Ġtard": 13446,
    "Ġcongradulations": 28955,
    "Ġprotective": 21046,
    "qq": 11297,
    "Ġboiler": 25913,
    "Ġlaura": 6213,
    "Ġoldest": 9467,
    "neys": 11715,
    "seen": 23142,
    "Ġhelloo": 19497,
    "Ġfocusing": 18043,
    "Ġorbit": 27550,
    "Ġcera": 20020,
    "Ġcosmic": 26193,
    "Ġbreaths": 21769,
    "inelli": 12840,
    "ch": 209,
    "Ġwasup": 29739,
    "enne": 23504,
    "Ġmoree": 22671,
    "Ġcontest": 3802,
    "Ġthrown": 8593,
    "jonaskevin": 23064,
    "Ġfook": 24452,
    "Ġlearned": 3904,
    "eem": 9996,
    "Ġcorrupt": 16942,
    "Ġchange": 1494,
    "Ġyounger": 6482,
    "Ġhasnt": 6438,
    "Ġdining": 11595,
    "Ġyao": 18590,
    "Ġtweaks": 27519,
    "Ġwahe": 29147,
    "Ġslider": 28011,
    "Ġruth": 12464,
    "Ġkara": 6687,
    "Ġcalling": 2935,
    "shame": 14568,
    "Ġinsp": 2720,
    "touch": 15205,
    "Ġheard": 1419,
    "Ġlinda": 12023,
    "Ġmine": 1175,
    ";---": 9536,
    "cc": 732,
    "Ġfloss": 16597,
    "Ġmaximum": 18052,
    "an": 171,
    "Ġthames": 27957,
    "Ġlibs": 26039,
    "Ġcollab": 11517,
    "Ġmiddlesbrough": 26352,
    "Ġbaw": 11626,
    "Ġcontests": 19357,
    "Ġlonesome": 12293,
    "Ġtesters": 27108,
    "fac": 11849,
    "Ġorientation": 9871,
    "Ġreckons": 29442,
    "Ġvanilla": 7337,
    "Ġhollow": 20227,
    "hal": 10299,
    "Ġmorgen": 15989,
    "Ġhalls": 18016,
    "Ġchampagne": 9219,
    "Ġbffs": 12798,
    "Ġwatermel": 10733,
    "Ġcandid": 13838,
    "Ġeverday": 29232,
    "________": 13576,
    "Ġouter": 18905,
    "Ġevenings": 14644,
    "Ġtescos": 24716,
    "Ġwolframalpha": 27327,
    "unfortun": 12833,
    "Ġidentical": 25080,
    "Ġidols": 17211,
    "peace": 13350,
    "ilight": 2252,
    "Ġmtb": 20815,
    "wie": 16088,
    "Ġsang": 5618,
    "Ġ115": 27135,
    "Ġchip": 4326,
    "agascar": 23734,
    "Ġlvl": 16250,
    "Ġassemb": 11091,
    "shot": 9320,
    "Ġdrat": 17810,
    "Ġben": 3073,
    "eenth": 23791,
    "Ġmold": 15788,
    "Ġvocab": 12936,
    "tea": 11534,
    "cars": 21822,
    "Ġrob": 2353,
    "mets": 21135,
    "Ġtees": 16339,
    "jessica": 27347,
    "Ġeg": 12761,
    "Ġdolph": 18556,
    "Ġrumour": 18324,
    "Ġaffiliate": 16987,
    "Ġhuu": 21441,
    "Ġeeep": 20612,
    "Ġinfl": 12038,
    "weaver": 28401,
    "zzz": 4946,
    "Ġlasting": 23213,
    "teacher": 26800,
    "Ġtypo": 10697,
    "php": 12217,
    "Ġseed": 12834,
    "Ġboos": 20750,
    "Ġfcuk": 23110,
    "ina": 1701,
    "jealous": 18813,
    "Ġblackberrys": 29353,
    "Ġchrys": 26547,
    "Ġtherm": 22800,
    "ially": 10121,
    "Ġdit": 8013,
    "Ġcharac": 3362,
    "Ġmmmmmmmm": 25867,
    "Ġkillin": 8969,
    "Ġcydia": 21011,
    "Ġpurr": 22732,
    "Ġrsi": 28318,
    "Ġwhitney": 15190,
    "Ġtess": 17505,
    "Ġways": 4584,
    "Ġkeyboard": 4716,
    "Ġminus": 6855,
    "barakatday": 24657,
    "oscope": 16919,
    "Ġmsg": 5363,
    "Ġseventh": 25912,
    "Ġlists": 11238,
    "Ġyam": 16886,
    "Ġdogg": 22137,
    "Ġxml": 18570,
    "Ġphoneless": 21197,
    "Ġexp": 3063,
    "Ġsmdh": 29875,
    "Ġpluto": 29767,
    "Ġdebating": 9898,
    "happiness": 23401,
    "Ġinjection": 15884,
    "Ġcube": 12422,
    "Ġae": 14205,
    "Ġspas": 23207,
    "Ġbahah": 18906,
    "Ġpep": 14225,
    "Ġpoisoning": 9327,
    "Ġwll": 27433,
    "Ġrevision": 2540,
    "Ġcurls": 14892,
    "Ġsaad": 22929,
    "Ġmonkey": 5665,
    "Ġinteresting": 1830,
    "Ġincre": 6506,
    "Ġkindergarten": 15560,
    "Ġvenue": 8008,
    "Ġthemes": 11926,
    "Ġbackgrounds": 18007,
    "Ġlens": 6731,
    "Ġjsem": 28523,
    "Ġknife": 10799,
    "ateg": 8941,
    "pal": 6702,
    "cals": 27394,
    "Ġxoxoxox": 20361,
    "Ġinjured": 8179,
    "'ve": 525,
    "worthy": 17053,
    "oshi": 17677,
    "itan": 15882,
    "Ġblackout": 14637,
    "Ġantibiotics": 10415,
    "stret": 29065,
    "Ġmen": 2479,
    "Ġsometing": 28560,
    "Ġchattin": 20544,
    "din": 5948,
    "Ġnoches": 21165,
    "Ġathletic": 25916,
    "colate": 17574,
    "Ġbeings": 29224,
    "Ġurls": 15907,
    "Ġyar": 18388,
    "Ġoakland": 17240,
    "aka": 7591,
    "Ġreplace": 4600,
    "Ġpou": 24805,
    "Ġ135": 27704,
    "Ġirl": 11725,
    "Ġgut": 2467,
    "Ġwelcome": 1123,
    "eeed": 15881,
    "Ġahmad": 21953,
    "tford": 18789,
    "Ġpacks": 14811,
    "ste": 4245,
    "Ġsike": 22606,
    "igan": 5953,
    "Ġchar": 1474,
    "Ġbeaten": 12114,
    "Ġpple": 18540,
    "Ġselection": 12233,
    "Ġexten": 8289,
    "Ġergh": 15248,
    "Ġbuuu": 29845,
    "Ġbronch": 13848,
    "Ġrealise": 6059,
    "Ġsnore": 18149,
    "Ġsheldon": 27016,
    "Ġ32": 6935,
    "hl": 18064,
    "Ġconnor": 11995,
    "Ġsenior": 5055,
    "Ġwealth": 22078,
    "fk": 11659,
    "Ġpotentially": 18830,
    "Ġbackkkk": 27999,
    "Ġjuke": 24611,
    "Ġtwib": 19840,
    "Ġsummit": 10533,
    "Ġwiscons": 12861,
    "Ġstinks": 6234,
    "Ġmotogp": 23003,
    "faced": 20005,
    "Ġreleases": 14905,
    "Ġjeans": 4567,
    "Ġrerun": 17400,
    "pour": 16179,
    "Ġending": 3626,
    "eeey": 12485,
    "moon": 9062,
    "Ġrepresent": 10031,
    "Ġdaddy": 2748,
    "Ġmarvell": 24054,
    "Ġmov": 1645,
    "Ġdavids": 18796,
    "Ġdisapp": 1764,
    "Ġtrad": 7512,
    "Ġaiight": 25869,
    "Ġkiss": 2390,
    "Ġterminator": 4791,
    "Ġbas": 1961,
    "Ġgirls": 1376,
    "Ġdecisions": 7700,
    "Ġallowance": 19138,
    "Ġphant": 14836,
    "Ġyesssss": 12735,
    "Ġgw": 6316,
    "Ġorganise": 18810,
    "Ġnba": 6513,
    "ascript": 15039,
    "Ġwahh": 15675,
    "Ġtenner": 24978,
    "Ġrotterdam": 21524,
    "Ġbootc": 16221,
    "iot": 3434,
    "Ġjesus": 4183,
    "Ġbrains": 10738,
    "Ġenvious": 11424,
    "Ġdivid": 24893,
    "nets": 26397,
    "Ġcomin": 5071,
    "owed": 26936,
    "Ġlomo": 25214,
    "notc": 18284,
    "usted": 2187,
    "Ġcuz": 1403,
    "Ġheated": 17657,
    "fying": 8267,
    "Ġleather": 8756,
    "Ġpenthouse": 25906,
    "tles": 6837,
    "Ġno": 284,
    "Ġkanye": 13287,
    "Ġeverythin": 18741,
    "jac": 23752,
    "Ġoha": 29073,
    "Ġenlightening": 28376,
    "Ġtreats": 10240,
    "du": 1664,
    "ms": 748,
    "Ġenchant": 20942,
    "Ġgraduates": 12376,
    "Ġelite": 16683,
    "ego": 27396,
    "Ġdadd": 13889,
    "Ġvain": 17278,
    "Ġmilan": 13269,
    "jj": 11894,
    "Ġvacation": 2107,
    "ileys": 24553,
    "daay": 27705,
    "Ġnadine": 24696,
    "show": 6918,
    "som": 16087,
    "Ġdem": 1888,
    "Ġrocky": 9016,
    "Ġtechniques": 21084,
    "Ġonnn": 27473,
    "Ġlovies": 28785,
    "Ġpred": 5529,
    "Ġchace": 28050,
    "Ġdiscomfort": 29868,
    "sta": 8893,
    "ertation": 13887,
    "Ġwannabe": 23878,
    "short": 10615,
    "Ġzones": 15611,
    "Ġtattooed": 22768,
    "Ġkeep": 740,
    "chard": 19326,
    "Ġbirds": 4283,
    "Ġmonths": 1756,
    "ky": 2499,
    "Ġperformances": 14353,
    "arning": 17926,
    "Ġtaj": 29799,
    "Ġdiabet": 12067,
    "Ġironic": 12800,
    "Ġminions": 24206,
    "Ġpounds": 6306,
    "Ġmegan": 6246,
    "zip": 23144,
    "chool": 21145,
    "Ġforehead": 12110,
    "Ġent": 1443,
    "lson": 14812,
    "fffff": 22017,
    "Ġhangs": 16006,
    "Ġarms": 4228,
    "Ġwarrior": 15857,
    "Ġsandals": 10779,
    "test": 5833,
    "Ġbabyy": 15696,
    "Ġpopp": 13729,
    "lyn": 5273,
    "cribed": 20569,
    "Ġnowwwww": 25620,
    "Ġwitches": 26969,
    "kak": 28451,
    "Ġdevast": 8627,
    "Ġdw": 5608,
    "junk": 27406,
    "!?!?!": 11293,
    "Ġfairytale": 19771,
    "Ġtops": 9228,
    "aming": 4420,
    "Ġfinger": 3417,
    "Ġentered": 10327,
    "Ġbew": 29707,
    "Ġcigarettes": 12882,
    "Ġecle": 28510,
    "Ġtiming": 6563,
    "Ġbush": 9063,
    "Ġassure": 20520,
    "Ġawakened": 23908,
    "Ġscrewdriver": 25000,
    "Ġhe": 201,
    "should": 7513,
    "Ġdunt": 25182,
    "wish": 4013,
    "Ġbouta": 20989,
    "Ġtorn": 5526,
    "Ġyer": 5586,
    "Ġcaution": 27102,
    "Ġhallelu": 17209,
    "hara": 29040,
    "ino": 2997,
    "ko": 3557,
    "Ġsacri": 11377,
    "Ġgaming": 8099,
    "Ġmoviee": 21727,
    "Ġtuner": 28818,
    "Ġofficia": 19269,
    "Ġdamnnnn": 26601,
    "Ġseldom": 25251,
    "Ġvamos": 29762,
    "Ġ76": 19505,
    "Ġmlb": 19035,
    "Ġloll": 6562,
    "wat": 4071,
    "Ġamong": 7689,
    "Ġretriever": 26324,
    "Ġsuckers": 21683,
    "Ġdf": 23462,
    "Ġinternetz": 26647,
    "Ġmetabolism": 26842,
    "Ġkud": 9674,
    "hetto": 10889,
    "izer": 10134,
    "adia": 28515,
    "scrat": 28216,
    "Ġchristmas": 5908,
    "Ġtricked": 18264,
    "Ġdearie": 22991,
    "ÂĮ": 6986,
    "Ġproperly": 4315,
    "Ġmargin": 28648,
    "Ġinability": 25202,
    "etty": 27474,
    "Ġsoldier": 14247,
    "isi": 22901,
    "Ġspag": 8419,
    "Ġelm": 28114,
    "Ġcensor": 19400,
    "Ġquicker": 12164,
    "Ġleighton": 15683,
    "ception": 6103,
    "Ġresear": 11471,
    "Ġaweee": 21658,
    "Ġpooper": 22259,
    "Ġwrites": 15153,
    "Ġshatner": 26750,
    "Ġawoken": 26331,
    "Ġcolum": 17183,
    "..)": 14861,
    "twice": 28087,
    "Ġruns": 5325,
    "Ġsti": 19828,
    "Ġhein": 18547,
    "Ġmmhmm": 23656,
    "Ġcrazy": 1308,
    "Ġfailed": 2963,
    "Ġlloyd": 19605,
    "zu": 17124,
    "Ġacceptance": 19156,
    "Ġscary": 2413,
    "etti": 17265,
    "Ġarchive": 18171,
    "Ġtrolley": 26796,
    "Ġmarilyn": 17052,
    "Ġsake": 7691,
    "Ġmanhattan": 12210,
    "Ġpadre": 22012,
    "Ġgraze": 23258,
    "Ġsoph": 5412,
    "verending": 22787,
    "wm": 24437,
    "Ġdecor": 9613,
    "prus": 23904,
    "Ġconce": 15227,
    "Ġtide": 17506,
    "Ġpemb": 28609,
    "Ġmull": 14700,
    "ane": 1687,
    "Ġplus": 2119,
    "Ġriot": 12925,
    "icide": 27968,
    "Ġnighter": 9373,
    "Ġend": 852,
    "Ġtata": 23985,
    "Ġcommented": 10526,
    "Ġwhiny": 20924,
    "Ġmetallic": 28354,
    "ttttt": 10959,
    "kd": 28447,
    "Ġswall": 22414,
    "Ġwhaaat": 18010,
    "Ġscorp": 16622,
    "Ġdive": 12703,
    "bbit": 22482,
    "inn": 9261,
    "mana": 23901,
    "ens": 1617,
    "Ġeff": 1958,
    "Ġses": 13073,
    "Ġligame": 20700,
    "fx": 20003,
    "Ġcriter": 26611,
    "Ġheartbroken": 9083,
    "Ġsting": 9541,
    "Ġsquirrel": 9479,
    "Ġaging": 22156,
    "iiiiiiiiiiii": 26249,
    "Ġ74": 17557,
    "ricane": 10858,
    "Ġfewer": 18436,
    "Ġtalaga": 14743,
    "isonfire": 27699,
    "Ġhaaaa": 16649,
    "Ġdragons": 20586,
    "Ġclone": 14620,
    "otype": 12304,
    "Ġpanic": 6391,
    "cen": 26513,
    "Ġcontinuous": 27298,
    "Ġslides": 9939,
    "Ġfallen": 7532,
    "Ġlaught": 9145,
    "Ġgrizzly": 20604,
    "Ġfill": 2644,
    "Ġ03": 21982,
    "Ġremedies": 20522,
    "Ġknot": 12906,
    "Ġsmelled": 17320,
    "holly": 29012,
    "Ġpopping": 9789,
    "Ġmigrate": 27206,
    "Ġdisgu": 18760,
    "Ġvoyage": 19780,
    "Ġ500": 4882,
    "Ġsupporters": 21946,
    "Ġgrans": 24565,
    "Ġpractically": 9452,
    "//": 7344,
    "Ġwitout": 25219,
    "Ġavril": 20985,
    "hale": 13076,
    "Ġlain": 28492,
    "Ġriff": 20695,
    "Ġbaked": 6688,
    "Ġbattered": 25791,
    "Ġdallas": 4555,
    "Ġguysss": 27640,
    "Ġterm": 4935,
    "ama": 1654,
    "Ġgal": 5262,
    "Ġdepos": 12389,
    "lan": 5381,
    "Ġblondes": 27232,
    "Ġcarradine": 8850,
    "vp": 10293,
    "Ġnoelle": 28918,
    "01": 11412,
    "Ġpolite": 15530,
    "Ġgrain": 20734,
    "Ġprevious": 5423,
    "Ġrequesting": 20130,
    "Ġger": 2128,
    "Ġtomb": 24965,
    "Ġjay": 3300,
    "Ġuncle": 4142,
    "gggg": 2736,
    "ublic": 8648,
    "Ġwherever": 9612,
    "Ġdivorced": 15005,
    "Ġversion": 2551,
    "pod": 14132,
    "nuggets": 27849,
    "Ġmist": 2901,
    "Ġanywhere": 3235,
    "Ġanch": 14694,
    "Ġcrossing": 8142,
    "Ġoohhh": 20983,
    "Ġnoble": 13814,
    "napped": 29765,
    "Ġunderrated": 23260,
    "Ġcontract": 5336,
    "Ġagainst": 3254,
    "Ġpdx": 22054,
    "Ġbrotha": 13820,
    "Ġsomerset": 24327,
    "Ġhayley": 10281,
    "Ġlawrence": 20794,
    "hu": 1972,
    "Ġyuck": 3834,
    "Ġ2012": 18295,
    "Ġcoventry": 25939,
    "Ġvib": 6842,
    "bled": 5973,
    "Ġhaagen": 27457,
    "Ġ..&": 23884,
    "urt": 4449,
    "Ġbleh": 5872,
    "Ġscissors": 18846,
    "umn": 7160,
    "ool": 393,
    "atable": 20688,
    "Ġmodels": 8812,
    "olous": 26557,
    "Ġpilgri": 28292,
    "aay": 7029,
    "ousy": 11063,
    "Ġroma": 22774,
    "Ġouchy": 17077,
    "Ġrab": 5867,
    "Ġponies": 25903,
    "Ġ('": 28594,
    "Ġthee": 6283,
    "Ġsis": 2448,
    "Ġrentals": 27213,
    "Ġfatt": 21849,
    "Ġserend": 21178,
    "Ġinf": 2065,
    "Ġdegr": 11504,
    "Ġbouts": 28151,
    "Ġbleeding": 6847,
    "Ġgymn": 15169,
    "Ġspea": 24533,
    "Ġeaten": 4162,
    "Ġconsideration": 23981,
    "cross": 10932,
    "Ġloong": 16896,
    "vol": 14204,
    "Ġanore": 26048,
    "Ġwalgreens": 20790,
    "Ġmodule": 14393,
    "besides": 21556,
    "same": 13519,
    "Ġintimid": 19997,
    "Ġhike": 9212,
    "Ġcaller": 20735,
    "itched": 29070,
    "Ġicon": 6107,
    "span": 22694,
    "'&": 27387,
    "Ġreplacing": 13408,
    "Ġhack": 6541,
    "Ġgladi": 19097,
    "Ġups": 5183,
    "uda": 15229,
    "Ġmarvellous": 25143,
    "Ġwowwww": 29241,
    "Ġlotsa": 10993,
    "Ġshowdown": 27572,
    "Ġeco": 14144,
    "Ġportfolio": 9695,
    "inging": 14073,
    "Ġvm": 10609,
    "Ġshuts": 22745,
    "Ġsignal": 7049,
    "inis": 9308,
    "Ġctr": 17015,
    "((((((((": 22047,
    "Ġbryant": 18503,
    "Ġlingerie": 23119,
    "Ġmistaken": 12985,
    "arre": 12141,
    "Ġpolish": 7557,
    "iance": 7163,
    "asive": 26481,
    "Ġslang": 18734,
    "Ġskl": 15608,
    "cccc": 11427,
    "Ġufo": 29697,
    "Ġnewspaper": 10826,
    "Ġsurreal": 20976,
    "Ġcoolio": 16436,
    "Ġeatting": 17549,
    "Ġskateboard": 16362,
    "Ġcunt": 14888,
    "Ġcoursework": 5992,
    "ons": 1280,
    "Ġsmiles": 6613,
    "Ġhave": 225,
    "Ġstee": 20032,
    "Ġroomies": 14493,
    "actually": 11197,
    "Ġmoto": 21979,
    "Ġcolors": 6815,
    "Ġhhh": 20903,
    "charge": 25875,
    "Ġsleepless": 9640,
    "Ġmache": 28564,
    "five": 17752,
    "Ġboundaries": 18029,
    "57": 17903,
    "Ġenergized": 25921,
    "arming": 20907,
    "cury": 18468,
    "Ġame": 11617,
    "Ġcin": 5796,
    "Ġjohnny": 6826,
    "Ġ;": 859,
    "Ġcest": 16289,
    "Ġcock": 4984,
    "Ġquiz": 5179,
    "rator": 13619,
    "Ġrs": 7867,
    "rupt": 7398,
    "Ġdeadlines": 13828,
    "Ġbraves": 21221,
    "Ġlum": 15032,
    "success": 28735,
    "Ġfirm": 8247,
    "ige": 9358,
    "Ġmelancholy": 25110,
    "Ġld": 23782,
    "her": 294,
    "Ġforward": 1129,
    "Ġevrything": 24348,
    "pops": 22866,
    "Ġbelievers": 27303,
    "Ġtna": 24782,
    "Ġunstable": 22562,
    "Ġtemple": 12438,
    "Ġowning": 18006,
    "Ġlowest": 20784,
    "Ġtend": 6349,
    "Ġsuspect": 8809,
    "Ġsizz": 21121,
    "Ġscreen": 2488,
    "amas": 15781,
    "!:": 9507,
    "conan": 26172,
    "Ġcamp": 1722,
    "Ġimpl": 19060,
    "looks": 8284,
    "Ġcheat": 9107,
    "Ġincorrect": 20648,
    "Ġm": 141,
    "uva": 21118,
    "Ġtheatre": 6006,
    "Ġgoofy": 14640,
    "atch": 7964,
    "Ġfeet": 2374,
    "verted": 14011,
    "lifax": 21064,
    "aud": 7915,
    "Ġkona": 25607,
    "Ġht": 8213,
    "Ġargu": 6708,
    "Ġsuposed": 23988,
    "Ġthanku": 20495,
    "Ġbalance": 8161,
    "iteerd": 29164,
    "h": 47,
    "Ġjudgment": 25405,
    "Ġchristians": 22750,
    "Ġstadium": 9234,
    "Ġlaw": 2964,
    "Ġintox": 24912,
    "Ġcolombia": 18361,
    "bledon": 7762,
    "feld": 16795,
    "Ġabove": 5978,
    "Ġminiature": 28229,
    "Ġcait": 10241,
    "Ġparallels": 22300,
    "Ġcannes": 18094,
    "Ġfwe": 27916,
    "77": 12183,
    "Ġ=.=": 28672,
    "Ġphilippines": 4725,
    "Ġturk": 11727,
    "Ġcana": 7614,
    "dou": 12576,
    "filled": 14522,
    "Ġrossi": 21776,
    "Ġ#": 438,
    "med": 1261,
    "Ġshoud": 22378,
    "Ġorkut": 17283,
    "Ġbasil": 16027,
    "Ġnas": 6742,
    "Ġlake": 3144,
    "Ġbianca": 19231,
    "Ġgnite": 9207,
    "Ġundes": 28835,
    "Ġsuns": 8943,
    "kkkkkk": 24688,
    "Ġsignals": 25338,
    "Ġeduc": 7048,
    "Ġviewed": 21747,
    "uch": 13071,
    "Ġgoogled": 12026,
    "Ġsiii": 25171,
    "hic": 26876,
    "Ġreceipt": 21005,
    "Ġweapon": 17483,
    "Ġhick": 16530,
    "Ġitinerary": 26369,
    "Ġeyeball": 27674,
    "Ġbuildings": 19542,
    "appreci": 22459,
    "animate": 26457,
    "Ġservice": 2453,
    "Ġhustle": 16503,
    "Ġgt": 4193,
    "Ġqueue": 8882,
    "Ġhears": 19095,
    "ogp": 20531,
    "Ġfew": 976,
    "Ġyesyes": 26574,
    "rele": 12645,
    "hero": 10074,
    "Ġsmiled": 15507,
    "Ġspilled": 8389,
    "Ġpine": 11334,
    "Ġspurs": 17544,
    "Ġrental": 11253,
    "miah": 26880,
    "|": 67,
    "grees": 3720,
    "Ġreturned": 6699,
    "Ġcontagious": 15724,
    "Ġhorses": 7893,
    "Ġpitcher": 22778,
    "Ġpft": 23790,
    "Ġnegot": 17783,
    "fred": 29007,
    "Ġlus": 26444,
    "Ġgraphics": 8337,
    "Ġscarey": 29419,
    "Ġefforts": 13429,
    "Ġdreamed": 12238,
    "Ġreal": 803,
    "mies": 9330,
    "Ġchampionship": 7635,
    "Ġmuahaha": 20629,
    "Ġfaire": 14396,
    "Ġrecent": 6733,
    "crast": 5539,
    "Ġmoods": 12546,
    "Ġsamantha": 12864,
    "Ġcarton": 27231,
    "mao": 9012,
    "Ġrats": 11861,
    "Ġwaaa": 9970,
    "Ġnach": 8992,
    "Ġkimmel": 16357,
    "mothers": 23063,
    "Ġsoap": 7806,
    "Ġnoooo": 3384,
    "Ġrobbed": 12720,
    "Ġwrite": 1698,
    "Ġsubway": 5837,
    "Ġdece": 6224,
    "Ġditto": 8747,
    "Ġgramma": 20824,
    "Ġhr": 4395,
    "ith": 2100,
    "Ġmowed": 17238,
    "Ġaudiobook": 26260,
    "oted": 15308,
    "Ġscoo": 8292,
    "Ġloss": 3534,
    "Ġbanks": 11601,
    "Ġbion": 29664,
    "fit": 4012,
    "Ġchocc": 24230,
    "uc": 4864,
    "und": 4180,
    "astrop": 24844,
    "wen": 22338,
    "Ġwy": 10603,
    "$$": 7665,
    "Ġrape": 13010,
    "Ġjourney": 5326,
    "Ġplaster": 20933,
    "Ġslim": 10545,
    "Ġcpt": 19815,
    "sunny": 19960,
    "Ġsuis": 27505,
    "Ġlolll": 14605,
    "ain": 282,
    "Ġgirl": 687,
    "Ġmuster": 27082,
    "Ġfome": 28482,
    "wise": 3357,
    "Ġmeds": 4902,
    "oooooooooooooooo": 4628,
    "Ġgreeting": 13575,
    "pton": 16210,
    "abulous": 15156,
    "Ġpeacock": 29315,
    "veee": 21605,
    "Ġseein": 10765,
    "Ġlane": 9841,
    "Ġgems": 20315,
    "Ġsem": 8662,
    "Ġisol": 15312,
    "Ġwv": 22871,
    "Ġfear": 4195,
    "oos": 12704,
    "Ġwelsh": 13553,
    "Ġican": 27427,
    "Ġknuck": 16901,
    "Ġirritated": 10374,
    "hello": 9840,
    "Ġpostman": 16442,
    "Ġqual": 3408,
    "Ġtweed": 21162,
    "burgh": 5583,
    "iiiiiiiiiiiiiiii": 12628,
    "Ġcosta": 12120,
    "ibility": 6736,
    "Ġgreasy": 15677,
    "Ġdesserts": 21293,
    "Ġchef": 7731,
    "cele": 16108,
    "Ġpier": 4983,
    "Ġmediterranean": 29587,
    "Ġhera": 28517,
    "aully": 26083,
    "Ġnam": 5566,
    "Ġgiver": 29966,
    "Ġapologize": 8298,
    "Ġlikewise": 12953,
    "Ġstiff": 9673,
    "exam": 18472,
    "cian": 29233,
    "bal": 5212,
    "Ġcans": 14145,
    "Ġexpens": 3100,
    "Ġstreet": 2890,
    "Ġyest": 8374,
    "Ġpats": 21624,
    "Ġchanged": 2634,
    "Ġlit": 6099,
    "Ġduvet": 15430,
    "Ġtens": 25166,
    "Ġavat": 4471,
    "Ġmoles": 22394,
    "Ġbombers": 28826,
    "Ġcuc": 14887,
    "Ġxo": 3203,
    "Ġrainbows": 14795,
    "Ġappointments": 15561,
    "Ġpain": 1047,
    "Ġdino": 19104,
    "Ġtrench": 22707,
    "Ġappts": 27051,
    "Ġcolle": 1791,
    "Ġscoop": 13545,
    "Ġvacu": 10853,
    "z": 65,
    "Ġfacebook": 1501,
    "Ġritz": 22370,
    "Ġ54": 14622,
    "lessly": 15812,
    "ousel": 29221,
    "............": 10954,
    "Ġipswich": 25495,
    "ubarb": 19411,
    "Ġears": 4119,
    "Ġaimed": 23672,
    "Ġphoebe": 22082,
    "Ġsherwood": 22531,
    "Ġhired": 14548,
    "Ġfaced": 17419,
    "Ġcantt": 29215,
    "Ġmid": 1513,
    "ĭ": 113,
    "Ġsoooooooooooooo": 26150,
    "Ġbackstreet": 17885,
    "panic": 21350,
    "Ġsandwhich": 15823,
    "Ġmanag": 2812,
    "ih": 7652,
    "Ġhahh": 25188,
    "Ġrobby": 23874,
    "Ġawsom": 26522,
    "Ġthen": 461,
    "Ġborrowing": 23671,
    "Ġperspective": 13323,
    "Ġdare": 5760,
    "orders": 21691,
    "Ġboi": 12056,
    "Ġleh": 16793,
    "Ġgoss": 4262,
    "Ġjose": 6780,
    "Ġdiscussion": 8482,
    "Ġregular": 4348,
    "Ġpageant": 21476,
    "Ġcircul": 22505,
    "perhaps": 22688,
    "Ġsorely": 20541,
    "Ġplee": 16111,
    "Ġadded": 3341,
    "Ġmods": 23841,
    "Ġdrum": 8055,
    "Ġspin": 4388,
    "seriously": 12171,
    "Ġretreat": 11918,
    "Ġtherea": 27003,
    "Ġmister": 8977,
    "Ġcopyright": 13631,
    "Ġmyrtle": 17492,
    "Ġkidz": 24581,
    "otle": 10194,
    "Ġticket": 2685,
    "Ġhopin": 14097,
    "Ġlaterr": 17971,
    "Ġinstalled": 5486,
    "Ġcalories": 8806,
    "Ġexplosions": 25423,
    "bile": 2739,
    "Ġvig": 18561,
    "Ġrap": 4939,
    "Ġcrushing": 16808,
    "Ġmischief": 25943,
    "Ġwhilst": 5113,
    "Ġremodel": 24245,
    "okey": 13319,
    "nette": 16815,
    "ett": 4677,
    "Ġhearing": 3855,
    "Ġslightly": 4070,
    "Ġrooms": 9070,
    "Ġcables": 18628,
    "Ġchinatown": 19763,
    "ginoandfran": 24060,
    "Ġfuuun": 25115,
    "Ġrebooted": 28346,
    "Ġawesomely": 15338,
    "Ġmone": 13241,
    "Ġ;-)": 3599,
    ";.": 2472,
    "agon": 12052,
    "break": 4913,
    "Ġadventure": 5458,
    "Ġdover": 21885,
    "Ġlimit": 4079,
    "Ġcomplement": 28091,
    "Ġsappy": 27002,
    "Ġkathy": 12201,
    "Ġjade": 10384,
    "orm": 968,
    "Ġother": 788,
    "Ġpies": 12587,
    "Ġcharlotte": 7518,
    "Ġhood": 4753,
    "ise": 877,
    "cers": 7360,
    "Ġquoting": 17061,
    "Ġjive": 27482,
    "Ġnearly": 2743,
    "Ġkites": 26209,
    "Ġimp": 4767,
    "Ġyouve": 14077,
    "Ġpigeon": 16060,
    "Ġunexpected": 7674,
    "rrrrrrr": 13032,
    "Ġconserv": 13689,
    "ipher": 27041,
    "Ġpackages": 13764,
    "glasto": 24056,
    "Ġmanly": 15406,
    "Ġrolling": 6492,
    "Ġcorrect": 3877,
    "Ġexclusive": 10745,
    "ablish": 21685,
    "Ġhandsome": 7659,
    "#": 6,
    "Ġgloves": 12556,
    "Ġsweeney": 24050,
    "gens": 23431,
    "'..": 13715,
    "Ġmoscow": 16991,
    "Ġparacet": 22845,
    "ulations": 15328,
    "Ġspawn": 27777,
    "87": 20193,
    "Ġindo": 5545,
    "Ġgiveaways": 18273,
    "Ġsurrounding": 21057,
    "cup": 9783,
    "ines": 1460,
    "Ġpracticing": 9771,
    "Ġroast": 5234,
    "nya": 6689,
    "izers": 21684,
    "nc": 4141,
    "Ġirre": 17576,
    "Ġ*****": 28646,
    "sis": 5606,
    "Ġmaaa": 26990,
    "Ġjob": 997,
    "Ġfolow": 28213,
    "Ġawhh": 13601,
    "Ġmahalo": 28939,
    "Ġwt": 7522,
    "Ġppc": 28334,
    "cast": 2074,
    "Ġblack": 1387,
    "Ġwwdc": 9598,
    "Ġapprentice": 6058,
    "Ġpobre": 27013,
    "Ġmommies": 14166,
    "hilar": 23434,
    "Ġinfluen": 19177,
    "Ġbacking": 11991,
    "lite": 21826,
    "Ġhoped": 7871,
    "Ġtiss": 8451,
    "Ġblonde": 5931,
    "Ġ8": 982,
    "Ġrespond": 3689,
    "blogspot": 11975,
    "Ġcustom": 3273,
    "Ġprospects": 29517,
    "Ġhavn": 10887,
    "Ġbrew": 8133,
    "Ġdiscussed": 18173,
    "Ġmerg": 21615,
    "Ġbrowns": 21013,
    "nights": 23889,
    "Ġtov": 26002,
    "Ġspit": 11867,
    "Ġbubb": 6275,
    "Ġartist": 5380,
    "Ġmiss": 334,
    "Ġshopaholic": 17190,
    "Ġdish": 6619,
    "Ġpaying": 4402,
    "erge": 20439,
    "jar": 11573,
    "works": 4945,
    "dles": 9329,
    "alcohol": 23190,
    "Ġdevils": 19144,
    "Ġchowder": 22061,
    "late": 13360,
    "Ġufc": 12037,
    "Ġymca": 28915,
    "Ġshareholder": 16137,
    "Ġsurfin": 22456,
    "Ġwilde": 27214,
    "Ġdyslex": 23407,
    "Ġtwittersphere": 22160,
    "file": 23430,
    "fel": 17800,
    "Ġdell": 8490,
    "Ġdarker": 12975,
    "Ġfield": 4207,
    "Ġdisrespect": 20959,
    "Ġhorizontal": 24403,
    "Ġguam": 29793,
    "Ġtanned": 13159,
    "Ġ****": 19496,
    "Ġmississ": 17789,
    "Ġfanny": 25321,
    "Ġinnings": 20176,
    "Ġaccess": 3508,
    "izon": 6366,
    "Ġbeaches": 12416,
    "Ġboohoo": 9586,
    "Ġdevon": 12681,
    "Ġpengen": 29343,
    "Ġwould": 482,
    "Ġfr": 258,
    "Ġarrival": 12381,
    "Ġkalo": 22134,
    "Ġtre": 1251,
    "Ġjacked": 13563,
    "Ġtheft": 22349,
    "Ġpirate": 8953,
    "Ġtechnology": 5844,
    "Ġfront": 2342,
    "Ġass": 1117,
    "Ġwilling": 6586,
    "Ġnectar": 24400,
    "ves": 1697,
    "Ġgreatly": 10102,
    "Ġthorough": 10485,
    "Ġattempts": 14053,
    "Ġgim": 7112,
    "ousand": 6401,
    "type": 14481,
    "Ġjared": 8471,
    "Ġtia": 13739,
    "Ġinternet": 1427,
    "wy": 6850,
    "Ġharm": 11459,
    "Ġintelligent": 13582,
    "Ġskin": 3032,
    "Ġmeetup": 14242,
    "Ġricher": 22273,
    "Ġheavy": 3939,
    "Ġbache": 15785,
    "Ġjia": 23487,
    "Ġcares": 5424,
    "Ġdarned": 27711,
    "Ġdozens": 29735,
    "Ġdb": 10162,
    "Ġcongratz": 16453,
    "Ġcoat": 7952,
    "Ġcoats": 22401,
    "Ġrif": 26957,
    "Ġcheeseburger": 13038,
    "Ġblows": 6556,
    "sc": 2830,
    "Ġgale": 24797,
    "Ġglou": 27057,
    "Ġtamara": 27260,
    "Ġsand": 2368,
    "Ġradio": 2202,
    "Ġpregnant": 6749,
    "beit": 17802,
    "Ġchame": 27573,
    "Ġtele": 4552,
    "Ġargentin": 26758,
    "Ġchemo": 19283,
    "Ġdashboard": 17476,
    "Ġmeth": 5957,
    "Ġengineering": 16257,
    "Ġawol": 27526,
    "Ġcrafts": 20955,
    "Ġconsequences": 20399,
    "Ġinna": 24812,
    "Ġpente": 28353,
    "Ġinterview": 2226,
    "Ġrn": 11015,
    "Ġslackin": 24707,
    "opard": 9162,
    "Ġhob": 12667,
    "Ġaircon": 17564,
    "antsmcfly": 19130,
    "packing": 20353,
    "Ġperse": 21201,
    "Ġunderground": 14979,
    "Ġferret": 23970,
    "nick": 13518,
    "Ġgranola": 20609,
    "Ġdamnit": 5719,
    "Ġconcept": 8274,
    "Ġstove": 15925,
    "Ġhuh": 2607,
    "vant": 10753,
    "Ġtrace": 9109,
    "feels": 14182,
    "Ġfail": 1256,
    "husband": 26295,
    "tab": 21680,
    "xico": 29647,
    "Ġtux": 17687,
    "Ġexpose": 28006,
    "Ġpassive": 26629,
    "ghhhh": 10127,
    "Ġpressed": 15360,
    "Ġsudoku": 23117,
    "Ġoutrage": 16307,
    "lack": 25534,
    "Ġunbelievable": 10667,
    "Ġwarrant": 11309,
    "Ġpar": 1009,
    "Ġvertical": 23721,
    "Ġcuddly": 20362,
    "arting": 17925,
    "Ġunrelated": 24562,
    "after": 5570,
    "Ġdolce": 19991,
    "Ġcry": 1121,
    "Ġunofficial": 28064,
    "dan": 8342,
    "Ġsweeet": 13854,
    "bers": 8635,
    "cancer": 24282,
    "Ġslower": 10165,
    "aging": 6322,
    "list": 3232,
    "amic": 20238,
    "ttt": 4506,
    "Ġarmor": 20489,
    "boom": 16272,
    "Ġmaggi": 29565,
    "Ġexagger": 21575,
    "Ġnope": 2061,
    "Ġheadaches": 6413,
    "Ġhomeschool": 24857,
    "Ġadn": 24558,
    "va": 2548,
    "audio": 25072,
    "Ġdand": 20221,
    "omics": 27495,
    "Ġkaiser": 29395,
    "Ġmell": 24116,
    "Ġsurprisingly": 7764,
    "twitt": 23559,
    "Ġcpk": 26279,
    "Ġcools": 29230,
    "ze": 2073,
    "Ġhubb": 16804,
    "Ġ''": 8421,
    "Ġburnt": 2978,
    "lphia": 15012,
    "Ġgiven": 3726,
    "Ġdemanding": 16855,
    "Ġata": 19837,
    "Ġtransport": 8537,
    "Ġwrists": 19573,
    "Ġdominican": 19977,
    "connect": 25482,
    "Ġpi": 6821,
    "Ġcancellation": 21500,
    "sten": 13370,
    "Ġboyle": 4843,
    "Ġinclude": 7166,
    "paw": 16279,
    "Ġdood": 8725,
    "Ġthanx": 3219,
    "Ġbelie": 9726,
    "Ġgoodbye": 2454,
    "Ġtreatments": 24677,
    "Ġmorris": 9544,
    "Ġblushes": 26086,
    "ups": 3991,
    "Ġlack": 3328,
    "Ġtheraflu": 26751,
    "sticks": 11970,
    "Ġhits": 6192,
    "Ġhanson": 22896,
    "Ġnapa": 17984,
    "Ġphotos": 1854,
    "Ġdiamonds": 16616,
    "Ġputer": 18435,
    "Ġrio": 7555,
    "Ġxddd": 25263,
    "ghost": 18707,
    "Ġbudapest": 23281,
    "Ġweak": 4673,
    "Ġtoto": 28484,
    "Ġroyale": 26748,
    "plz": 18132,
    "Ġ...&": 19487,
    "Ġdemands": 22788,
    "Ġbound": 5738,
    "Ġentitled": 20105,
    "bike": 15115,
    "ufact": 20378,
    "ath": 844,
    "Ġscattered": 22561,
    "Ġmemory": 4343,
    "Ġhunters": 22261,
    "Ġhappiness": 4980,
    "ured": 2547,
    "Ġasos": 24138,
    "Ġdoom": 12193,
    "Ġparall": 14407,
    "Ġconver": 7916,
    "Ġnewborn": 19268,
    "Ġdozed": 28544,
    "mark": 4263,
    "ros": 4036,
    "Ġanh": 14538,
    "Ġmaria": 5939,
    "Ġamuse": 11813,
    "2": 21,
    "Ġgrandfather": 10994,
    "ner": 845,
    "Ġsnails": 26202,
    "abilities": 22963,
    "Ġdramas": 20627,
    "Ġjaz": 11989,
    "Ġbuttercup": 21268,
    "Ġparticularly": 9003,
    "Ġsynd": 10995,
    "ses": 3863,
    "Ġillustr": 17058,
    "Ġstanley": 12243,
    "ple": 1136,
    "Ġmarisa": 26595,
    "omnia": 4472,
    "Ġrequire": 9089,
    "Ġstepping": 15417,
    "Ġnissan": 23414,
    "tick": 17003,
    "Ġmexican": 5592,
    "Ġbangin": 18629,
    "Ġnazi": 19986,
    "oe": 5146,
    "ild": 1272,
    "Ġzee": 15914,
    "rete": 13296,
    "blet": 20561,
    "Ġbtwn": 22986,
    "Ġheli": 26026,
    "Ġxxxx": 4524,
    "Ġmcr": 12791,
    "Ġont": 8113,
    "based": 11748,
    "Ġnoct": 16545,
    "Ġtomar": 9526,
    "Ġincluding": 5612,
    "Ġipod": 1738,
    "Ġclassy": 11461,
    "Ġspace": 3207,
    "Ġforcing": 12319,
    "Ġeffin": 7292,
    "Ġmigraines": 12018,
    "ney": 1384,
    "Ġshiiiit": 29746,
    "Ġtwigg": 24839,
    "Ġcloud": 5869,
    "Ġtelecom": 23657,
    "Ġhangin": 6028,
    "Ġlayin": 8554,
    "Ġ-__": 14148,
    "cav": 23427,
    "Ġlolo": 12322,
    "Ġinfact": 18464,
    "asses": 5323,
    "Ġthw": 19248,
    "Ġdisappearing": 15944,
    "Ġliqu": 7277,
    "Ġskip": 6267,
    "Ġkase": 19833,
    "Ġthoo": 22902,
    "Ġpb": 8892,
    "Ġmysterious": 15548,
    "Ġcreeper": 18627,
    "ntly": 1202,
    "pi": 16178,
    "Ġstartrek": 20954,
    "Ġpassengers": 11003,
    "Ġaff": 2378,
    "zzo": 25723,
    "itt": 540,
    "Ġmia": 5607,
    "media": 11552,
    "Ġanticipating": 17738,
    "Ġambitious": 27371,
    "Ġtater": 27901,
    "Ġwishful": 20273,
    "boro": 12803,
    "Ġpermission": 12273,
    "Ġapocalypse": 27742,
    "Ġbombay": 23974,
    "Ġgnna": 17259,
    "Ġdollars": 5909,
    "Ġaaron": 7148,
    "Ġpress": 3020,
    "Ġclasses": 2882,
    "osho": 18129,
    "cad": 25527,
    "Ġmaxim": 11284,
    "Ġyayayay": 12912,
    "Ġsue": 10071,
    "maids": 29207,
    "Ġpurchase": 7094,
    "Ġpics": 1486,
    "Ġcudd": 5548,
    "Ġjap": 3301,
    "lf": 546,
    "Ġauck": 15571,
    "Ġpennsylvania": 21586,
    "holm": 13697,
    "Ġjewelry": 10825,
    "awake": 28712,
    "Ġhorn": 14171,
    "Ġbirdy": 21687,
    "Ġdomino": 17712,
    "books": 7168,
    "Ġflight": 1881,
    "Ġboreddd": 14804,
    "Ġeverything": 1111,
    "Ġaccurate": 14632,
    "Ġmusta": 18595,
    "Ġcones": 23533,
    "Ġemployees": 13705,
    "Ġcrossed": 3959,
    "Ġmeanwhile": 13028,
    "Ġalongside": 29999,
    "Ġhoff": 21694,
    "Ġbypass": 23856,
    "Ġnature": 6029,
    "Â¾": 4014,
    "rell": 8915,
    "Ġlazing": 24262,
    "Ġadwords": 26104,
    "Ġoverrr": 24874,
    "Ġlifts": 23345,
    "Ġjus": 2411,
    "Ġcameo": 20758,
    "Ġcome": 497,
    "gle": 1705,
    "aving": 11847,
    "nell": 14336,
    "eau": 18103,
    "Ġhomeboy": 22666,
    "Ġcbc": 22615,
    "Ġwooooo": 8938,
    "Ġaaaaah": 18334,
    "Ġdaw": 7645,
    "Ġcher": 3999,
    "Ġtango": 15451,
    "Ġsexx": 25656,
    "Ġgreat": 462,
    "Ġsyl": 20540,
    "son": 2773,
    "Ġbcause": 23958,
    "Ġ86": 15341,
    "Ġcentury": 9714,
    "Ġfant": 2154,
    "Ġsamp": 8126,
    "Ġwack": 7797,
    "Ġadding": 5334,
    "Ġwisconsin": 13066,
    "Ġuh": 2536,
    "mails": 11637,
    "needs": 22023,
    "illac": 24493,
    "Ġbracelet": 7765,
    "Ġsket": 11634,
    "nate": 21108,
    "Ġethiop": 28341,
    "Ġcleve": 6989,
    "Ġextend": 15490,
    "co": 1001,
    "Ġsandman": 27177,
    "Ġeurope": 3586,
    "Ġgaiman": 25809,
    "Ġhotel": 2558,
    "Ġindi": 21217,
    "uffed": 12851,
    "buddy": 24021,
    "bot": 8181,
    "Ġbeachh": 28128,
    "either": 24771,
    "asse": 19444,
    "Ġbahahaha": 14317,
    "Ġrecommending": 15933,
    "Ġspoiling": 19729,
    "Â¯": 1171,
    "Ġstocking": 29971,
    "Ġnearby": 11347,
    "ency": 4747,
    "Ġbeaming": 27479,
    "Ġtennis": 4212,
    "cafe": 23950,
    "Ġef": 18086,
    "Ġhilarity": 28775,
    "Ġtodd": 6820,
    "Ġxox": 1942,
    "Ġprese": 5620,
    "Ġpoke": 6649,
    "Ġsetting": 3779,
    "Ġpalace": 14822,
    "Ġblan": 15057,
    "Ġsos": 13251,
    "Ġfelic": 16918,
    "Ġnoobs": 27219,
    "Ġchacha": 26096,
    "esssss": 25640,
    "iene": 21397,
    "Ġdemo": 5248,
    "Ġbitty": 26427,
    "Ġmelon": 19724,
    "Ġswears": 29355,
    "chat": 6524,
    "Ġthank": 617,
    "__": 2611,
    "Ġevernote": 28644,
    "ots": 2081,
    "Ġannoyingly": 24981,
    "having": 12312,
    "Ġkoolaid": 28877,
    "Ġawaited": 27248,
    "Ġadvil": 13048,
    "Ġcotton": 11356,
    "kitty": 22591,
    "Ġernie": 25755,
    "ksha": 8900,
    "Ġviny": 12363,
    "Ġapi": 8380,
    "Ġ?&": 24909,
    "Ġcream": 1769,
    "Ġruins": 10525,
    "Ġspotting": 26212,
    "Ġduu": 20021,
    "£": 72,
    "Ġjungle": 10560,
    "Ġsomehow": 3652,
    "Ġques": 13953,
    "Ġlecture": 8646,
    "Ġgoin": 1675,
    "deep": 19798,
    "Ġsentimental": 18194,
    "fare": 12815,
    "ertain": 1991,
    "mro": 27410,
    "Ġahahah": 9741,
    "Ġkung": 11501,
    "iner": 9182,
    "Ġawww": 1032,
    "Ġdutch": 8242,
    "Ġcd": 2231,
    "Ġlodge": 22563,
    "Ġdiseases": 29465,
    "Ġimpatient": 12074,
    "Ġgiants": 11429,
    "Ġlorraine": 25439,
    "Ġadult": 7302,
    "Ġahhhhhhhhh": 19340,
    "Ġstudent": 4641,
    "Ġgrape": 10726,
    "Ġka": 4304,
    "Ġrus": 7496,
    "Ġuseless": 6229,
    "Ġfortune": 9746,
    "Ġami": 21653,
    "zel": 12943,
    "Ġmurderer": 25137,
    "Ġfakes": 17282,
    "Ġhola": 8997,
    "weds": 27262,
    "Ġmish": 15572,
    "Ġcomplaining": 6739,
    "Ġyaar": 19885,
    "Ġcheery": 18475,
    "blogs": 11087,
    "96": 14932,
    "past": 18068,
    "oma": 6222,
    "load": 1094,
    "Ġdocuments": 16359,
    "oop": 2070,
    ".:": 15461,
    "spot": 12540,
    "Ġharold": 17396,
    "Ġwales": 8608,
    "Ġyesh": 15601,
    "Ġcarib": 14164,
    "roe": 14469,
    "Ġappearing": 16487,
    "meeting": 18067,
    "Ġguarantee": 15950,
    "Ġjana": 25589,
    "adin": 26945,
    "uu": 909,
    "bl": 2298,
    "starwars": 25843,
    "Ġant": 2179,
    "Ġroscoes": 29566,
    "lc": 17497,
    "Ġbattlefield": 14184,
    "Ġscott": 5174,
    "Ġkath": 12147,
    "Ġblooming": 18656,
    "Ġmoj": 13092,
    "hind": 2405,
    "crazy": 11644,
    "Ġdiscover": 9834,
    "Ġ2006": 12972,
    "emic": 22721,
    "ught": 6307,
    "boooo": 27391,
    "Ġcameras": 10288,
    "Ġchand": 16561,
    "Ġnat": 2341,
    "Ġbathrooms": 19926,
    "Ġwizard": 14060,
    "Ġshutup": 20783,
    "Ġhybrid": 18968,
    "Ġnitey": 18950,
    "Ġenjoy": 764,
    "Ġtelstra": 21785,
    "Ġvet": 4067,
    "Ġcaffeine": 6831,
    "empt": 19115,
    "Ġofc": 16769,
    "Ġ18": 2392,
    "arm": 3511,
    "strike": 28380,
    "Ġss": 6863,
    "abus": 28638,
    "Ġloom": 16185,
    "iiiine": 28806,
    "Ġsox": 7198,
    "ial": 2238,
    "rend": 9814,
    "Ġgave": 1947,
    "Ġlovely": 1258,
    "Ġsorted": 5531,
    "Ġcontrolling": 24356,
    "Ġdeg": 19064,
    "Ġdiff": 1441,
    "Ġaspects": 26329,
    "iny": 3195,
    "Ġannn": 19257,
    "zer": 5350,
    "Ġlott": 29864,
    "¢": 71,
    "Ġwasps": 28549,
    "Ġabusing": 25236,
    "Ġpage": 1864,
    "sniffle": 20829,
    "Ġdollar": 6887,
    "Ġwuu": 22342,
    "control": 20844,
    "Ġequals": 13703,
    "Ġemail": 1409,
    "rences": 8607,
    "Ġvai": 22502,
    "Ġisplayer": 9367,
    "Ġclarkson": 12938,
    "Ġheadlights": 27580,
    "oot": 1089,
    "Ġfoto": 15658,
    "Ġheadin": 7439,
    "Ġag": 392,
    "Ġmargaret": 12886,
    "Ġelectric": 5528,
    "kkk": 6543,
    "Ġsten": 26489,
    "Ġtonight": 526,
    "Ġcrabs": 17299,
    "Ġjokes": 5498,
    "Ġscent": 14594,
    "Ġchannel": 3120,
    "Ġbabys": 11956,
    "Ġflaming": 19087,
    "Ġooc": 8693,
    "Ġnoooooooooo": 15272,
    "Ġmerc": 22757,
    "Ġlegally": 14043,
    "Ġincreased": 18643,
    "Ġomaha": 16373,
    "Ġpleasure": 3611,
    "Ġoutlook": 8795,
    "iz": 715,
    "Ġgid": 11367,
    "Ġsayin": 6017,
    "Ġkinky": 19452,
    "Ġeated": 26121,
    "ask": 12460,
    "Ġdamon": 22432,
    "Ġproactive": 29813,
    "Ġsopranos": 29579,
    "Ġsam": 2304,
    "Ġimprove": 6343,
    "Ġhimym": 22682,
    "Ġhemis": 29706,
    "Ġscared": 2002,
    "Ġshat": 5731,
    "Âİ": 7638,
    "Ġreddit": 25501,
    "Ġyaaaaaay": 18390,
    "?!?": 3272,
    "sends": 24126,
    "Ġ((((": 23703,
    "Ġkil": 10500,
    "be": 505,
    "Ġju": 1471,
    "Ġbusters": 27762,
    "Ġadopted": 12741,
    "Ġpokemon": 9223,
    "Ġsouthern": 8266,
    "Ġvita": 28569,
    "Ġstran": 24947,
    "Ġveh": 12005,
    "bloody": 24365,
    "col": 1639,
    "Ġhopefull": 24168,
    "nta": 19451,
    "Ġhoody": 25854,
    "Ġburned": 4663,
    "isu": 25575,
    "Ġbachelorette": 9661,
    "Ġcurious": 4715,
    "Ġminding": 29927,
    "Ġgermany": 3237,
    "Ġoutages": 27981,
    "Ġtoenails": 22830,
    "Ġflicks": 16045,
    "Ġgift": 3425,
    "dem": 12967,
    "yawn": 11160,
    "Ġtweak": 24503,
    "Ġassemble": 27795,
    "Ġimproved": 12068,
    "Ġnak": 8748,
    "rinth": 27302,
    "Ġgonna": 561,
    "Ġjup": 21141,
    "Ġ.....": 3786,
    "street": 19240,
    "Ġattic": 16830,
    "shirts": 8732,
    "isode": 28158,
    "Ġmillie": 21748,
    "Ġvars": 19063,
    "gee": 12136,
    "Ġjst": 5826,
    "nz": 12356,
    "bbles": 16133,
    "Ġpediatric": 25520,
    "Ġsail": 10004,
    "fi": 6086,
    "Ġdiesel": 19378,
    "Ġdarcy": 25380,
    "Ġnibble": 27348,
    "Ġknw": 6933,
    "ookie": 9607,
    "aaan": 15332,
    "brew": 13651,
    "Ġfestiv": 9088,
    "Ġhalluc": 28240,
    "Ġlight": 1605,
    "Ġunnecessary": 19201,
    "gom": 21340,
    "Ġhappen": 894,
    "Ġapproval": 14110,
    "Ġtalkn": 28660,
    "Ġinvis": 9935,
    "Ġminnesota": 15019,
    "sic": 29021,
    "Ġkthx": 23188,
    "Ġfart": 8344,
    "pu": 12029,
    "ration": 7109,
    "Ġpancake": 11825,
    "soft": 5163,
    "Ġexce": 20934,
    "Ġmidwest": 16131,
    "Ġyup": 2321,
    "hahahaha": 5828,
    "Ġconey": 24799,
    "Ġscenes": 9864,
    "Ġino": 23800,
    "urning": 8643,
    "Ġmicros": 26671,
    "Ġboise": 27624,
    "Ġrege": 8775,
    "Ġfixes": 16939,
    "Ġdeli": 3782,
    "rat": 1016,
    "Ġgue": 10434,
    "Ġtummy": 2229,
    "Ġsome": 288,
    "Ġdelays": 13483,
    "Ġcs": 5035,
    "Ġdolphins": 19417,
    "Ġens": 21427,
    "Ġguy": 1297,
    "Ġwhaaaaat": 26704,
    "Ġkleenex": 23741,
    "Ġingredients": 13786,
    "Ġtaiwan": 14577,
    "Ġ(?)": 17285,
    "Ġcramps": 6398,
    "Ġaustral": 2697,
    "Ġhoe": 10049,
    "Ġoutdoor": 9926,
    "5": 24,
    "Ġsiya": 23967,
    "mal": 7677,
    "Ġhalfwit": 25748,
    "Ġmaury": 27528,
    "Ġendorsement": 26833,
    "Ġsquir": 7336,
    "Ġsneaking": 15814,
    "Ġdis": 762,
    "Ġperformer": 24995,
    "por": 20207,
    "Ġgeek": 4968,
    "obvious": 20588,
    "Ġzz": 21359,
    "Ġsigh": 2132,
    "Ġrent": 3792,
    "Ġwhenever": 4522,
    "Ġtears": 3750,
    "Ġmedia": 3565,
    "Ġponytail": 24729,
    "Ġjudy": 16724,
    "eearl": 27940,
    "Ġfirst": 677,
    "ggles": 10803,
    "Ġlill": 19834,
    "Ġwrong": 1193,
    "Ġmonth": 1080,
    "Ġdecline": 23587,
    "Ġbahh": 27982,
    "Ġmarin": 15158,
    "Ġleft": 846,
    "Ġtransferred": 21544,
    "Ġsammie": 24979,
    "ffff": 4713,
    "Ġlows": 27448,
    "supposed": 25112,
    "Ġcause": 1238,
    "Ġozzy": 23476,
    "Ġballs": 4832,
    "Ġteasing": 10005,
    "Ġvacations": 9588,
    "Ġgirlie": 7395,
    "lol": 1913,
    "Ġpixies": 28821,
    "Ġpullin": 28186,
    "Ġlesson": 3619,
    "Ġpimping": 27291,
    "Ġrouge": 16864,
    "Ġthar": 26025,
    "Ġnigth": 29414,
    "Ġalonso": 28959,
    "Ġdr": 603,
    "chuckmemondays": 13850,
    "each": 20465,
    "Ġchey": 20948,
    "Ġopen": 1265,
    "Ġphysiology": 29522,
    "Ġmask": 9026,
    "wwwww": 7005,
    "Ġcontroll": 9150,
    "hips": 22858,
    "Ġinternal": 13046,
    "Ġoui": 20359,
    "Ġpinch": 15729,
    "Ġneg": 5490,
    "Ġvfc": 18910,
    "Ġdistract": 5110,
    "Ġconcerned": 8444,
    "bones": 19611,
    "Ġbarg": 12616,
    "Ġbejeweled": 22364,
    "Ġapplebee": 27164,
    "Ġdion": 23157,
    "Ġlatest": 3887,
    "Ġtomarrow": 11487,
    "qh": 18866,
    "Ġsubscri": 8197,
    "Ġsubst": 18793,
    "Ġidc": 16321,
    "Ġurl": 5870,
    "eing": 21338,
    "Ġgeneration": 10145,
    "dded": 23567,
    "Ġclyde": 23730,
    "sestime": 23729,
    "Ġunevent": 19397,
    "Ġsid": 9181,
    "Ġlaaaa": 20438,
    "lets": 7597,
    "Ġmanson": 19476,
    "cys": 26380,
    "Ġmotel": 23293,
    "Ġwarri": 12161,
    "Ġperhaps": 3597,
    "Ġrv": 22638,
    "gq": 27400,
    "Ġprepaid": 29335,
    "Ġboiling": 9858,
    "Ġpipe": 14688,
    "Ġattempting": 7041,
    "Ġnoodle": 9556,
    "leans": 11221,
    "awa": 10328,
    "Ġcomforting": 17247,
    "krist": 23438,
    "Ġgramp": 18428,
    "Ġwher": 23774,
    "Ġthri": 14008,
    "Ġaparently": 20314,
    "Ġoptimist": 28871,
    "roads": 26989,
    "Ġtechnically": 8955,
    "Ġsucked": 4295,
    "Ġhelper": 20289,
    "Ġwell": 405,
    "icho": 27615,
    "ivir": 28126,
    "Ġoats": 22116,
    "Ġaside": 9490,
    "Ġdess": 6741,
    "Ġbows": 25174,
    "Ġsonar": 27139,
    "Ġmarkets": 14647,
    "Ġjobros": 12607,
    "Ġstoner": 28397,
    "they": 3530,
    "Ġsri": 18695,
    "Ġunplugged": 19008,
    "Ġsurely": 5589,
    "Ġnicky": 13628,
    "Ġthingys": 27570,
    "Ġstoped": 24592,
    "Ġvenice": 13427,
    "Ġhabitat": 24714,
    "Ġsomewhere": 2715,
    "Ġyear": 672,
    "Ġunde": 11737,
    "Ġproducers": 17577,
    "dmb": 27881,
    "Ġcalend": 7660,
    "Ġjon": 1352,
    "Ġaaand": 20809,
    "Ġrides": 7970,
    "account": 24008,
    "Ġfurry": 16483,
    "Ġareas": 14082,
    "Ġhints": 19046,
    "Ġvv": 27532,
    "Ġcorse": 27127,
    "sky": 17254,
    "Ġyipp": 7483,
    "Ġethics": 19980,
    "camp": 6142,
    "Ġspur": 23844,
    "Ġbtr": 28480,
    "wedding": 22791,
    "Ġfright": 12203,
    "Ġsunnies": 26567,
    "Ġillust": 15811,
    "Ġdeviantart": 23728,
    "Ġch": 423,
    "Ġcosmos": 28748,
    "plants": 28625,
    "Ġtheres": 2844,
    "Ġguest": 4551,
    "Ġhelena": 25587,
    "Ġcubes": 22035,
    "Ġrecru": 11119,
    "Ġoce": 4418,
    "Ġtwice": 3336,
    "holl": 29010,
    "nom": 15387,
    "Ġbooks": 2281,
    "Ġpeeps": 2969,
    "Ġagreeing": 17440,
    "Ġhatt": 12523,
    "Ġib": 6940,
    "Ġolympics": 21083,
    "agan": 12107,
    "Ġlansing": 25565,
    "Ġwiping": 23390,
    "asta": 27521,
    "Ġfanclub": 20101,
    "Ġgoodwill": 23501,
    "Ġrealistic": 17820,
    "Ġaustralia": 3059,
    "food": 6806,
    "Ġimport": 2953,
    "Ġcredit": 4009,
    "seat": 18900,
    "Ġnewly": 11061,
    "Ġunderstands": 14172,
    "Ġstudied": 9293,
    "Ġudah": 14578,
    "Ġrecorder": 22211,
    "Ġlke": 25563,
    "Ġveryyy": 26558,
    "eaks": 8350,
    "ado": 3955,
    "Ġoperations": 27220,
    "Ġpik": 17771,
    "ics": 1382,
    "lod": 21662,
    "Ġriley": 15888,
    "Ġdiscovery": 11350,
    "Ġslay": 17539,
    "Ġlovie": 27963,
    "Ġyeap": 13670,
    "ahhh": 11092,
    "Ġanal": 16306,
    "Ġfal": 7133,
    "Ġeurop": 25371,
    "imisscath": 21092,
    "insert": 18600,
    "Ġduet": 13164,
    "Ġregina": 17066,
    "Ġnast": 17651,
    "Ġconsultant": 23716,
    "Ġthos": 22903,
    "Ġight": 25169,
    "aning": 6655,
    "Ġhaiz": 23793,
    "Ġmagnetic": 24740,
    "anne": 8128,
    "Ġrepeats": 18979,
    "Ġguyss": 21955,
    "Ġpilot": 9987,
    "Ġquits": 19869,
    "Ġmegs": 23809,
    "Ġshowered": 8602,
    "Ġknight": 5466,
    "Ġmyweakness": 8549,
    "Ġmisunderstood": 18845,
    "Ġohno": 19072,
    "ofield": 29393,
    "Ġtuff": 24783,
    "Ġweed": 9370,
    "Ġbrock": 21202,
    "Ġyourselves": 15980,
    "Ġmove": 1518,
    "Ġshock": 6258,
    "Ġtrousers": 15286,
    "Ġmusicmonday": 8135,
    "Ġlas": 4239,
    "Ġwing": 8098,
    "Ġsunsets": 27790,
    "Ġtoothache": 8985,
    "Ġfyi": 6184,
    "except": 9151,
    "Ġboulder": 17648,
    "Ġwelp": 15974,
    "leh": 22635,
    "Ġdamage": 7891,
    "Ġpurely": 20143,
    "Ġstorm": 2578,
    "Ġskewl": 20165,
    "Ġnewbies": 26533,
    "Ġconfuse": 12060,
    "Ġyeahhhh": 14479,
    "Ġblown": 7994,
    "Ġthanxx": 23507,
    "Ġni": 3763,
    "Ġrelieve": 6499,
    "Ġshang": 11954,
    "Ġboca": 27087,
    "Ġprawns": 25119,
    "ury": 5933,
    "Ġendorse": 19009,
    "Ġinv": 1743,
    "Ġcollide": 25327,
    "Ġmrtweet": 29972,
    "Ġspoke": 4869,
    "Ġtexture": 27645,
    "Ġiraq": 11613,
    "rellas": 24353,
    "Ġbberry": 16760,
    "Ġbought": 1525,
    "ously": 8291,
    "eee": 1311,
    "ongs": 14390,
    "Ġbabs": 27983,
    "Ġship": 5312,
    "coming": 3972,
    "(&": 26370,
    "Ġcucumbers": 29531,
    "Ġtweeps": 3176,
    "leave": 17028,
    "Ġwrestling": 11972,
    "Ġlighthouse": 27131,
    "rice": 20212,
    "Ġanybody": 4008,
    "Ġworking": 676,
    "urring": 26058,
    "Ġcertific": 14058,
    "Ġstockings": 25410,
    "Ġbjs": 29039,
    "Ġsho": 1537,
    "stomach": 24375,
    "Ġbals": 26902,
    "Ġtoba": 24794,
    "Ġmerci": 19550,
    "Ġnee": 7794,
    "Ġamazeballs": 29510,
    "sidents": 15804,
    "Ġheader": 14400,
    "Ġpalin": 23020,
    "Ġoccasions": 28263,
    "Ġsecretary": 20798,
    "Ġtreasury": 19190,
    "Ġnvidia": 23472,
    "ilove": 13815,
    "namon": 9657,
    "Ġpurpose": 7404,
    "Ġprofiles": 14040,
    "Ġsense": 3084,
    "Ġingrid": 24813,
    "Ġtur": 2277,
    "Ġven": 5258,
    "Ġshut": 2466,
    "Ġhahha": 9500,
    "Ġinfr": 26472,
    "males": 15943,
    "Ġsusan": 4029,
    "Ġshining": 3736,
    "didnt": 13901,
    "Ġlooo": 5135,
    "Ġblokes": 26143,
    "Ġitu": 14530,
    "imo": 19070,
    "Ġpuss": 20224,
    "depe": 27628,
    "Ġneck": 2894,
    "Ġhels": 19250,
    "Ġgras": 23876,
    "Ġrefu": 27156,
    "Ġbegining": 15178,
    "ddd": 4168,
    "Ġlaun": 10204,
    "net": 1231,
    "Ġspecs": 14025,
    "Ġdegeneres": 25962,
    "Ġ300": 5664,
    "Ġdarn": 3079,
    "Ġdescribe": 9585,
    "67": 25147,
    "Ġbaj": 26977,
    "Ġbeginning": 3954,
    "Ġupsets": 16253,
    "Ġsorry": 532,
    "Ł": 131,
    "Ġknocking": 15172,
    "Ġwed": 1235,
    "alous": 17143,
    "Ġlooking": 778,
    "bbling": 28162,
    "Ġshoes": 2297,
    "Ġstuffs": 9381,
    "Ġfoolish": 16048,
    "vis": 1390,
    "Ġwatcha": 23516,
    "ooo": 710,
    "Ġdemol": 21477,
    "Ġbled": 20064,
    "Ġbumper": 14733,
    "reee": 17649,
    "hangover": 20154,
    "Ġbumped": 11606,
    "Ġhell": 797,
    "Ġresumes": 24006,
    "Ġ;)": 1138,
    "Ġ68": 17303,
    "ass": 541,
    "Ġoffend": 17540,
    "Ġmarty": 22007,
    "Ġvitam": 17612,
    "Ġyang": 12404,
    "Ġyessss": 8395,
    "Ġlym": 23160,
    "Ġkennel": 22781,
    "phrase": 26590,
    "Ġpainfull": 25737,
    "Ġ260": 27994,
    "Ġyahh": 20295,
    "Ġgolden": 5809,
    "Ġpantry": 21050,
    "Ġinvolving": 18020,
    "Ġbabb": 23503,
    "de": 1055,
    "Ġsup": 5798,
    "Ġsequel": 13710,
    "Ġtit": 3131,
    "Ġins": 1831,
    "Ġgrand": 1600,
    "Ġtwugs": 21886,
    "Ġttyl": 6970,
    "Ġkie": 19832,
    "Ġdaph": 29553,
    "Ġpost": 913,
    "Ġtrapped": 9711,
    "Ġsalv": 15082,
    "Ġcah": 24798,
    "Ġpossibilities": 14732,
    "amine": 23493,
    "Ġattractive": 10216,
    "Ġlooks": 923,
    "Ġwasabi": 22377,
    "Ġrepo": 17558,
    "Ġusername": 6270,
    "Ġgues": 23525,
    "Ġ198": 14352,
    "Ġbaq": 24499,
    "ailing": 22206,
    "Ġprius": 23933,
    "Ġequal": 12871,
    "which": 5468,
    "Ġwalnut": 23631,
    "hihi": 17329,
    "Ġenqu": 24870,
    "Ġchipp": 26074,
    "Ġhenry": 10709,
    "Ġtorchwood": 17369,
    "Ġlool": 9875,
    "Ġpussy": 8773,
    "Ġsry": 5795,
    "Ġchoir": 9767,
    "Ġmea": 24482,
    "Ġtwent": 8403,
    "Ġpimp": 9963,
    "Ġtryed": 19480,
    "Ġqood": 19342,
    "Ġaaaah": 12232,
    "Âĥ": 1429,
    "cho": 4099,
    "Ġdick": 5188,
    "Ġdebris": 24520,
    "Ġhans": 23173,
    "Ġapproved": 10410,
    "Ġaband": 7452,
    "Ġsessions": 8268,
    "Ġfashion": 4233,
    "Ġmental": 6315,
    "Ġmotivate": 15267,
    "Ġleaking": 14163,
    "Ġjj": 9120,
    "aÂª": 5591,
    "Ġcrapp": 15602,
    "!)": 2334,
    ".!": 3946,
    "Ġwier": 7791,
    "Ġfiles": 5343,
    "Ġstreets": 8093,
    "Ġgameboy": 21199,
    "Ġroland": 13598,
    "impse": 21037,
    "Ġhaaha": 21538,
    "Ġnuit": 28496,
    "men": 2742,
    "Ġcou": 1445,
    "Ġwashin": 27724,
    "Ġzapp": 27095,
    "Ġunexpectedly": 21297,
    "Ġnoone": 6671,
    "Ġpay": 1270,
    "¯": 83,
    "Ġbrasil": 12884,
    "Ġestimated": 29383,
    "Ġfullest": 20530,
    "Ġacademic": 18187,
    "Ġwasting": 8295,
    "49": 11006,
    "Ġslumdog": 11138,
    "Ġbuyer": 19701,
    "fortun": 12184,
    "zx": 26891,
    "Ġincident": 10275,
    "Ġspanish": 3702,
    "Ġcancun": 19784,
    "Ġwatermelon": 11328,
    "Ġdrunk": 2414,
    "Ġcelebrate": 3945,
    "Ġdigit": 20124,
    "Ġcatalogue": 29249,
    "Ġguru": 15841,
    "Ġportal": 19722,
    "Ġfunnest": 25668,
    "Ġspent": 2051,
    "Ġcomputers": 6303,
    "wcchicago": 27758,
    "Ġstealth": 24685,
    "Ġvaio": 27721,
    "Ġstir": 10677,
    "Ġmothers": 2428,
    "nting": 12525,
    "atsu": 22993,
    "whale": 18868,
    "Ġdeep": 3502,
    "japan": 24774,
    "children": 23095,
    "amm": 22912,
    "Ġroyalty": 23362,
    "Ġsire": 15122,
    "Ġapprove": 10213,
    "ollo": 9464,
    "Ġenabled": 21559,
    "Ġmasks": 18485,
    "Ġmarrying": 21041,
    "Ġmayne": 23231,
    "Ġfeeds": 10767,
    "lies": 5892,
    "'": 10,
    "Ġdelete": 4837,
    "Ġrul": 21879,
    "cook": 11446,
    "Ġpsu": 26666,
    "Ġthumb": 6467,
    "Ġgeneral": 5050,
    "Ġsuspense": 16260,
    "Ġston": 18551,
    "Ġbride": 6402,
    "weed": 19429,
    "ould": 283,
    "Ġkately": 24489,
    "Ġdumps": 21854,
    "iland": 10003,
    "iste": 26099,
    "Ġsears": 24531,
    "Ġdangg": 29239,
    "Ġinform": 4849,
    "Ġmonitor": 7711,
    "Ġwheel": 5979,
    "Ġbleurgh": 27190,
    "Ġbeetle": 16984,
    "steen": 17921,
    "tty": 13520,
    "fran": 12916,
    "feed": 8147,
    "als": 1104,
    "pakcricket": 17896,
    "li": 1011,
    "Ġpaid": 3058,
    "waukee": 13584,
    "ist": 539,
    "ologist": 25468,
    "Ġweake": 25595,
    "ends": 29631,
    "Ġretirement": 17109,
    "mani": 27635,
    "gus": 15566,
    "untu": 6641,
    "Ġsunburn": 3227,
    "Ġescaping": 22059,
    "Ġtudors": 24049,
    "Ġwithout": 1144,
    "Ġstations": 13532,
    "Ġhammering": 28333,
    "Ġends": 4332,
    "Ġjau": 18233,
    "Ġscreens": 12504,
    "peut": 28080,
    "Ġtear": 4891,
    "Ġtimestamp": 16786,
    "Ġshitter": 28115,
    "95": 7722,
    "Ġ*~": 20294,
    "Ġwildwood": 26716,
    "Ġaubrey": 18665,
    "Ġjog": 9060,
    "Ġinches": 11539,
    "Ġclients": 6503,
    "Ġtweeting": 1971,
    "mesan": 28840,
    "Ġscratching": 15001,
    "Ġrugrats": 23991,
    "Ġfranz": 19943,
    "Ġtimothy": 27729,
    "lim": 5774,
    "puted": 29431,
    "Ġloner": 14117,
    "Ġtiger": 7679,
    "Ġpare": 1851,
    "Ġduncan": 23289,
    "Ġsamm": 16595,
    "Ġholiday": 2023,
    "Ġed": 1397,
    "alo": 7008,
    "Ġneopets": 28411,
    "Ġhen": 6611,
    "urity": 5536,
    "design": 13342,
    "Ġpreparing": 4440,
    "Ġyayyy": 6572,
    "rom": 9258,
    "Ġevicted": 27672,
    "uzz": 14680,
    "Ġ=\\": 14978,
    "igma": 28583,
    "Ġcoyote": 25925,
    "Ġjbs": 21142,
    "Ġrudd": 19179,
    "Ġnun": 14209,
    "Ġmcdonald": 5022,
    "Ġlightroom": 26659,
    "Ġrelations": 25788,
    "Ġclam": 21676,
    "Ġzil": 28117,
    "shakes": 17450,
    "Ġtwitterfox": 10801,
    "Ġya": 836,
    "Ġprez": 19281,
    "sing": 3659,
    "Ġspilt": 14701,
    "uarysunday": 26817,
    "Ġsidekick": 9827,
    "gether": 1588,
    "taken": 18756,
    "Ġachievements": 24009,
    "Ġdownhill": 14227,
    "Ġminimum": 13784,
    "Ġgenerally": 8540,
    "Ġpast": 1551,
    "Ġchunky": 20638,
    "indo": 13469,
    "website": 27799,
    "Ġillustrator": 18359,
    "Ġnecessarily": 17230,
    "hanna": 10013,
    "Ġhazelnut": 21324,
    "Ġfeast": 12267,
    "Ġclip": 6251,
    "Ġassassins": 23380,
    "Ġtattoo": 3780,
    "keeping": 21548,
    "Ġsle": 12822,
    "Ġbryan": 11409,
    "Ġpaw": 12278,
    "Ġko": 2875,
    "Ġvisual": 9860,
    "Ġowen": 14651,
    "letter": 10280,
    "Ġabo": 13741,
    "Ġprovides": 23357,
    "Ġsebastian": 19202,
    "Ġwhere": 726,
    "Ġpros": 7810,
    "alan": 23189,
    "Ġproduced": 17990,
    "Ġtrend": 8077,
    "Ġremark": 15421,
    "Ġorch": 21907,
    "Ġhiy": 22957,
    "Ġhighs": 29287,
    "ysong": 20952,
    "Ġagre": 3865,
    "Ġsamsung": 14281,
    "Ġsprings": 9949,
    "Ġ^__^": 21018,
    "Ġpizza": 2237,
    "Ġjail": 5070,
    "Ġgerald": 26006,
    "Ġdeliber": 23038,
    "Ġprotection": 11567,
    "storm": 9513,
    "Ġtutorials": 14575,
    "Ġunfair": 5779,
    "rific": 13015,
    "happybdaykrisallen": 18169,
    "Ġshelley": 29459,
    "Ġdollhouse": 11202,
    "Ġsupporter": 19889,
    "Ġsyg": 27133,
    "ateur": 18731,
    "Ġeso": 23906,
    "Ġdifferently": 16235,
    "Ġadmitting": 23658,
    "Ġcreme": 14730,
    "Ġstranded": 12547,
    "Ġdps": 29675,
    "Ġimportantly": 15624,
    "Ġhuff": 16924,
    "fool": 25971,
    "Ġsmelling": 12225,
    "Ġamusement": 18352,
    "Ġuggggh": 25480,
    "Ġtimezone": 20253,
    "Ġknights": 22024,
    "Ġpesto": 22170,
    "Ġfire": 1863,
    "Ġcee": 26910,
    "Ġhtt": 13248,
    "sey": 3291,
    "Ġmb": 7043,
    "Ġwoooooooo": 14682,
    "Ġau": 4361,
    "Ġdevest": 29764,
    "grins": 23899,
    "Ġsherlock": 28297,
    "Ġsmoking": 5861,
    "pping": 3777,
    "Ġopens": 9043,
    "Ġsteam": 8854,
    "Ġcloser": 4028,
    "Ġmystery": 8864,
    "Ġacting": 4149,
    "Ġhandwriting": 24599,
    "Ġpard": 18084,
    "grrrr": 24071,
    "Ġflesh": 16317,
    "Ġpollution": 24709,
    "Âĳ": 1984,
    "turns": 28899,
    "Ġkiwi": 13511,
    "Ġjoe": 2797,
    "kris": 14130,
    "Ġholy": 3134,
    "Ġerrrr": 21468,
    "Ġweekday": 19082,
    "Ġcall": 702,
    "Ġmangos": 20851,
    "atemala": 25518,
    "famous": 27269,
    "Ġnursing": 9201,
    "Ġpah": 16527,
    "Ġexplaining": 13572,
    "Ġexa": 14541,
    "Ġstatement": 7283,
    "aded": 5438,
    "Ġryan": 3948,
    "Ġgoody": 16543,
    "Ġnostr": 26982,
    "Ġguestlist": 28257,
    "compete": 29529,
    "Ġnae": 22231,
    "ilee": 25232,
    "Ġ50": 2855,
    "Ġnearing": 21967,
    "iago": 29204,
    "Ġvalley": 7009,
    "muah": 21535,
    "Ġmavs": 19841,
    "roke": 17948,
    "walking": 18536,
    "Ġdrivers": 6588,
    "Ġdad": 1004,
    "Ġtwas": 8899,
    "Ġindie": 11721,
    "Ġhaaaaa": 22895,
    "athed": 24809,
    "Ġaugh": 14858,
    "Ġpowerpoint": 14900,
    "Ġmermaid": 13416,
    "Ġemo": 6382,
    "Ġthatd": 26032,
    "Ġshir": 13939,
    "Ġpanda": 6285,
    "igne": 22935,
    "ante": 10681,
    "ners": 4290,
    "Ġgeneva": 21973,
    "Ġorganizing": 11786,
    "Ġdeathly": 20572,
    "Ġhouses": 7820,
    "Ġfeat": 6311,
    "Ġtraumat": 16502,
    "Ġsellers": 26200,
    "Ġstain": 14536,
    "Ġ2100": 29356,
    "Ġsighh": 25797,
    "Ġbowl": 5056,
    "Ġreporting": 13100,
    "namese": 20592,
    "sg": 12250,
    "Ġmcflurry": 23420,
    "Ġsometh": 21890,
    "Ġminded": 16689,
    "Ġmusso": 11342,
    "Ġpurchasing": 21528,
    "Ġflirting": 14852,
    "Ġmotivated": 8222,
    "fection": 4367,
    "took": 15024,
    "Ġvalky": 27375,
    "eeeed": 26929,
    "uro": 14467,
    "Ġdrinks": 3457,
    "Ġreckless": 26766,
    "Ġminnea": 18761,
    "Ġbrushing": 15058,
    "ini": 3970,
    "Ġinconsider": 22306,
    "acing": 9379,
    "Ġbrag": 21959,
    "mallows": 18355,
    "frog": 22857,
    "Ġhampshire": 24744,
    "12": 3850,
    "Ġaahhh": 17340,
    "opper": 26503,
    "abs": 13956,
    "Ġjet": 4770,
    "Ġalternate": 18332,
    "ager": 11765,
    "Ġtrooper": 23864,
    "icing": 5443,
    "hannah": 19182,
    "Ġrockies": 29907,
    "hmmm": 10158,
    "Ġtame": 21422,
    "Ġjewels": 28372,
    "Ġskirts": 18278,
    "Ġgoodmornin": 25225,
    "Ġmatters": 7486,
    "Ġclosed": 2737,
    "Ġemployer": 19958,
    "pinging": 18011,
    "Ġkristen": 6494,
    "Ġnorwich": 17993,
    "Ġtsa": 25988,
    "Ġmoe": 16420,
    "Ġemployed": 19166,
    "Ġcaf": 14170,
    "Ġrendering": 16654,
    "Ġsytycd": 9168,
    "Ġini": 13799,
    "Ġabby": 10544,
    "Ġpunches": 29394,
    "Ġhottt": 19688,
    "://": 24062,
    "wr": 4273,
    "Ġintegr": 9945,
    "Ġ1995": 28204,
    "sence": 11588,
    "Ġmuck": 29775,
    "sie": 12892,
    "Ġbees": 8581,
    "Ġmedium": 10776,
    "Ġyeaa": 12266,
    "Ġedinburgh": 8226,
    "Ġhiber": 19089,
    "Ġmo": 383,
    "Ġconnected": 7935,
    "Ġpeople": 602,
    "Ġinventory": 15748,
    "attack": 20765,
    "Ġrows": 18712,
    "Ġcinemas": 16725,
    "Ġhail": 9264,
    "Â¼": 4905,
    "Ġthesis": 8869,
    "Ġoffic": 12955,
    "Ġecu": 26942,
    "urs": 1566,
    "Ġempire": 11828,
    "Ġskyline": 16946,
    "pill": 21348,
    "Ġuhmmm": 24640,
    "Ġstanky": 22367,
    "Ġelepha": 9473,
    "Ġbaking": 5699,
    "Ġjv": 25588,
    "Ġgrandpa": 5942,
    "Ġflattering": 29358,
    "pull": 22864,
    "Ġtwidroid": 26338,
    "Ġket": 10607,
    "Ġhaaa": 10353,
    "teen": 17383,
    "Ġcrawl": 8779,
    "Ġahahaha": 8629,
    "oosh": 24107,
    "Ġem": 1046,
    "Ġdreadful": 14505,
    "runner": 25857,
    "Ġbrendon": 26330,
    "e": 44,
    "Ġganna": 21130,
    "Ġtween": 22143,
    "bag": 8210,
    "Ġworkshops": 21647,
    "Ġflaws": 28879,
    "Ġukulele": 27158,
    "Ġsomethin": 6003,
    "Ġthemm": 27443,
    "Ġmerch": 12927,
    "Ġbehave": 13734,
    "Ġhalp": 19637,
    "Ġerra": 5224,
    "ross": 1535,
    "Ġvot": 2377,
    "Ġrusty": 12708,
    "Ġferris": 20590,
    "bur": 3214,
    "Ġdearly": 12223,
    "Ġconverse": 11109,
    "Ġscar": 4859,
    "Ġaargh": 17347,
    "Ġbullied": 21753,
    "Ġschoo": 8312,
    "Ġplates": 15326,
    "Ġproving": 17959,
    "Ġflint": 28627,
    "Ġerica": 13962,
    "Ġhabits": 13643,
    "Ġprivacy": 15437,
    "Ġwatch": 416,
    "Ġluau": 24952,
    "Ġain": 3111,
    "hk": 26388,
    "Ġsux": 4205,
    "Ġloses": 11311,
    "Ġlawd": 21262,
    "Ġabst": 21169,
    "Ġblankie": 27228,
    "uson": 26994,
    "Ġpr": 585,
    "Ġhappens": 2419,
    "Ġprettiest": 18524,
    "Ġburden": 21963,
    "Ġnvm": 10710,
    "Ġmaa": 10432,
    "Ġsquish": 16703,
    "ended": 9601,
    "Ġkerrang": 20608,
    "Ġmanagement": 7325,
    "Ġdelicious": 3236,
    "lost": 8372,
    "Ġmassachusetts": 23618,
    "Ġadvoc": 20950,
    "about": 8134,
    "Ġnessa": 23471,
    "bies": 7490,
    "irect": 16126,
    "Ġhulk": 17025,
    "Ġsarahs": 25027,
    "Ġtaurus": 29170,
    "Ġwir": 24088,
    "Ġculd": 18944,
    "Ġtransferring": 20374,
    "Ġgiving": 2494,
    "Ġproject": 1945,
    "Ġsu": 239,
    "Ġnorm": 2360,
    "Ġswear": 3406,
    "coz": 9584,
    "Ġanswered": 6958,
    "Ġflore": 14796,
    "story": 17022,
    "Ġliter": 3607,
    "Ġuff": 17655,
    "Ġmarriage": 7685,
    "lllllll": 23014,
    "Ġparrot": 22446,
    "sighs": 11521,
    "Ġiremember": 8030,
    "owning": 29691,
    "ifications": 11317,
    "mobile": 7067,
    "pple": 7528,
    "Ġeta": 21382,
    "Ġbasement": 7593,
    "mission": 6872,
    "unno": 26508,
    "Ġswac": 25690,
    "piece": 15109,
    "Ġboards": 11384,
    "Ġindeedy": 24641,
    "Ġbondi": 25871,
    "broke": 19750,
    "Ġconvertible": 20379,
    "Ġclarification": 24702,
    "Ġwidget": 11405,
    "Ġbaptism": 19184,
    "Ġlaguna": 15845,
    "Ġdes": 1012,
    "Ġdetermined": 10030,
    "ir": 256,
    "Ġmedal": 19120,
    "liter": 15023,
    "Ġbuddah": 27310,
    "Ġcompilation": 29882,
    "Ġsuga": 27669,
    "Ġwouldn": 1990,
    "arent": 25278,
    "Ġamaze": 12850,
    "Ġintended": 11155,
    "Ġsugar": 3832,
    "Ġspotify": 9001,
    "Ġcrut": 14976,
    "uing": 16281,
    "west": 8367,
    "Ġwitch": 11665,
    "Ġbrekkie": 16435,
    "Ġmumma": 27540,
    "Ġmacs": 10590,
    "¡": 70,
    "Ġchopping": 27551,
    "Ġscrub": 10742,
    "Ġyeah": 582,
    "Ġpuked": 16697,
    "cided": 24769,
    "aus": 22586,
    "Ġcoke": 4624,
    "Ġspeech": 5176,
    "Ġoverboard": 26554,
    "Ġchief": 14962,
    "bi": 6463,
    "Ġpyramid": 25515,
    "Ġgoog": 7834,
    "bly": 4023,
    "Ġkens": 29900,
    "Ġow": 2788,
    "Ġsanj": 26696,
    "Ġkayla": 10703,
    "Ġsports": 4158,
    "Ġprocrastination": 12804,
    "Ġsubstitute": 15380,
    "Ġemang": 26616,
    "Ġstrained": 27646,
    "Ġcelsius": 27870,
    "Ġbounce": 11012,
    "Ġantic": 8321,
    "Ġguild": 12100,
    "Ġzzzzz": 15751,
    "Ġsheesh": 10391,
    "Ġtape": 6288,
    "Ġstoppin": 29096,
    "reader": 28159,
    "Ġgold": 3112,
    "Ġquery": 19870,
    "Ġsharp": 9557,
    "Ġbiot": 24092,
    "Ġbuti": 24127,
    "Ġofficially": 2253,
    "Ġao": 17642,
    "uni": 20242,
    "Ġroomm": 6786,
    "Ġdragged": 11468,
    "Ġemerg": 6417,
    "Ġtshirt": 10492,
    "won": 12753,
    "Ġoa": 26933,
    "Ġshallow": 18799,
    "Ġlana": 22350,
    "orie": 17518,
    "Ġslipknot": 24003,
    "Ġvege": 19313,
    "Ġchennai": 16798,
    "singing": 22001,
    "lock": 4148,
    "Ġwai": 16907,
    "Ġuggg": 14458,
    "ulin": 24861,
    "Ġzoe": 10845,
    "Ġnod": 18907,
    "Ġexempt": 25648,
    "Ġborn": 4568,
    "Ġgrandmother": 7954,
    "Ġturns": 3570,
    "ulus": 21904,
    "Ġexec": 28335,
    "Ġaboard": 14853,
    "Ġincom": 21384,
    "Ġava": 15423,
    "thur": 13663,
    "Ġpixar": 9250,
    "Ġcolleges": 26668,
    "Ġchirping": 16065,
    "Ġbooted": 17828,
    "center": 16464,
    "Ġveteran": 29560,
    ";^": 25963,
    "Ġefficient": 16988,
    "lines": 5614,
    "esis": 29695,
    "Ġcatastrop": 27080,
    "Ġhazy": 29684,
    "Ġarghhh": 11730,
    "Ġmanager": 5929,
    "Ġdisadvant": 27062,
    "Ġcanberra": 16106,
    "Ġexciteddd": 27078,
    "Ġbanjo": 22244,
    "99": 4773,
    "Ġblogger": 8762,
    "Ġlakers": 2601,
    "Ġmosc": 13943,
    "Ġfx": 12823,
    "Ġimats": 21406,
    "onies": 15574,
    "Ġasot": 14083,
    "ooza": 22894,
    "Ġdancing": 2925,
    "Ġwhis": 5884,
    "Ġfreebie": 20094,
    "Ġatlanta": 5616,
    "Ġsalute": 21728,
    "ry": 278,
    "Ġhava": 28503,
    "Ġturnout": 18285,
    "Ġoutage": 14013,
    "Ġeugene": 20402,
    "Ġbreath": 4748,
    "edom": 5247,
    "quick": 21643,
    "Ġroots": 9616,
    "Ġ36": 7779,
    "Ġsums": 19055,
    "Ġbroth": 26089,
    "Ġstumbled": 18896,
    "Ġworkers": 13192,
    "Ġrestaurants": 14048,
    "Ġvt": 20050,
    "kane": 23437,
    "Ġaffected": 13911,
    "iantly": 23029,
    "Ġabbey": 16549,
    "Ġjuss": 10231,
    "Ġsnoo": 9418,
    "Ġparamore": 6565,
    "Ġlw": 26915,
    "Ġdaytona": 26824,
    "Ġpowder": 12560,
    "Ġclueless": 12872,
    "Ġmiser": 4107,
    "):": 10417,
    "Ġbabysit": 3973,
    "Ġwomens": 20658,
    "Ġterror": 11386,
    "Ġrefr": 19646,
    "Ġplague": 17628,
    "Ġhiks": 16570,
    "_-": 5932,
    "Ġchains": 14966,
    "Ġfork": 14382,
    "Ġdag": 18539,
    "uta": 26486,
    "Ġearned": 11458,
    "Ġbackup": 7045,
    "amn": 14951,
    "Ġcaleb": 14280,
    "Ġlegendary": 16734,
    "Ġ5800": 20958,
    "Ġhahahahahaha": 11728,
    "yyyyyyyyyyy": 21526,
    "paris": 23680,
    "Ġsyst": 3187,
    "Ġcarri": 14971,
    "Ġaust": 4323,
    "Ġnetbook": 9614,
    "clie": 27877,
    "Ġbestfriends": 15941,
    "Ġwiggle": 27803,
    "Ġnooooooooooo": 18176,
    "Ġyouth": 6172,
    "Ġtacky": 22938,
    "action": 10868,
    "wash": 15206,
    "Ġniki": 26920,
    "pics": 8890,
    "italy": 29687,
    "Ġwhatchu": 25638,
    "spotify": 27323,
    "Ġmob": 8918,
    "lem": 10674,
    "Ġappro": 4002,
    "Ġalmonds": 23104,
    "Ġkane": 18553,
    "udes": 15897,
    "getha": 28095,
    "Ġpush": 4646,
    "Ġcooper": 7427,
    "ine": 450,
    "Ĺ": 124,
    "Ġexperimenting": 20162,
    "Ġlasted": 7842,
    "ision": 14947,
    "Ġrefuse": 8060,
    "Ġtelling": 3229,
    "Ġdi": 661,
    "chris": 16773,
    "Ġrachael": 21525,
    "Ġsuddenly": 4871,
    "Ġtubes": 16969,
    ".]": 19207,
    "Ġras": 6077,
    "dddddd": 17589,
    "Ġtwatter": 26291,
    "Ġmiley": 2026,
    "Ġwooooooo": 20355,
    "gr": 1209,
    "Ġcircus": 9774,
    "files": 19616,
    "Ġpaddle": 19746,
    "Ġovers": 7498,
    "Ġbikram": 28290,
    "fy": 7096,
    "Ġcraziest": 19167,
    "oodoo": 19836,
    "chieb": 25047,
    "Ġxxxxxxxxxxx": 16586,
    "Ġjournalism": 14513,
    "Ġothers": 2701,
    "Ġtheories": 27444,
    "Ġcorre": 8279,
    "logne": 14177,
    "Ġkl": 6292,
    "Ġkimm": 23187,
    "Ġrelapse": 25789,
    "!#": 29613,
    "Ġtraining": 2906,
    "Ġ;;)": 27608,
    "Ġchoices": 9042,
    "Ġmississippi": 20403,
    "Ġpersist": 21705,
    "earth": 17695,
    "Ġella": 14007,
    "Ġsap": 19066,
    "Ġinternship": 7836,
    "Ġpaints": 25308,
    "pical": 23759,
    "Ġincase": 13892,
    "Ġmoustache": 23710,
    "Ġshooting": 5206,
    "Ġcoup": 8715,
    "reply": 16761,
    "Ġcrayons": 27342,
    "ude": 1239,
    "Ġanx": 5077,
    "Ġoffices": 13665,
    "Ġmeat": 4697,
    "igence": 17796,
    "Ġcleans": 24214,
    "Ġlandmark": 27685,
    "Ġangels": 4314,
    "Ġpug": 13080,
    "Ġevar": 20552,
    "Ġengage": 8907,
    "Ġsubscription": 13116,
    "Ġextreme": 3142,
    "Ġfic": 9030,
    "Ġapp": 664,
    "Ġpeachy": 20776,
    "Ġsimilar": 5425,
    "Ġcof": 25259,
    "click": 15826,
    "Ġlaunching": 16052,
    "Ġhawaiian": 15738,
    "Ġanalog": 17942,
    "Ġdisapointed": 15198,
    "Ġburst": 8805,
    "Ġware": 14392,
    "Ġsunshine": 1933,
    "Ġsuncream": 16203,
    "Ġshortest": 23124,
    "Ġbugg": 20492,
    "Ġverse": 16034,
    "Ġrecon": 11959,
    "rrrrrrrrr": 21531,
    "Ġema": 17521,
    "Ġconch": 18571,
    "Ġhis": 717,
    "Ġbilang": 29512,
    "jal": 20202,
    "Ġlaunches": 25096,
    "ource": 16550,
    "Ġhartford": 23552,
    "Ġhackers": 19577,
    "Ġheather": 7854,
    "Ġprotests": 20385,
    "ondon": 1841,
    "Ġflu": 1950,
    "glo": 19212,
    "Ġmt": 5133,
    "Ġgerms": 19527,
    "Ġabuse": 11338,
    "Ġshape": 6190,
    "Ġexpo": 10389,
    "Ġowns": 12969,
    "cond": 15383,
    "Ġyelling": 9131,
    "Ġweeeee": 17951,
    "andyhurley": 9901,
    "Ġunlucky": 11714,
    "Ġtodayyyy": 21168,
    "Ġproto": 19944,
    "Ġcheque": 20068,
    "Ġrodney": 23681,
    "Ġnasi": 24706,
    "Ġcab": 3581,
    "Ġfam": 875,
    "since": 10751,
    "download": 17852,
    "Ġahhhhhh": 9113,
    "Ġsust": 17257,
    "Ġpatricia": 26363,
    "Ġpor": 4391,
    "Ġ2005": 16826,
    "Ġriding": 4356,
    "dat": 20002,
    "Ġyeeah": 23669,
    "utner": 9161,
    "Ġgettting": 21065,
    "Ġindonesian": 19386,
    "Ġnay": 12647,
    "Ġmarshall": 14929,
    "Ġjoin": 1620,
    "Ġinbetween": 15037,
    "Ġnovice": 29751,
    "Ġsilly": 2807,
    "Ġjesse": 7848,
    "Ġback": 327,
    "Ġloosing": 10249,
    "adam": 20232,
    "mau": 25536,
    "Ġshaheen": 14549,
    "Ġcontroller": 13711,
    "Ġmodest": 16712,
    "Ġpapers": 5453,
    "easy": 19021,
    "Ġubisoft": 27258,
    "Ġavoiding": 9982,
    "elle": 15763,
    "Ġsitter": 14628,
    "ignon": 28109,
    "Ġnoooooooooooo": 21287,
    "tri": 11806,
    "Ġpepto": 28934,
    "intheworld": 13126,
    "Ġsuited": 25217,
    "Ġchipotle": 10447,
    "Ġleaves": 3921,
    "Ġdesign": 2616,
    "Ġconcerts": 6354,
    "Ġpart": 640,
    "Ġandrea": 10027,
    "..,": 17512,
    "Ġ125": 20982,
    "Ġcheeky": 12562,
    "Ġstacks": 25433,
    "Ġthinkin": 4989,
    "Ġsep": 3742,
    "Ġdevo": 14503,
    "fin": 4122,
    "Ġhosting": 7194,
    "Ġcutting": 5525,
    "Ġmiller": 15260,
    "Ġplugging": 23202,
    "Ġkilled": 3143,
    "Ġurs": 8877,
    "Ġwhata": 19461,
    "Ġpea": 2004,
    "Ġhamp": 15135,
    "tiny": 21230,
    "Ġdred": 29052,
    "Ġtunes": 6011,
    "89": 10032,
    "Ġlogging": 10643,
    "Ġzip": 11463,
    "Ġ21": 2926,
    "tf": 1886,
    "ı": 116,
    "aled": 10761,
    "tttttttt": 9743,
    "Ġhahahahahahaha": 21003,
    "rm": 12249,
    "Ġheath": 9725,
    "Ġprejudice": 16268,
    "Ġsaturday": 1214,
    "silly": 24432,
    "Ġfuckk": 22970,
    "soul": 14679,
    "pissed": 26399,
    "Ġwashing": 3563,
    "Ġgust": 10716,
    "Ġlor": 7317,
    "Ġunderstanding": 9920,
    "ove": 4659,
    "Ġmagn": 9271,
    "Ġwheeee": 26996,
    "Ġdepress": 1923,
    "ista": 5446,
    "Ġtransit": 16338,
    "Ġtargets": 27752,
    "even": 5387,
    "Ġhowd": 24858,
    "fff": 9609,
    "Ġveg": 9551,
    "Ġnote": 2512,
    "tummy": 27117,
    "Ġlimits": 11605,
    "quate": 22647,
    "Ġbrah": 25324,
    "Ġuri": 27470,
    "Ġhamburg": 17743,
    "Ġhov": 28669,
    "ube": 8465,
    "Ġassumption": 28680,
    "princess": 24047,
    "hear": 19229,
    "Ġspoon": 9129,
    "Ġprague": 18318,
    "mir": 21599,
    "Ġautot": 18471,
    "Ġpolitical": 12875,
    "Ġbullets": 24295,
    "Ġdifferences": 16459,
    "Ġwat": 360,
    "Ġ?,": 15071,
    "rb": 25539,
    "Ġpoison": 6026,
    "losure": 21053,
    "?.": 12511,
    "Ġbany": 24091,
    "Ġbureau": 25953,
    "Ġrawr": 9392,
    "Ġpitt": 7033,
    "Ġpneum": 16632,
    "Ġdeleting": 9348,
    "Ġhilar": 2777,
    "Ġmoooo": 21845,
    "Ġfinee": 29766,
    ":@": 22087,
    "Ġk": 229,
    "Ġindependence": 22055,
    "Ġinvented": 11289,
    "Ġtwee": 3956,
    "Ġpake": 25186,
    "Ġbecas": 29219,
    "Ġnooo": 3681,
    "Ġmcfl": 21236,
    "Ġatlantic": 8671,
    "Ġbenny": 15725,
    "Ġapology": 17867,
    "Ġutube": 16651,
    "Ġrelatively": 15371,
    "Ġtouches": 14742,
    "Ġtigger": 27980,
    "Ġperman": 8922,
    "ooky": 14540,
    "Ġmill": 2643,
    "loss": 12907,
    "Ġgrill": 5713,
    "apolis": 22412,
    "ptu": 14486,
    "opened": 25222,
    "Ġvbs": 12770,
    "Ġhihi": 7844,
    "Ġstanding": 4877,
    "Ġagain": 476,
    "Ġrasp": 10483,
    "Ġaby": 24515,
    "Ġcloudy": 4346,
    "Ġlime": 7414,
    "Ġstrangest": 25961,
    "Ġamazingness": 27604,
    "Ġstavros": 9930,
    "Ġhaunted": 16499,
    "Ġpaintballing": 26815,
    "Ġoverloaded": 23701,
    "Ġfinds": 8132,
    "Ġforthcoming": 29486,
    "Ġslayer": 25496,
    "Ġjl": 22907,
    "Ġgrows": 13773,
    "Ġpeice": 25274,
    "Ġrocket": 11029,
    "Ġholes": 10170,
    "ivered": 7417,
    "Ġcas": 3510,
    "Ġimo": 9211,
    "Ġphe": 15394,
    "Ġmout": 29034,
    "Ġcommon": 5521,
    "Ġcrowd": 4868,
    "ike": 1519,
    "Ġpomegran": 24763,
    "Ġjelous": 12885,
    "cah": 27393,
    "ugh": 3664,
    "hurry": 27773,
    "Ġduno": 15354,
    "Ġtart": 13240,
    "Ġ130": 13603,
    "Ġoceanup": 21768,
    "Ġmicrow": 9018,
    "istry": 4327,
    "Ġpathetic": 6534,
    "Ġtranny": 22063,
    "Ġexceptional": 27306,
    "Ġrh": 6914,
    "dough": 24770,
    "Ġgak": 19632,
    "Ġmph": 15771,
    "bg": 23744,
    "owner": 29186,
    "Ġcup": 1782,
    "Ġshop": 1936,
    "Ġrecords": 8556,
    "Ġtrailers": 16599,
    "Ġchillaxing": 18650,
    "Ġsydney": 4174,
    "Ġhuni": 27625,
    "Ġdeadline": 7696,
    "Ġtennessee": 12286,
    "Ġchips": 4386,
    "Ġdark": 2399,
    "chem": 13819,
    "ressive": 24900,
    "Ġcharice": 17572,
    "Ġcubbies": 25053,
    "Ġhellish": 23240,
    "Ġvans": 18104,
    "Ġshun": 25617,
    "Ġloan": 9908,
    "Ġtoffee": 16093,
    "Ġyday": 12947,
    "Ġxcode": 29803,
    "Ġiranians": 20136,
    "Ġsele": 3926,
    "Ġleave": 1005,
    "omp": 6987,
    "Ġflushed": 24198,
    "ooon": 27941,
    "Ġchalk": 18124,
    "Ġhides": 22625,
    "Ġange": 2440,
    "Ġforwarded": 25312,
    "Ġeurovision": 8165,
    "Ġshoooo": 27514,
    "Ġquir": 19086,
    "umbles": 22225,
    "Ġdeath": 2530,
    "Ġhere": 436,
    "Ġmarmite": 21447,
    "Ġexperiments": 25354,
    "Ġbritish": 5649,
    "tra": 3928,
    "Ġlandsc": 13111,
    "Ġforte": 26479,
    "Ġgoat": 11758,
    "Ġmanner": 21184,
    "Ġswimming": 2842,
    "Ġpyram": 21811,
    "Ġhahaha": 1106,
    "Ġeddie": 11466,
    "olly": 8405,
    "Ġgeoff": 18452,
    "aps": 4482,
    "brid": 15708,
    "Ġfergie": 26825,
    "Ġflowers": 4178,
    "ific": 3065,
    "ibu": 14639,
    "Ġwhale": 8650,
    "Ġdocumentary": 11288,
    "Ġturtle": 8857,
    "Ġensure": 24177,
    "Ġcriminal": 13127,
    "?&": 3587,
    "Ġjackson": 6520,
    "Ġ96": 12724,
    "Ġcoachella": 15225,
    "Ġprovidence": 22533,
    "Ġeconomic": 16496,
    "Ġgil": 7624,
    "bleh": 22940,
    "Ġhavoc": 27187,
    "Ġbetcha": 21921,
    "atoga": 27466,
    "Ġdangit": 12924,
    "Ġsteep": 22909,
    "Ġmansfield": 21316,
    "gokeyisadouche": 27831,
    "Ġmere": 11587,
    "bump": 25526,
    "Ġaint": 2603,
    "Ġcollea": 8624,
    "Ġsymphony": 21094,
    "garden": 23406,
    "Ġhumble": 13337,
    "Ġnoth": 26501,
    "Ġframing": 29742,
    "ur": 289,
    "rog": 11544,
    "Ġgoodtimes": 27513,
    "Ġripe": 25811,
    "cri": 2464,
    "Ġameric": 8381,
    "Ġhallway": 17456,
    "Ġmedication": 13505,
    "Ġwhoot": 14696,
    "sav": 21836,
    "ryt": 29749,
    "wol": 15469,
    "ithia": 29321,
    "Ġdorothy": 27281,
    "Ġmanicure": 15496,
    "Ġmahal": 24850,
    "Ġrings": 7625,
    "Ġfinance": 13142,
    "Ġneve": 29747,
    "Ġawe": 3940,
    "Ġportuguese": 12130,
    "ences": 10041,
    "bug": 10539,
    "Ġuuu": 9815,
    "Ġtml": 24443,
    "jtv": 20006,
    "aken": 14167,
    "Ġfreeee": 24215,
    "Ġclover": 22447,
    "Ġthingies": 28604,
    "Ġkarina": 28813,
    "Ġrejoice": 24041,
    "Ġhahaah": 22667,
    "Ġsubtit": 17074,
    "Ġjaime": 20351,
    "Ġcouncil": 11654,
    "Ġjab": 11947,
    "Ġkyte": 24330,
    "istics": 10585,
    "itical": 26452,
    "Ġworkstation": 27520,
    "Ġnur": 6732,
    "Ġorthodontist": 16167,
    "Ġrecieving": 28913,
    "Ġchatted": 16025,
    "ogra": 2559,
    "Ġdomin": 9690,
    "ropriate": 7721,
    "Ġconvince": 7241,
    "Ġ27": 5040,
    ";/": 5478,
    "Ġvin": 6310,
    "Ġcarriage": 26819,
    "bris": 20755,
    "ray": 4030,
    "Ġwhatevs": 17487,
    "Ġidiot": 4910,
    "Ġbestfriend": 6294,
    "Ġbackstage": 12351,
    "Ġnicks": 17701,
    "8": 27,
    "mmen": 14069,
    "Ġmidtown": 29294,
    "Ġhayfever": 4862,
    "Ġscreams": 15534,
    "lls": 11369,
    "mac": 8665,
    "Ġcharacters": 5116,
    "chas": 23918,
    "iso": 17264,
    "Ġoffer": 3758,
    "leton": 14736,
    "Ġbelle": 10940,
    "Ġcocks": 29797,
    "Ġwowww": 20744,
    "Ġrockband": 13397,
    "Ġdrenched": 14599,
    "Ġprank": 14156,
    "Ġdreams": 1932,
    "Ġwalked": 3890,
    "Ġcary": 28079,
    "Ġadditions": 29248,
    "Ġmessing": 6937,
    "poke": 23446,
    "Ġstones": 11710,
    "Ġmaj": 2521,
    "Ġtremend": 18601,
    "Ġvia": 2665,
    "Ġpoolside": 14729,
    "Ġsafer": 17794,
    "Ġplaystation": 18131,
    "lvatt": 17627,
    "Ġconcussion": 24237,
    "Ġfrances": 19741,
    "Ġqs": 29338,
    "Ġlie": 3140,
    "Ġmio": 26900,
    "Ġdiary": 12051,
    "Ġgg": 7185,
    "Ġdistribution": 26328,
    "xxx": 7781,
    "nite": 2525,
    "Ġauthentic": 19408,
    "Ġfollowing": 1250,
    "Ġgeck": 28715,
    "Ġassoci": 11018,
    "holes": 20799,
    "Ġlinds": 28849,
    "shower": 16119,
    "Ġolder": 4104,
    "Ġsepar": 7230,
    "ty": 587,
    "Ġwanda": 29149,
    "Ġpul": 8749,
    "Ġfps": 27915,
    "Ġsmelt": 29320,
    "Ġryt": 15832,
    "Ġorganic": 10019,
    "firefox": 26250,
    "Ġpretzel": 24209,
    "been": 9399,
    "Ġgerry": 27161,
    "16": 6971,
    "ul": 403,
    "locks": 28578,
    "Ġchameleon": 28995,
    "ancies": 27460,
    "sister": 21603,
    "Ġmaternity": 19760,
    "Ġcurled": 13152,
    "Ġspends": 24957,
    "uuuu": 2183,
    "Ġ=&": 15242,
    "o": 54,
    "Ġbait": 21646,
    "Ġlaughs": 8103,
    "Ġphones": 4577,
    "Ġgirlz": 26582,
    "Ġ?..": 29236,
    "Ġsegment": 16312,
    "Ġbub": 15149,
    "away": 5048,
    "Ġomj": 11460,
    "morning": 3189,
    "atha": 22900,
    "Ġjumpers": 28783,
    "Ġgreenday": 18201,
    "Ġovercast": 8517,
    "uled": 5999,
    "Ġbully": 15499,
    "hhhhhhhh": 3672,
    "Ġbist": 22608,
    "Ġsorta": 7264,
    "Ġimperson": 19160,
    "'....": 26856,
    "Ġoe": 29072,
    "Ġflush": 16673,
    "Ġalrighty": 12551,
    "Ġ..": 856,
    "Ġraising": 14991,
    "illes": 17939,
    "Ġsunbathing": 8025,
    "Ġlay": 1669,
    "Ġindia": 5379,
    "Ġhemp": 26482,
    "Ġhousewarming": 27275,
    "Ġcamcorder": 21722,
    "public": 20210,
    "Ġjudging": 12982,
    "Ġrobin": 6817,
    "Ġpinot": 20804,
    "Ġmojito": 19401,
    "Ġ98": 11153,
    "Ġpatio": 9386,
    "Ġauthority": 24718,
    "seconds": 24367,
    "Ġoccasionally": 15554,
    "Ġffs": 10958,
    "Ġotay": 29407,
    "Ġdiscontin": 15847,
    "Ġwarner": 20100,
    "Ġpulling": 6796,
    "zers": 18537,
    "Ġfrends": 28099,
    "Ġemotions": 10291,
    "Ġbruce": 9745,
    "Ġjerky": 28205,
    "Ġnowt": 17406,
    "crossing": 24732,
    "Ġslump": 25244,
    "Ġslug": 26065,
    "Ġmercedes": 23731,
    "nal": 5134,
    "Ġinst": 1159,
    "pelled": 15692,
    "Ġhosts": 21269,
    "Ġresur": 23268,
    "unge": 19657,
    "ooked": 15401,
    "drops": 19737,
    "Ġfangirl": 19005,
    "Ġchildish": 22242,
    "Ġnanny": 9620,
    "iendo": 18573,
    "Ġprotocol": 24758,
    "Ġtaunt": 19471,
    "relax": 15773,
    "sar": 13070,
    "Ġshhh": 12594,
    "Ġdusting": 27446,
    "Ġyes": 644,
    "Ġhillary": 23647,
    "Ġtopless": 19040,
    "thday": 12528,
    "keep": 7361,
    "Ġsoft": 2575,
    "iat": 17638,
    "inside": 21612,
    "drupal": 23969,
    "Ġvegas": 2523,
    "Ġ().": 23215,
    "Ġhott": 5079,
    "Ġadela": 12718,
    "Ġkrystal": 23711,
    "Ġtongue": 5793,
    "Ġtucson": 17059,
    "Ġexceptions": 26196,
    "Ġreboot": 11611,
    "ano": 7392,
    "Ġwandering": 13744,
    "part": 5060,
    "Ġwooohoooo": 29388,
    "Ġlucozade": 28997,
    "Ġasshole": 7980,
    "Ġmusician": 14237,
    "erte": 29056,
    "Ġfriggen": 18177,
    "pil": 24428,
    "Ġsurviv": 8859,
    "Ġnickelback": 22568,
    "Ġrollerbl": 23071,
    "Ġkimmy": 20823,
    "anys": 27945,
    "Ġenvelope": 22674,
    "Ġcreeps": 19733,
    "Ġbring": 1356,
    "Ġwad": 16643,
    "android": 21423,
    "Ġearthquakes": 16610,
    "Ġeugh": 13250,
    "Ġ:,(": 28620,
    "Ġbeverly": 15778,
    "eh": 9697,
    "Ġnigh": 15213,
    "Ġhmpf": 28970,
    "Ġunderstood": 10217,
    "traffic": 27216,
    "Ġuppppp": 24496,
    "Ġamb": 7680,
    "yton": 22100,
    "tag": 6919,
    "Ġactions": 13754,
    "ittt": 19862,
    "Ġvicious": 16905,
    "Ġallie": 18721,
    "Ġromeo": 12691,
    "nj": 24425,
    "Ġ--&": 7955,
    "Ġtab": 9973,
    "Ġtweeet": 21275,
    "Ġhilary": 19587,
    "Ġdecade": 13484,
    "Ġluved": 28703,
    "Ġunpredic": 24051,
    "Ġwittle": 22915,
    "Ġsnuggle": 8883,
    "Ġtank": 6061,
    "Ġluvs": 15355,
    "Ġgibbs": 28935,
    "Ġnerve": 10923,
    "Ġanyday": 20263,
    "Ġverify": 22749,
    "Ġentirely": 8835,
    "abian": 18936,
    "Ġfavorit": 27116,
    "report": 23458,
    "later": 14200,
    "Ġdomain": 7566,
    "Ġmidnight": 3226,
    "Ġinspire": 12289,
    "Ġgeting": 18095,
    "Ġgeorgia": 7852,
    "Ġhospitals": 14649,
    "Ġbis": 5831,
    "Ġsleeeeee": 25246,
    "Ġres": 1349,
    "Ġprize": 7699,
    "Ġalready": 741,
    "early": 11555,
    "Ġlawn": 4986,
    "ruct": 28763,
    "nson": 14899,
    "ires": 5484,
    "Ġjell": 23577,
    "Ġtumblarity": 23129,
    "Ġthroats": 19712,
    "Ġkardashians": 12887,
    "Ġyaaay": 7348,
    "Ġheidi": 9209,
    "Ġsufficient": 28975,
    "Ġdairy": 9582,
    "Ġxp": 6299,
    "whe": 6197,
    "ucking": 25666,
    "Ġleona": 25262,
    "Ġwhispe": 15368,
    "Ġhaveing": 23186,
    "condition": 21089,
    "Ġbuttt": 22644,
    "ture": 1030,
    "Ġmelly": 29094,
    "Ġ~*": 22716,
    "Ġgui": 21910,
    "Ġselfish": 9532,
    "Ġbrett": 14485,
    "Ġwhataburger": 23742,
    "Ġtreated": 10655,
    "fect": 1467,
    "Ġnerves": 8973,
    "Ġheine": 22363,
    "Ġrockin": 6386,
    "Ġnotorious": 19453,
    "Ġbazillion": 28971,
    "Ġafternoon": 1585,
    "Ġlandline": 29331,
    "Ġcams": 26661,
    "Ġugg": 7744,
    "spa": 20087,
    "Ġooooh": 6408,
    "open": 9910,
    "Ġfunds": 12065,
    "Ġwrist": 5697,
    "Ġnotification": 15047,
    "Ġninjas": 25401,
    "Ġmalware": 27201,
    "Ġgrieving": 25941,
    "Ġmeeeeeee": 21367,
    "ndy": 4644,
    "Ġgreece": 9780,
    "Ġmy": 179,
    "kend": 610,
    "Ġwo": 3161,
    "Ġkrispy": 10706,
    "Ġruben": 29347,
    "Ġwestern": 10606,
    "Ġweird": 1689,
    "Ġskrg": 29895,
    "Ġ420": 12844,
    "Ġyour": 307,
    "Ġempt": 20751,
    "ere": 21824,
    "Ġisle": 14079,
    "Ġgrat": 10203,
    "Ġnawww": 18458,
    "Ġhellooo": 16439,
    "olley": 7223,
    "Ġhuhu": 6367,
    "Ġsmo": 2674,
    "Ġtemperatures": 27301,
    "Ġmigrain": 4177,
    "Ġunpacking": 9177,
    "Ġtouche": 24683,
    "Ġazz": 17005,
    "maybe": 4136,
    "Ġdrawers": 22498,
    "Ġhadnt": 14872,
    "Âĸ": 11447,
    "Ġvale": 8661,
    "Ġstrike": 8005,
    "cakes": 3017,
    "Ġsqueezed": 25516,
    "Ġbase": 2961,
    "kong": 25157,
    "Ġreally": 368,
    "Ġcoaching": 14116,
    "this": 3038,
    "lone": 19216,
    "Ġhawt": 12932,
    "Ġdayum": 17667,
    "Ġbandit": 19915,
    "Ġallergic": 5599,
    "Ġclass": 993,
    "Ġgrooves": 26774,
    "Ġawkward": 5964,
    "Ġobsessed": 5429,
    "Ġpounding": 10371,
    "transformers": 25118,
    "Ġappreciation": 13771,
    "amation": 24827,
    "Ġpione": 28302,
    "Ġwebinar": 21974,
    "Ġxbox": 3377,
    "Ġvalle": 29134,
    "Ġborin": 15709,
    "Ġeffed": 18154,
    "Ġemoticon": 28951,
    "coke": 28443,
    "Ġwonky": 18745,
    "Ġiv": 4894,
    "Ġgosh": 2628,
    "Ġnand": 19634,
    "Ġswim": 3464,
    "Ġworry": 1966,
    "Ġweeping": 29519,
    "Ġcostumes": 17237,
    "home": 6075,
    "Ġcynical": 23727,
    "uman": 24543,
    "Ġintellect": 20644,
    "Ġpreach": 17287,
    "Ġgab": 7346,
    "Ġmangoes": 17229,
    "Ġimpe": 16903,
    "Ġimple": 11184,
    "Ġwrapping": 14261,
    "Ġwax": 9141,
    "Ġelect": 3591,
    "Ġgno": 29046,
    "Ġfevers": 28616,
    "Ġpride": 5553,
    "hink": 24073,
    "anson": 28073,
    "Ġanyways": 3087,
    "Ġkebab": 16450,
    "Ġnaa": 13246,
    "Ġtwittered": 8597,
    "Ġfow": 11218,
    "Ġbelieve": 1114,
    "Ġtipped": 23826,
    "Ġwhipped": 14954,
    "hary": 16520,
    "Ġsas": 14445,
    "Ġ(=": 20939,
    "failed": 28250,
    "oped": 17663,
    "Ġreligion": 9353,
    "sem": 16305,
    "Ġincluded": 6683,
    "Ġlynch": 25807,
    "Ġgrowling": 18960,
    "Ġcrashed": 4176,
    "Ġterrorist": 26798,
    "Ġplat": 6721,
    "Ġkos": 20037,
    "econ": 27395,
    "gross": 25530,
    "Ġnero": 28739,
    "inting": 4271,
    "Ġdesire": 11343,
    "tsy": 7213,
    "Ġ79": 16220,
    "Ġeducate": 29451,
    "Ġaven": 11661,
    "starts": 26927,
    "Ġbiting": 11674,
    "Ġbuckets": 22021,
    "Ġkang": 17661,
    "Ġsounders": 27065,
    "Ġasu": 20715,
    "Ġthese": 1187,
    "Ġtags": 11992,
    "rupted": 9776,
    "Ġwoah": 5653,
    "Ġlocked": 4943,
    "vision": 4375,
    "Ġproves": 16796,
    "Ġpainfully": 16682,
    "hearted": 16150,
    "Ġgrandkids": 26657,
    "Ġnooow": 27736,
    "Ġcris": 5142,
    "Ġerika": 16690,
    "Ġshet": 28036,
    "Ġtory": 24453,
    "Ġtint": 18210,
    "Ġphenomen": 14195,
    "Ġfeverish": 18305,
    "Ġstalker": 7270,
    "Ġwaterloo": 21720,
    "brough": 24228,
    "Ġvoodoo": 20260,
    "Ġdus": 17016,
    "Ġtommar": 26709,
    "Ġpang": 21379,
    "stal": 5255,
    "Ġsimpsons": 11170,
    "dk": 17495,
    "Ġyeahh": 5597,
    "Ġohmygod": 18344,
    "Ġchavs": 29195,
    "Ġpeppers": 14334,
    "Ġdishes": 5667,
    "Ġtossed": 19385,
    "Ġgalaxy": 12301,
    "Ġgesture": 27833,
    "Ġpostp": 7305,
    "!....": 7906,
    "ege": 17636,
    "Ġinstruction": 26760,
    "Ġurine": 27593,
    "cel": 5243,
    "agna": 12000,
    "icle": 3051,
    "links": 24423,
    "Ġ:@": 6530,
    "Ġplast": 25645,
    "Ġpearl": 8744,
    "Ġspontaneous": 16989,
    "rors": 13996,
    "Ġfurniture": 7375,
    "Ġwig": 10791,
    "Ġscarlet": 17217,
    "Ġkerry": 15367,
    "Ġseph": 20056,
    "Ġclassmates": 11028,
    "Ġarrangements": 24020,
    "creen": 19614,
    "Ġrealiz": 1766,
    "Ġcateg": 10349,
    "Ġatene": 26500,
    "Ġluv": 2127,
    "eepy": 25639,
    "Ġcanary": 26504,
    "Ġrooft": 16351,
    "however": 20114,
    "Ġotha": 26246,
    "Ġace": 5508,
    "Ġkatie": 5028,
    "able": 1029,
    "Ġlogin": 8896,
    "Ġlaurens": 17864,
    "Ġmanchester": 5376,
    "Ġmariners": 22304,
    "aaaaaay": 12739,
    "Ġstandup": 29974,
    "Ġwhether": 4944,
    "Ġshot": 2741,
    "gga": 13390,
    "Ġsheet": 10318,
    "Ġgota": 12362,
    "fron": 11071,
    "Ġperson": 1232,
    "Ġzo": 11820,
    "Ġgazillion": 23403,
    "Ġiss": 3555,
    "Ġlovebug": 28562,
    "Ġdiscussing": 12127,
    "mph": 7805,
    "juss": 27407,
    "Ġaccomplished": 7309,
    "active": 8606,
    "Ġcba": 8169,
    "Ġ103": 14094,
    "Ġscratches": 16603,
    "Ġlettu": 13261,
    "Ġhilson": 19394,
    "wink": 11331,
    "Ġnir": 22891,
    "Ġsuperstar": 15165,
    "Ġgoto": 12529,
    "Ġrollerco": 16977,
    "nico": 28455,
    "Ġexpl": 2714,
    "Ġunloved": 13023,
    "Ġhurley": 22184,
    "return": 29968,
    "Ġpamp": 10382,
    "Ġdye": 6941,
    "Ġalways": 742,
    "Ġraincheck": 29848,
    "Ġseeing": 1451,
    "Ġgoingg": 21405,
    "Ġmelt": 5716,
    "Ġconstant": 9199,
    "Ġcloset": 6904,
    "Ġdelici": 29278,
    "Ġkutcher": 23113,
    "Ġheel": 13800,
    "Ġlolol": 8330,
    "Ġfier": 10715,
    "itory": 29686,
    "Ġshal": 23236,
    "Ġsqueezing": 29466,
    "Ġdram": 8827,
    "Ġmard": 29661,
    "Ġsuckage": 28633,
    "Ġjizz": 18548,
    "ÂĤ": 1568,
    "Ġfiber": 17464,
    "alltimelow": 24125,
    "Ġspelled": 9047,
    "Ġmollie": 22932,
    "Ġgrown": 5289,
    "Ġcrying": 2250,
    "oys": 20484,
    "Ġphotography": 6191,
    "Ġdiarr": 26575,
    "Ġwaaah": 14699,
    "ilities": 7745,
    "ec": 16273,
    "ars": 1182,
    "Ġseasonal": 26649,
    "Ġcocker": 29417,
    "Ġfuse": 13272,
    "Ġintl": 29363,
    "dow": 24415,
    "Ġtiredddd": 22429,
    "Ġpeoples": 6340,
    "Ġseals": 28582,
    "Ġkidnapped": 17895,
    "Ġchik": 18249,
    "ba": 2014,
    "Ġeas": 1484,
    "washing": 28825,
    ")!": 6625,
    "Ġunwanted": 19681,
    "Ġthat": 215,
    "itions": 6286,
    "Ġimagined": 15830,
    "bos": 19016,
    "iments": 9483,
    "poof": 29641,
    "Ġicing": 11750,
    "Ġmountain": 5455,
    "Ġinformed": 9045,
    "Ġfable": 22398,
    "Ġoclock": 24112,
    "Ġoverwhelming": 15641,
    "pong": 24776,
    "Ġrestored": 14491,
    "Ġgroan": 29373,
    "Ġnect": 21644,
    "Ġrollers": 20553,
    "Ġlettin": 21193,
    "lynn": 21390,
    "aku": 18747,
    "Ġfacts": 12429,
    "met": 5680,
    "Ġfanci": 25322,
    "Ġmost": 1013,
    "ulator": 19667,
    "ogan": 20760,
    "stupid": 9704,
    "Ġfir": 6271,
    "Ġsouvenir": 27852,
    "___": 13693,
    "Ġdonations": 18102,
    "Ġscotland": 5678,
    "Ġbogus": 23893,
    "Ġtragic": 7829,
    "york": 24082,
    "Ġwar": 1338,
    "Ġsilk": 17861,
    "Ġheadach": 21678,
    "oids": 19347,
    "Ġcole": 10473,
    "Ġutter": 7719,
    "Ġsalle": 28474,
    "Ġinjury": 8871,
    "Ġbuckley": 24698,
    "Ġpeeking": 27719,
    "Ġbham": 26428,
    "79": 12135,
    "Ġtwttr": 28557,
    "Ġroni": 18035,
    "omen": 3252,
    "Ġ23": 4493,
    "Ġpear": 6490,
    "Ġpregn": 5804,
    "Ġbaby": 837,
    "Ġsleeeeeee": 25651,
    "Ġuncles": 15063,
    "Ġhop": 1324,
    "Ġpoy": 21424,
    "Ġrunny": 9943,
    "Ġfling": 26113,
    "Ġlasts": 9639,
    "Ġnut": 4653,
    "Ġpate": 18886,
    "Ġmoves": 7385,
    "Ġassociation": 20635,
    "stri": 15579,
    "Ġskillet": 29479,
    "Ġ1999": 19140,
    "Ġintake": 18087,
    "Ġprimary": 12063,
    "undiv": 14911,
    "Ġjason": 4588,
    "Ġstylish": 19575,
    "Ġnose": 2606,
    "iessunday": 22548,
    "Ġstock": 4423,
    "Ġsyntax": 26832,
    "mate": 6627,
    "Ġstuck": 1418,
    "Ġstanford": 23364,
    "Ġpuddle": 18644,
    "spray": 14340,
    "Ġsucha": 15046,
    "Ġshadows": 18041,
    "reet": 10976,
    "Ġconfirmed": 6643,
    "Ġturnin": 22455,
    "Ġsoooooooooo": 13482,
    "Ġserved": 11275,
    "stud": 9435,
    "Ġalgor": 26986,
    "Ġtoys": 7598,
    "henge": 26698,
    "Ġfad": 21369,
    "Ġconnie": 23217,
    "Ġrocker": 22451,
    "overs": 7328,
    "Ġexcite": 6557,
    "white": 13409,
    "Ġsuic": 8707,
    "Ġhummer": 21442,
    "Ġupdating": 3993,
    "Ġcompletion": 29533,
    "chicken": 18356,
    "Ġgam": 9206,
    "Ġ133": 24853,
    "iks": 23137,
    "Ġkellie": 18340,
    "Ġpaths": 20161,
    "paid": 14909,
    "Ġprow": 28499,
    "Ġtowers": 11204,
    "Ġwanna": 680,
    "Â«?": 19536,
    "Ġpresenter": 28193,
    "Ġmarley": 6927,
    "dnt": 19423,
    "gor": 14129,
    "wipe": 27899,
    "Ġpixels": 23329,
    "Ġquieter": 27700,
    "kar": 11093,
    "Ġbiased": 16479,
    "Ġcynth": 22748,
    "Ġfunday": 16975,
    "bags": 14675,
    "Ġsharapova": 26843,
    "Ġhearts": 6802,
    "Ġkimi": 17094,
    "Ġmayo": 15148,
    "Ġintroducing": 14663,
    "Ġseas": 12154,
    "Ġmontgomery": 25827,
    "Ġbitt": 26426,
    "Ġbon": 2977,
    "wii": 24439,
    "7": 26,
    "Ġearbuds": 29849,
    "Ġladybug": 29314,
    "Ġlighten": 21965,
    "Ġdas": 11176,
    "Ġfinal": 1713,
    "drama": 24672,
    "Ġwagon": 13606,
    "Ġinc": 1661,
    "Ġharlem": 15693,
    "Ġpresume": 23416,
    "Ġundo": 22268,
    "Ġhuhuhuhu": 26268,
    "Ġcrocs": 22780,
    "Ġlego": 13387,
    "Ġcalm": 5918,
    "Ġhandbags": 29272,
    "Ġinfomercials": 27366,
    "Ġcompletes": 29532,
    "Ġinflu": 9032,
    "Ġcluster": 22950,
    "Ġduran": 25437,
    "½": 97,
    "opera": 27977,
    "Ġconverting": 18337,
    "Ġpadding": 23339,
    "Ġguests": 9252,
    "ht": 6074,
    "Ġtty": 5966,
    "Ġjustt": 28545,
    "Ġfinals": 2290,
    "Ġmummy": 6334,
    "Ġtday": 17641,
    "aure": 24174,
    "Ġes": 1414,
    "Ġapproaching": 14423,
    "Ġscored": 8967,
    "sauce": 23760,
    "Ġwiff": 10277,
    "Ġdrawing": 5173,
    "Ġelectronics": 17618,
    "mos": 12248,
    "Ġyork": 3306,
    "Ġsn": 1296,
    "Ġusernames": 26759,
    "ooooow": 21914,
    "dm": 15865,
    "mazing": 14201,
    "Ġracc": 18466,
    "damn": 4692,
    "Ġfreezing": 4143,
    "....)": 29761,
    "aaaaaaaaaaaaaaaa": 8833,
    "Ġqueues": 26229,
    "Ġbookmar": 12670,
    "ios": 4893,
    "iiiiiiii": 4823,
    "relaxing": 23404,
    "Ġproducing": 20554,
    "Ġjourneys": 28234,
    "Ġdenied": 12338,
    "Ġfinshed": 23409,
    "Ġmemorizing": 29325,
    "Ġuuuu": 16298,
    "warm": 20013,
    "com": 805,
    "Ġwheelchair": 19758,
    "Ġshin": 2663,
    "Ġjenni": 20334,
    "Ġaston": 19228,
    "Ġallll": 9678,
    "Ġhhmm": 27463,
    "Ġeasy": 1998,
    "Ġ,,,": 17554,
    "Ġexperiences": 13282,
    "Ġhaunting": 20166,
    "Ġhole": 4825,
    "Ġmarion": 25295,
    "mann": 20304,
    "Ġbaddd": 19673,
    "Ġemotic": 17057,
    "Ġdizz": 21929,
    "Ġdenmark": 9979,
    "Ġperl": 20510,
    "level": 18398,
    "sterday": 945,
    "rive": 22150,
    "Ġweekends": 3522,
    "Ġbrrr": 20487,
    "Ġrust": 21149,
    "Ġsuz": 15398,
    "Ġoddly": 12929,
    "Ġpond": 10124,
    "Ġreeses": 26356,
    "alley": 6425,
    "Ġradiohead": 20780,
    "Ġleeds": 8821,
    "Ġoverrated": 12960,
    "Ġgh": 9118,
    "lu": 6929,
    "Ġelectronic": 14365,
    "nah": 14324,
    "Ġdno": 26914,
    "Ġstyles": 16972,
    "Ġbuster": 19164,
    "Ġgast": 15128,
    "Ġcommitt": 22233,
    "Ġfckn": 23087,
    "fight": 10788,
    "Ġtweetdeck": 2881,
    "Ġnonstop": 16033,
    "icating": 17936,
    "Ġechelon": 19247,
    "Ġgrowl": 26203,
    "Ġweee": 9371,
    "Ġhanding": 18147,
    "Ġgrapes": 12058,
    "vers": 1073,
    "Ġpublishers": 29464,
    "Ġopinions": 14051,
    "ough": 389,
    "Ġgramps": 28961,
    "Ġmanana": 15334,
    "erts": 10979,
    "Ġadvertised": 23986,
    "bast": 27874,
    "Ġsouthpark": 26211,
    "Ġnii": 15212,
    "Ġchees": 13200,
    "Ġwhaat": 25007,
    "az": 599,
    "Ġclassics": 14627,
    "Ġarie": 23861,
    "Ġclear": 2670,
    "Ġseconds": 4636,
    "Ġleaky": 21195,
    "Ġmadness": 8358,
    "Ġprodigy": 15960,
    "Ġsunbathe": 14103,
    "Ġswimm": 2713,
    "ormous": 14341,
    "tttt": 3316,
    "Ġraccoon": 22571,
    "buck": 13650,
    "Ġnude": 16398,
    "Ġbcos": 22761,
    "Ġprogram": 3029,
    "Ġbookstore": 12160,
    "waiting": 9894,
    "Ġedward": 5806,
    "lift": 23439,
    "vention": 6582,
    "hmmmm": 18862,
    "non": 8448,
    "Ġsar": 2930,
    "Ġmoisture": 28932,
    "virus": 27770,
    "Ġlangu": 4563,
    "Ġlod": 16777,
    "rical": 13864,
    "Ġtin": 7447,
    "pped": 2982,
    "Ġthaaa": 26944,
    "Ġraw": 4589,
    "Ġkutner": 24490,
    "eve": 11657,
    "ad": 196,
    "sob": 11912,
    "iders": 7541,
    "irst": 658,
    "Ġventi": 21533,
    "Ġreno": 10874,
    "Ġbunnies": 12980,
    "Ġfrosting": 17468,
    "Ġlav": 16000,
    "Ġjalapeno": 28972,
    "Ġshifted": 25117,
    "Ġtagal": 28845,
    "giving": 15022,
    "Ġjaja": 17096,
    "ttes": 10809,
    "intyre": 18844,
    "Ġ109": 29257,
    "Ġuma": 22628,
    "Ġsulk": 23192,
    "human": 21317,
    "Ġsummary": 16484,
    "Ġuniversity": 6125,
    "Ġmkay": 23148,
    "Ġjonny": 17064,
    "iu": 12817,
    "Ġcensorship": 25934,
    "Ġbetta": 9191,
    "Ġdiscontinued": 17488,
    "utter": 17137,
    "Ġjel": 9999,
    "Ġfears": 16668,
    "lda": 11712,
    "gold": 17692,
    "Ġkall": 29107,
    "Ġalone": 1404,
    "Ġrecommend": 3225,
    "Ġhoodie": 9555,
    "Ġsidetra": 28328,
    "chef": 9913,
    "Ġmarian": 18432,
    "gence": 27887,
    "Ġyouuuuuuuuu": 18228,
    "Ġgriffin": 14830,
    "french": 17893,
    "quette": 23822,
    "Ġnl": 15776,
    "Ġsells": 12733,
    "tec": 18248,
    "Ġdreading": 5219,
    "Ġ13": 2840,
    "Ġleavin": 7237,
    "Ġlmao": 1546,
    "Ġshipping": 7319,
    "Ġanne": 9439,
    "Ġquarter": 8164,
    "obo": 23140,
    "caust": 24648,
    "Ġrlly": 12654,
    "Ġclick": 3016,
    "Ġowe": 6553,
    "button": 22702,
    "lia": 14292,
    "ou": 144,
    "xd": 13521,
    "Ġequipment": 12812,
    "Ġwwe": 12643,
    "Ġdrivin": 11818,
    "Ġgeesh": 27181,
    "Ġtaught": 7588,
    "Ġmayday": 21436,
    "Ġribena": 29472,
    "Ġherm": 29810,
    "shes": 17253,
    "Ġbord": 7523,
    "instead": 22521,
    "augh": 18251,
    "ness": 1155,
    "Ġkd": 24121,
    "Ġhaw": 6199,
    "Ġhoa": 25731,
    "Ġabou": 23510,
    "Ġluis": 18779,
    "Ġwarriors": 20849,
    "Ġlappy": 11068,
    "Ġmissin": 4513,
    "Ġdvd": 2631,
    "chery": 19858,
    "Ġwhn": 17147,
    "Ġthirsty": 9119,
    "Ġquoted": 19897,
    "Ġpip": 12459,
    "Ġhackintosh": 26270,
    "97": 7984,
    "ita": 3533,
    "Ġsupposed": 1859,
    "itation": 7244,
    "Ġpeeved": 27208,
    "Ġdough": 5759,
    "bus": 6496,
    "Ġcauses": 11958,
    "Ġsecret": 3186,
    "Ġnack": 26447,
    "Ġintest": 29925,
    "Ġbab": 2712,
    "Ġhav": 2627,
    "save": 12893,
    "Ġtou": 4370,
    "bacon": 22091,
    "Ġmayhem": 18754,
    "Ġrapper": 18049,
    "Ġfirefly": 13033,
    "Ġcaliforn": 4022,
    "Ġtasting": 10210,
    "Ġcrooked": 24918,
    "antic": 4711,
    "leee": 17380,
    "aved": 28439,
    "Ġjavascript": 15742,
    "Ġclosely": 16823,
    "Ġintrodu": 6242,
    "Ġapples": 8441,
    "shopping": 15408,
    "Ġprettty": 24570,
    "Ġverd": 15621,
    "^": 37,
    "Ġhistorical": 25474,
    "Ġcrusty": 23250,
    "Ġfulfilled": 26319,
    "Ġmii": 12082,
    "Ġactin": 19092,
    "bbb": 14898,
    "Ġacts": 10616,
    "Ġtoast": 3580,
    "cias": 13263,
    "Ġjuggle": 29290,
    "dial": 25149,
    "Ġwind": 1424,
    "Ġunused": 29847,
    "Ġwut": 8049,
    "aya": 8704,
    "Ġgenesis": 22555,
    "uring": 1836,
    "Ġbach": 17035,
    "Ġsingstar": 21699,
    "Ġcomplimentary": 28296,
    "ÂĬ": 9226,
    "Ġferguson": 29551,
    "eaking": 4004,
    "Ġdiscs": 20575,
    "Ġcolumn": 12061,
    "Ġboxset": 27673,
    "Ġopps": 15000,
    "ye": 2893,
    "Ġjh": 29710,
    "Ġgus": 18077,
    "Ġlalal": 27282,
    "Ġblipping": 23220,
    "anan": 18391,
    "Ġrea": 3987,
    "ination": 3703,
    "Ġsunt": 14213,
    "Ġsplinter": 18518,
    "eeeeeeeee": 11519,
    "Ġhypo": 16035,
    "archy": 26195,
    "Ġsleeeep": 11407,
    "Ġcomplet": 14893,
    "Ġxoxoxo": 10287,
    "Ġused": 1380,
    "saturday": 14362,
    "wks": 16389,
    "Ġwrath": 20956,
    "mee": 17909,
    "Ġredire": 25752,
    "Ġdavina": 24213,
    "Ġtao": 21421,
    "Ġ:*": 8730,
    "Ġrav": 20034,
    "Ġave": 7111,
    "Ġwren": 21364,
    "Ġlevel": 4133,
    "itching": 26013,
    "pting": 18207,
    "Ġtwiggaz": 27860,
    "Ġyardwork": 21274,
    "Ġthrew": 4777,
    "mene": 25190,
    "Ġhcc": 21137,
    "Ġinvol": 4363,
    "mom": 6633,
    "Ġdeod": 22385,
    "Ġbuild": 2693,
    "Ġtread": 9215,
    "Ġkatelyn": 27380,
    "Ġpasty": 22223,
    "Ġnoticed": 3454,
    "cube": 27174,
    "Ġmorninggg": 19473,
    "Ġonwards": 19643,
    "Ġshines": 13191,
    "Ġerased": 14638,
    "Ġcaptured": 21737,
    "Ġstared": 23811,
    "Ġmails": 14046,
    "Ġfauc": 27548,
    "Ġsurprises": 10814,
    "Ġexisted": 17215,
    "Ġfuuuu": 21851,
    "due": 10343,
    "Ġfoil": 23000,
    "Ġserial": 14717,
    "Ġoreos": 13431,
    "iqu": 19025,
    "gnation": 29969,
    "Ġcathy": 16184,
    "Ġdrew": 6088,
    "Ġgnight": 9101,
    "ĵ": 120,
    "Ġyoooou": 23391,
    "Ġglory": 10105,
    "Ġcongress": 20978,
    "Ġcig": 5393,
    "Ġcalled": 1545,
    "Ġshook": 18096,
    "Ġbonfire": 8026,
    "Ġscientist": 21565,
    "Ġcafet": 18670,
    "Ġcolby": 20771,
    "Ġbff": 3077,
    "Ġtivo": 10040,
    "Ġcadbury": 18045,
    "Ġhunger": 10239,
    "never": 6227,
    "Ġwhile": 889,
    "Ġunsuccess": 15643,
    "una": 8069,
    "Ġrol": 25598,
    "ias": 11614,
    "Ġnya": 14035,
    "Ġdropping": 6252,
    "Ġthree": 1914,
    "Ġarmed": 19479,
    "Ġlizzie": 18554,
    "Ġprison": 7122,
    "Ġgentleman": 17616,
    "Ġnotts": 25611,
    "Ġswedish": 9748,
    "tured": 11776,
    "Ġthangs": 29755,
    "Ġforest": 8280,
    "senger": 8364,
    "Ġcelt": 8075,
    "Ġcarey": 14410,
    "Ġblob": 26610,
    "Ġphotograph": 11030,
    "wn": 824,
    "Ġvideo": 1146,
    "Ġprofits": 29975,
    "Ġvoid": 20110,
    "Ġroh": 27582,
    "lo": 384,
    "Ġmini": 3386,
    "Ġhunnie": 20097,
    "hhrs": 13942,
    "Ġmot": 2201,
    "Ġbatman": 9589,
    "Ġsmooch": 26308,
    "Ġpulse": 19173,
    "Ġdumber": 27929,
    "Ġbash": 8229,
    "Ġtakin": 6070,
    "morow": 15491,
    "Ġhousewife": 21686,
    "tweeterfollow": 4800,
    "Ġskul": 22195,
    "Ġmon": 576,
    "Ġom": 747,
    "Ġigl": 27902,
    "Ġdispat": 23557,
    "Ġmagazine": 5251,
    "Ġokaaay": 21434,
    "ineas": 25264,
    "Ġdesp": 4618,
    "Ġquero": 26111,
    "Ġtuck": 9159,
    "Ġredisco": 23267,
    "secondstomars": 17363,
    "Ġbadm": 11908,
    "Ġsomethings": 12002,
    "Ġdonnie": 7209,
    "esteem": 28098,
    "Ġalien": 10722,
    "Ġvoicemail": 13214,
    "Ġxen": 24172,
    "Ġbusting": 21123,
    "Ġlizards": 27261,
    "ushi": 23917,
    "urdy": 28561,
    "Ġreme": 1212,
    "@#": 21102,
    "Ġliat": 19652,
    "Ġchang": 1839,
    "Ġlemsip": 24405,
    "Ġaudioboo": 24700,
    "appy": 29284,
    "Ġreporter": 22199,
    "Ġneedy": 19846,
    "Ġclinic": 10340,
    "Ġarcade": 14926,
    "Â¿": 1164,
    "Ġwhirlwind": 24043,
    "Ġwarsaw": 27743,
    "Ġdamp": 11098,
    "Ġreflex": 23930,
    "ncy": 25160,
    "Ġisrael": 9907,
    "Ġnans": 23164,
    "Ġhelicopters": 27818,
    "screw": 22753,
    "Ġquin": 20282,
    "guard": 15258,
    "women": 19625,
    "Ġbat": 2037,
    "conscious": 19773,
    "Ġtossing": 15752,
    "Ġyvon": 24803,
    "Ġneda": 16071,
    "Ġbrithday": 26361,
    "Ġbridget": 14274,
    "missin": 21266,
    "Ġregard": 6193,
    "Ġconfirming": 27222,
    "Ġina": 15581,
    "Ġdrow": 12192,
    "Ġcarpet": 6532,
    "ives": 3781,
    "Ġsnl": 7091,
    "profit": 27694,
    "ii": 765,
    "could": 8249,
    "horse": 26262,
    "Ġcompany": 2508,
    "Ġpoints": 4454,
    "Ġpossibly": 3831,
    "Ġwala": 13496,
    "Ġhayden": 18965,
    "Ġworth": 1777,
    "Ġwolf": 8630,
    "Ġident": 8906,
    "Ġcouches": 25762,
    "Ġthom": 5977,
    "ivan": 19107,
    "Ġgrrrr": 3549,
    "Ġfoam": 16028,
    "Ġmagnet": 13557,
    "Ġgah": 3646,
    ";~": 16511,
    "vior": 15121,
    "Ġbeans": 6348,
    "Ġmommy": 2622,
    "acle": 6168,
    "Ġpacking": 2391,
    "Ġexpensive": 3260,
    "prof": 16241,
    "Ġooops": 11598,
    "Ġnegoti": 18680,
    "Ġaccidents": 15243,
    "Ġsneaky": 12235,
    "Ġsoooo": 1102,
    "aine": 8201,
    "Ġassholes": 14190,
    "Ġslash": 14473,
    "Ġunders": 23342,
    "Ġduties": 16720,
    "Ġwellll": 18565,
    "Ġscooter": 12505,
    "Ġimply": 23836,
    "Ġgiro": 22182,
    "ana": 1790,
    "nday": 10096,
    "Ġbuble": 28619,
    "ess": 328,
    "Ġtracks": 6622,
    "cited": 10256,
    "iamsoannoyed": 8563,
    "Ġclaimed": 20491,
    ";!": 5584,
    "dont": 6876,
    "velop": 3551,
    "Ġruddy": 28900,
    "Ġuseful": 5755,
    "occup": 28395,
    "Ġrec": 1298,
    "lens": 28520,
    "Ġ47": 13473,
    "?!)": 24567,
    "Ġunderway": 21950,
    "Ġhuggles": 21932,
    "Ġmajest": 23304,
    "Ġghosts": 13343,
    "Ġdaughters": 8949,
    "Ġdestination": 11472,
    "Ġvitamins": 18363,
    "Ġscot": 3141,
    "Ġum": 3264,
    "Ġpostal": 20513,
    "Ġdimsum": 29594,
    "Ġflows": 25703,
    "Ġnye": 25773,
    "loo": 12355,
    "Ġoil": 5575,
    "Ġvon": 14612,
    "rainy": 21256,
    "line": 1162,
    "Ġpile": 8112,
    "Ġinspection": 16078,
    "Ġlogan": 13376,
    "anton": 21399,
    "Ġgrey": 3909,
    "Ġalison": 19059,
    "minus": 13108,
    "Ġsight": 5709,
    "Ġcondoms": 27356,
    "uary": 7329,
    "Ġhumili": 25355,
    "rella": 5817,
    "Ġahmadinejad": 29577,
    "Ġgriff": 21286,
    "Ġfui": 28756,
    "sight": 27416,
    "aaaan": 17988,
    "Ġdora": 17516,
    "possibly": 18635,
    "Ġcircumst": 14125,
    "Ġlifetime": 9074,
    "Ġspazz": 22670,
    "chill": 16103,
    "Ġshutting": 13042,
    "Ġlaying": 2909,
    "ipeg": 28820,
    "Ġpregg": 22409,
    "Ġslo": 14084,
    "Ġhookup": 29371,
    "Ġblended": 26207,
    "Ġequip": 11735,
    "Ġfigured": 3685,
    "Ġflylady": 17187,
    "Ġpots": 16528,
    "ison": 2802,
    "cet": 15564,
    "Ġdre": 6244,
    "hest": 9668,
    "Ġtar": 3913,
    "Ġsponsors": 22045,
    "Ġtwitterers": 8144,
    "Ġscholarship": 15283,
    "Ġsmiley": 8476,
    "Ġnash": 6374,
    "Ġmitch": 13865,
    "Ġstruggled": 25422,
    "Ġaviv": 29950,
    "Ġmesa": 20368,
    "Ġgeo": 10921,
    "ounge": 5631,
    "Ġlouisiana": 18500,
    "Ġsilence": 7607,
    "Ġbanned": 8159,
    "Ġfut": 2619,
    "Ġdivorce": 7608,
    "Ġhonolulu": 26702,
    "fh": 11363,
    "Ġwn": 27906,
    "Ġmunching": 14665,
    "Ġdestroyed": 9050,
    "Ġfreedom": 5483,
    "Ġcandace": 28791,
    "Ġmacau": 29936,
    "Ġbefor": 24479,
    "whel": 8145,
    "Ġbaybay": 27211,
    "Ġcord": 7792,
    "Ġmemorized": 27168,
    "..............": 13403,
    "eleven": 22542,
    "between": 13277,
    "Ġchick": 1740,
    "hood": 3936,
    "born": 8700,
    "Ġcroiss": 14829,
    "Ġbombard": 22771,
    "lton": 10235,
    "any": 1742,
    "Ġadults": 12102,
    "Ġneighbours": 7205,
    "min": 1827,
    "Ġchica": 10688,
    "Ġwilly": 15146,
    "Ġoldies": 17172,
    "Ġletterman": 16153,
    "Ġhed": 9965,
    "Ġiloveyou": 12993,
    "Ġjax": 16249,
    "Ġachieve": 9155,
    "Ġprone": 22423,
    "Ġxoxoxoxo": 23666,
    "Ġbridesmaid": 19598,
    "Ġoki": 24881,
    "Ġmeaningless": 26743,
    "Ġstaying": 2589,
    "thro": 21887,
    "Ġgud": 5496,
    "65": 11802,
    "Ġale": 6628,
    "apa": 17159,
    "Ġvip": 2593,
    "Ġknooow": 20853,
    "section": 13809,
    "Ġredhead": 22982,
    "longestpoem": 13233,
    "produ": 9152,
    "green": 10636,
    "Ġrace": 3157,
    "Ġtier": 24836,
    "ature": 2781,
    "mia": 18066,
    "Ġsubscribers": 13642,
    "Ġiffy": 22603,
    "Ġquarantined": 23101,
    "Ġbreakup": 18766,
    "Ġscen": 17334,
    "Ġgru": 20733,
    "Ġgeneric": 18308,
    "Ġcoughed": 25763,
    "!.......": 29002,
    "Ġlactose": 18676,
    "Ġbfast": 16644,
    "grad": 11719,
    "Ġreun": 5215,
    "Ġgreen": 1891,
    "Ġofficialy": 20407,
    "Ġud": 8572,
    "Ġym": 10304,
    "arts": 6790,
    "important": 29782,
    "Ġenvy": 6329,
    "Ġdiamond": 8124,
    "Ġbeb": 21140,
    "Ġlanding": 12731,
    "riet": 25641,
    "*~": 13516,
    "nox": 12538,
    "Ġgive": 893,
    "Ġtog": 26001,
    "Ġparent": 5943,
    "yrs": 9259,
    "Ġlunchtime": 8944,
    "Ġeffect": 3796,
    "giggles": 20669,
    "Ġbbm": 10012,
    "Ġmsi": 26667,
    "Ġelections": 12012,
    "squee": 28792,
    "Ġlovelies": 15051,
    "via": 2582,
    "Ġoverslept": 9305,
    "Ġexcercise": 24568,
    "47": 6072,
    "beast": 29820,
    "Ġari": 5883,
    "Ġidk": 2182,
    "Ġhappiest": 10611,
    "hana": 17511,
    "Ġconne": 2287,
    "wa": 2444,
    "Ġpainkillers": 13442,
    "gov": 25339,
    "Ġframes": 17144,
    "Ġyeeeee": 27453,
    "Ġsweety": 10136,
    "Ġmonitors": 20394,
    "Ġkaa": 29724,
    "britney": 23396,
    "Ġtransfered": 29970,
    "Ġbung": 15029,
    "Ġhelllll": 27066,
    "Ġsportscenter": 25034,
    "Ġsaudi": 25497,
    "Ġthug": 26943,
    "Ġstake": 21875,
    "Ġsettings": 7269,
    "bing": 3444,
    "Ġlashing": 28252,
    "Ġlotr": 19875,
    "Ġbeta": 4553,
    "Ġsuit": 4255,
    "Ġbre": 709,
    "Ġtowns": 20319,
    "Ġalpha": 8473,
    "Ġrenting": 17596,
    "vette": 22897,
    "Ġblist": 24180,
    "jim": 26879,
    "Ġoffline": 5820,
    "Ġpers": 1186,
    "Ġfrost": 7128,
    "Ġimprovements": 23354,
    "dling": 13587,
    "Ġpie": 2352,
    "Ġeliz": 10051,
    "Ġamounts": 11321,
    "Ġalil": 29753,
    "azzle": 17457,
    "Ġinfo": 2787,
    "Ġmwahahaha": 28922,
    "Ġhappier": 6528,
    "Ġborrow": 5746,
    "Ġpower": 1987,
    "Ġbourne": 15555,
    "aire": 9203,
    "Ġhipster": 23659,
    "umm": 12251,
    "Ġcay": 14598,
    "member": 18888,
    "Ġhorton": 29554,
    "Ġstevens": 23367,
    "Ġvan": 2688,
    "Ġdirectly": 9424,
    "Ġbartending": 23717,
    "inky": 12096,
    "yer": 8434,
    "Ġbarely": 3543,
    "Ġkool": 7808,
    "Ġbubs": 23870,
    "Ġcontempl": 8241,
    "Ġdiego": 5859,
    "Ġbegan": 12461,
    "unity": 22918,
    "Ġreser": 7563,
    "Ġsurpr": 2162,
    "Ġflying": 3559,
    "Ġgusto": 17890,
    "resa": 23311,
    "Â©": 3767,
    "aver": 23131,
    "Ġcinema": 5073,
    "Ġbened": 24478,
    "ure": 570,
    "Ġexotic": 17950,
    "Ġpapaya": 28146,
    "Ġkeepin": 13755,
    "Ġeducated": 23997,
    "moving": 17817,
    "Ġbrus": 16314,
    "Ġniceee": 21278,
    "Ġcuddling": 9623,
    "jord": 25973,
    "Ġsarah": 3824,
    "Ġgaw": 7197,
    "Ġcoulda": 9059,
    "-.": 25146,
    "Ġnaut": 27665,
    "Ġattention": 3977,
    "pass": 9666,
    "shaun": 11353,
    "Ġgta": 13134,
    "Ġpeace": 2386,
    "Ġmassive": 3958,
    "Ġstubborn": 14846,
    "Ġfiasco": 21035,
    "Ġartwork": 11799,
    "mbps": 27165,
    "Ġshare": 2195,
    "Ġrepaired": 16932,
    "Ġwom": 20431,
    "Ġyipee": 14923,
    "Ġstair": 19448,
    "Ġincredible": 5237,
    "Ġweirdly": 23915,
    "Ġtremendously": 28398,
    "Ġmexicans": 24662,
    "Ġrecie": 10113,
    "pub": 27893,
    "Ġdaytime": 16191,
    "nugg": 20884,
    "Ġnorweg": 14930,
    "ustralia": 23626,
    "Ġalllll": 12093,
    "css": 25148,
    "Ġsolita": 26695,
    "Ġsoulja": 15436,
    "Ġsock": 11756,
    "Ġchildhood": 7604,
    "Ġedges": 24948,
    "Ġcarlo": 25290,
    "Ġkong": 10070,
    "Ġkewl": 11193,
    "Ġmidst": 20764,
    "nik": 18690,
    "Ġpumpkin": 12346,
    "Ġthroat": 1911,
    "Ġrow": 3095,
    "Ġmetric": 18606,
    "Ġshooter": 27225,
    ":": 29,
    "lli": 5911,
    "Ġughhhh": 8057,
    "Ġshed": 9288,
    ";#": 17250,
    "Ġstinky": 11887,
    "Ġ}": 22601,
    "Ġwarren": 17690,
    "Ġretard": 6279,
    "building": 27313,
    "Ġsolution": 7127,
    "odd": 19865,
    "Ġcircuit": 16992,
    "Ġtopshop": 14030,
    "Ġhaii": 27942,
    "hors": 14764,
    "Ġrepay": 28676,
    "Ġbow": 2632,
    "arro": 29696,
    "Ġlicorice": 28838,
    "Ġbeckons": 21061,
    "Ġherbal": 20940,
    "Ġhorm": 14779,
    "Ġrex": 19446,
    "Ġbollocks": 15203,
    "Ġsoil": 16534,
    "Ġdayton": 17145,
    "Ġthousands": 11408,
    "Ġkia": 20699,
    "achable": 22547,
    "Ġjerry": 7581,
    "Ġnugg": 6347,
    "butt": 19891,
    "Ġhve": 9754,
    "Ġanyhow": 12530,
    "Ġlurgy": 28323,
    "Ġvisitors": 11777,
    "Ġwithin": 4794,
    "Ġelmo": 18599,
    "Ġcosplay": 20327,
    "Ġdod": 5076,
    "Ġkite": 14315,
    "Ġgradu": 1630,
    "iga": 22669,
    "ona": 3678,
    "Ġshif": 15141,
    "Ġmotorway": 22782,
    "Ġmow": 8031,
    "Â±": 5437,
    "Ġcompare": 9213,
    "two": 13884,
    "Ġbombed": 18981,
    "Ġability": 8684,
    "text": 9851,
    "Ġimage": 4928,
    "Ġmines": 7078,
    "Ġfing": 1934,
    "Ġplanner": 17686,
    "Ġpleaseee": 10925,
    "Ġdecaf": 23266,
    "Ġfuzzball": 14368,
    "Ġtum": 12641,
    "Ġessential": 17367,
    "hoppusday": 17906,
    "ibly": 2886,
    "Ġbleed": 5370,
    "aring": 2970,
    "nar": 23756,
    "Ġlistens": 18267,
    "Ġrespectful": 28274,
    "Ġwatered": 20472,
    "Ġbex": 26028,
    "Ġprocessed": 20350,
    "Ġpoured": 14776,
    "Ġboreddddd": 26137,
    "Ġmwa": 11536,
    "Ġnascar": 13847,
    "Ġhence": 7947,
    "Ġraving": 19131,
    "Ġmeowing": 29714,
    "Ġtrailor": 21254,
    "Ġacupun": 28698,
    "Ġtrueblood": 21712,
    "Ġhavent": 2208,
    "direct": 25967,
    "Ġumm": 4275,
    "Ġprin": 3021,
    "ker": 2819,
    "iry": 8385,
    "Ġsao": 12364,
    "bummer": 16469,
    "Ġscenic": 26711,
    "Ġqld": 12492,
    "Ġclap": 11380,
    "Ġsplurge": 28406,
    "Ġdetest": 26201,
    "ared": 1575,
    "Ġyouuuuuu": 20902,
    "Ġfib": 15774,
    "pens": 2910,
    "Ġchiropract": 17106,
    "Ġmonet": 27581,
    "'...": 8087,
    "Ġwi": 1912,
    "haul": 22105,
    "Ġmoths": 22486,
    "Ġerm": 8737,
    "Ġkreme": 10984,
    "zerland": 12802,
    "Ġtwo": 921,
    "Ġ!?": 12778,
    "Ġtex": 2520,
    "Ġhesit": 19445,
    "Ġtoilet": 6474,
    "Ġtreasure": 11677,
    "Ġspeed": 3567,
    "Ġwarcraft": 14635,
    "Ġtomrrow": 22227,
    "Ġfixin": 20107,
    "Ġbasics": 19920,
    "Ġpatients": 14348,
    "Ġjuliet": 12737,
    "Ġtechnolog": 23050,
    "urrr": 24134,
    "Ġsneez": 12221,
    "Ġ:]": 3785,
    "Ġfol": 2786,
    "Ġexam": 935,
    "Ġpouting": 17889,
    "Ġten": 2294,
    "spoon": 24212,
    "Ġsung": 16202,
    "Ġawwwwwww": 10619,
    "Ġstars": 4434,
    "Ġfrig": 5439,
    "Ġtruly": 3817,
    "dirty": 24417,
    "Ġproductive": 3560,
    "ni": 4484,
    "dden": 3524,
    "Ġrice": 4303,
    "Ġsuuu": 16657,
    "ctors": 20252,
    "Ġjew": 14238,
    "kate": 12580,
    "bey": 9762,
    "Ġssh": 26418,
    "Ġpwease": 20659,
    "isod": 1822,
    "Ġprinters": 27195,
    "Ġupto": 13873,
    "isha": 9336,
    "Ġ(((((": 17286,
    "Ġscraping": 28276,
    "Ġpoh": 21913,
    "thinking": 10024,
    "Ġrobb": 15151,
    "olia": 24185,
    "Ġsecond": 1611,
    "mallow": 21828,
    "Ġcalendar": 8282,
    "Ġburles": 26655,
    "Ġhmmmmmm": 21219,
    "Ġnarc": 28311,
    "Ġrobbins": 19409,
    "Ġbuuuut": 22952,
    "Ġhiring": 11582,
    "pad": 10344,
    "mic": 7235,
    "zies": 22599,
    "orn": 2067,
    "Ġund": 4634,
    "Ġreviewed": 20793,
    "Ġoatmeal": 9506,
    "Ġcomprom": 17968,
    "Ġzzz": 10670,
    "Ġelectrik": 27722,
    "inals": 18072,
    "push": 26398,
    "Ġbetray": 15595,
    "Ġgoooood": 7295,
    "ching": 1477,
    "mater": 29015,
    "monday": 4470,
    "Ġsr": 10259,
    "Ġchemical": 16602,
    "Ġjupiter": 25512,
    "Ġretweets": 15002,
    "Ġcleveland": 7132,
    "Ġsword": 15234,
    "Ġwiz": 8303,
    "rep": 26431,
    "Ġfrap": 17780,
    "Ġbulb": 19579,
    "ond": 830,
    "Ġtissue": 14842,
    "Ġscam": 12103,
    "ich": 904,
    "Ġgently": 20542,
    "Ġxxx": 1491,
    "Ġilike": 28473,
    "Ġpraying": 4056,
    "anga": 15515,
    "Ġstrat": 18400,
    "Ġphotographers": 19966,
    "posted": 28325,
    "Ġsec": 1213,
    "Ġcentral": 5766,
    "Ġoracle": 14476,
    "Ġinvolved": 5899,
    "Ġcreate": 5399,
    "Ġniet": 24460,
    "Ġjunk": 5558,
    "startrek": 23698,
    "Ġsedih": 27283,
    "Ġdims": 26441,
    "mmwanted": 14217,
    "Ġintelli": 12674,
    "Ġmosqu": 6383,
    "Ġjury": 9892,
    "ust": 228,
    "Ġspoof": 29786,
    "Ġproperty": 12290,
    "Ġsnuck": 17309,
    "olla": 17153,
    "llo": 5661,
    "Ġreports": 7193,
    "Ġconsists": 19924,
    "Ġbuck": 5261,
    "etown": 24477,
    "Ġdrastic": 22178,
    "iggles": 15851,
    "Ġplzzz": 21900,
    "Ġcount": 1364,
    "(": 11,
    "Ġmethods": 18339,
    "ached": 15962,
    "Ġughh": 3920,
    "Ġconfident": 9496,
    "Ġhazel": 13509,
    "Ġpromoting": 12935,
    "Ġenuff": 12842,
    "Ġbraz": 2896,
    "illion": 8401,
    "Ġillegally": 27863,
    "Ġnotch": 19838,
    "ged": 3667,
    "Ġtimeout": 20714,
    "Ġtwink": 14868,
    "Ġinduced": 19108,
    "Ġeeeeee": 22340,
    "Ġtropical": 12933,
    "Ġwor": 248,
    "Ġfunerals": 19852,
    "Ġhomer": 13899,
    "Ġblocked": 3899,
    "uri": 13380,
    "ergh": 23163,
    "Ġpoe": 28032,
    "Ġdire": 5647,
    "ele": 9357,
    "umbed": 19911,
    "Ġleggings": 20657,
    "Ġang": 2550,
    "Ġstep": 2625,
    "Ġretweeting": 10797,
    "78": 11360,
    "xp": 20889,
    "Ġfracture": 21319,
    "Ġgla": 25708,
    "Ġintense": 6362,
    "Ġdisguise": 23118,
    "Ġsus": 2753,
    "Ġnando": 23789,
    "vited": 19427,
    "Ġfams": 29242,
    "Ġwit": 242,
    "Ġcomedy": 5938,
    "Ġsumtimes": 20118,
    "83": 21590,
    "Ġgabba": 27279,
    "Ġforr": 24814,
    "Ġalcohol": 4320,
    "bush": 26863,
    "Ġremembering": 9110,
    "Ġorganization": 18168,
    "Ġought": 13362,
    "Ġwilco": 26741,
    "Ġrotfl": 19368,
    "Ġshamp": 10880,
    "Ġkatrina": 19935,
    "xxxxxxxxxxxxxxxx": 12176,
    "lovelove": 15522,
    "ffed": 20473,
    "Ġhives": 16767,
    "nda": 5847,
    "achers": 29237,
    "Ġmean": 1019,
    "shift": 15600,
    "Ġmozzarella": 28399,
    "Ġrapidly": 20647,
    "taly": 13674,
    "why": 4106,
    "Ġhalf": 1263,
    "hahha": 27256,
    "lot": 5293,
    "Ġshannon": 10748,
    "inese": 3491,
    "mad": 9664,
    "Ġconcert": 1530,
    "Ġbitchy": 15521,
    "Ġprompt": 15816,
    "¬": 81,
    "Ġgover": 26959,
    "Ġemergency": 7218,
    "Ġjeal": 1562,
    "Ġyesterdays": 14168,
    "Ġcarlton": 20288,
    "hell": 11751,
    "wer": 9839,
    "Ġgeocaching": 27845,
    "Ġfoooo": 18875,
    "Ġkuwait": 24705,
    "Ġnuggets": 6996,
    "rows": 3295,
    "af": 3356,
    "Ġcoolest": 6836,
    "Ġreq": 24819,
    "cas": 5288,
    "Ġpukey": 28727,
    "bell": 6916,
    "Ġinsist": 12113,
    "cans": 24065,
    "Ġexced": 24904,
    "k": 50,
    "Ġtense": 17078,
    "noon": 1540,
    "odin": 18576,
    "Ġparked": 11635,
    "itters": 21863,
    "ila": 3814,
    "uela": 13954,
    "Ġfaux": 20719,
    "Ġbrowsing": 10929,
    "Ġsammi": 28751,
    "Ġgrrrrrrrrr": 28803,
    "Ġlawns": 24695,
    "pot": 5950,
    "Ġnighttt": 18245,
    "isoft": 25576,
    "Ġsist": 1336,
    "Ġhorns": 21954,
    "Ġkyle": 6263,
    "Ġfederal": 26220,
    "Ġpains": 7021,
    "rane": 12820,
    "Ġweave": 19449,
    "Ġun": 607,
    "vious": 2535,
    "ications": 12904,
    "Ġgranny": 9717,
    "Ġcongratulation": 18476,
    "oning": 10300,
    "boards": 12011,
    "Ġ-----": 18729,
    "acks": 25697,
    "Ġblister": 10507,
    "Ġuninvited": 20646,
    "Ġtorturing": 24035,
    "Ġarctic": 23224,
    "Ġtrippin": 12665,
    "Ġhealing": 9170,
    "Ġbelts": 24719,
    "Ġpointers": 29806,
    "Ġunbelievably": 13172,
    "Ġgenet": 18790,
    "uru": 25628,
    "Ġlurking": 18042,
    "goodbye": 14906,
    "Ġbrandi": 17330,
    "heat": 21844,
    "Ġsponge": 7401,
    "alc": 28537,
    "Ġgoosebumps": 19114,
    "Ġshiney": 28273,
    "Ġupdat": 26145,
    "Ġjem": 22700,
    "orean": 26981,
    "Ġcongrads": 27352,
    "Ġbedroom": 5707,
    "Ġwerk": 17232,
    "Ġpusing": 27454,
    "ork": 2139,
    "Ġamerica": 3449,
    "Ġimagine": 3387,
    "ather": 659,
    "Ġmethinks": 10181,
    "Ġpatron": 11279,
    "Ġrims": 29721,
    "Ġholla": 6762,
    "Ġpromo": 7579,
    "Ġjed": 14212,
    "Ġnpr": 23788,
    "Ġtherapy": 7073,
    "Ġbred": 24789,
    "Ġcareers": 23902,
    "Ġreleasing": 14820,
    "Ġgaaaah": 27922,
    "Ġasians": 20926,
    "Ġstreams": 17716,
    "Ġoffensive": 17953,
    "ery": 3114,
    "Ġastros": 24321,
    "Ġrochester": 16318,
    "Ġchubby": 15987,
    "Ġrelationships": 12440,
    "Ġcollin": 25757,
    "Ġcafe": 4831,
    "Ġreceptionist": 27272,
    "ku": 9698,
    "Ġtiki": 23827,
    "Ġsfo": 17213,
    "Ġpasses": 7756,
    "Ġsighting": 28283,
    "Ġtrous": 14226,
    "[": 34,
    "Ġranking": 21251,
    "71": 12572,
    "ro": 311,
    "Ġwarm": 1938,
    "Ġdistra": 7921,
    "Ġprior": 7423,
    "hall": 11619,
    "Ġcoda": 28027,
    "ense": 4140,
    "Ġlopez": 16302,
    "Ġpend": 14546,
    "ator": 2500,
    "Ġmotha": 20116,
    "gosh": 10933,
    "didn": 9301,
    "ida": 3393,
    "dig": 10257,
    "Ġcurses": 19514,
    "Ġlyrical": 27693,
    "Ġbbz": 29281,
    "lege": 22122,
    "Ġneare": 11375,
    "Ġreferences": 16537,
    "Ġliterature": 14421,
    "Ġepi": 20524,
    "Ġordering": 9351,
    "Ġcongratulate": 18306,
    "Ġjovi": 20070,
    "Ġseeds": 12409,
    "ressed": 15238,
    "Ġwhatnot": 18726,
    "...]": 27476,
    "Ġokie": 13259,
    "Ġbakery": 13987,
    "mione": 27732,
    "Ġbreaker": 19887,
    "mora": 29784,
    "Ġ04": 16139,
    "Ġscramb": 13779,
    "Ġsnow": 3299,
    "amous": 10386,
    "Ġreccome": 22835,
    "Ġtiny": 3932,
    "Ġzoom": 12968,
    "Ġroaches": 29213,
    "Ġcross": 2430,
    "Ġmale": 6884,
    "Ġconnections": 12552,
    "Ġlacking": 11352,
    "Ġscroll": 9108,
    "Ġbutttt": 28540,
    "Ġkeeper": 11868,
    "Ġbone": 7725,
    "iero": 22720,
    "Ġsv": 9432,
    "Ġrez": 18709,
    "Ġtwilight": 2327,
    "Ġmeu": 14603,
    "Ġtiesto": 27425,
    "Ġwus": 25992,
    "Ġuug": 22629,
    "Ġbeers": 7208,
    "Ġzipper": 22701,
    "Ġcupcake": 6519,
    "Ġjust": 244,
    "Ġ[:": 18959,
    "pray": 11874,
    "Ġmyyy": 26464,
    "Ġga": 2707,
    "Ġker": 5511,
    "Ġmerrier": 22758,
    "Ġportfol": 9389,
    "buy": 11430,
    "Ġwoke": 1025,
    "Ġwardrobe": 10896,
    "Ġexpression": 13980,
    "Ġfirewall": 16135,
    "under": 2175,
    "Ġ1080": 25732,
    "aser": 9314,
    "ause": 586,
    "Ġfru": 9316,
    "Ġist": 7430,
    "Ġaw": 312,
    "nen": 29017,
    "shut": 16431,
    "Ġcurrency": 24765,
    "Ġpresentation": 4376,
    "othe": 26016,
    "Ġbraces": 7068,
    "Ġresemble": 23324,
    "maid": 9764,
    "Ġngay": 21765,
    "Ġprac": 20023,
    "ble": 481,
    "Ġframework": 19969,
    "mcfly": 5727,
    "Ġdroppin": 24560,
    "Ġwave": 4707,
    "Ġcondolences": 9505,
    "Ġmoby": 22931,
    "cials": 6385,
    "Ġhippie": 18190,
    "Ġovercome": 16915,
    "Ġregret": 4745,
    "Ġselena": 5823,
    "Ġexist": 4477,
    "Ġdoggie": 8642,
    "Ġbubbly": 20822,
    "Ġdodgy": 11402,
    "\\": 35,
    "Ġdrooling": 15556,
    "Ġeat": 712,
    "Ġcody": 10267,
    "Ġhull": 16099,
    "Ġmanners": 24179,
    "Ġpin": 3507,
    "Ġweeked": 29201,
    "Ġprincipal": 23397,
    "Ġshirts": 5444,
    "Ġconnection": 3816,
    "Ġador": 3337,
    "Ġmurray": 11790,
    "Ġpeggle": 23226,
    "Ġsleeve": 13169,
    "Ġcountdown": 7321,
    "Ġfolk": 9023,
    "kisses": 18345,
    "Ġgrandparents": 6505,
    "Ġslaving": 23517,
    "37": 9429,
    "Ġluckyy": 26594,
    "thx": 10647,
    "Ġtrashed": 16916,
    "Ġdeaths": 19137,
    "....?": 17037,
    "Ġappre": 20496,
    "Ġfon": 12191,
    "cee": 11977,
    ".................": 18453,
    "Ġsophom": 16968,
    "Ġjitter": 25209,
    "Ġzan": 22202,
    "Ġrelaxation": 12726,
    "Ġevans": 13686,
    "Ġtan": 2165,
    "Ġkay": 3665,
    "Ġ1500": 16592,
    "oulder": 16900,
    "Ġshrunk": 24002,
    "Ġnavy": 11220,
    "Ġjukebox": 28985,
    "ank": 1287,
    "ories": 5769,
    "Ġwolverine": 5166,
    "Ġfollowfriday": 3984,
    "Ġlbs": 9631,
    "Ġwhatt": 20256,
    "Ġtodo": 14938,
    "ce": 268,
    "Ġflame": 16568,
    "Ġstephen": 6431,
    "Ġstun": 6669,
    "Ġperks": 16325,
    "51": 18857,
    "Ġtang": 8958,
    "Ġsurvived": 7104,
    "Ġwrote": 3331,
    "Ġreactions": 22263,
    "Ġgrips": 28272,
    "Ġstrait": 20991,
    "ashi": 16934,
    "Ġcommittee": 25139,
    "ounding": 26548,
    "Ġsmoo": 11188,
    "Ġvolleyball": 7787,
    "bra": 3974,
    "Ġcupboards": 27663,
    "Ġcoins": 21417,
    "Ġkits": 18716,
    "Ġgerman": 2404,
    "Ġconstit": 18977,
    "rrrry": 21738,
    "back": 2443,
    "Ġannouncements": 16491,
    "Ġaww": 1017,
    "Ġunle": 17811,
    "mf": 20880,
    "Ġadjust": 9192,
    "Ġsteak": 5711,
    "Ġjb": 3353,
    "gies": 17637,
    "Ġclaud": 15597,
    "Ġnecess": 6765,
    "Ġbreezy": 16161,
    "Ġtoil": 6041,
    "Ġrhythm": 16493,
    "ord": 954,
    "Ġyawning": 19413,
    "Ġyus": 20441,
    "Ġdose": 8897,
    "Ġcaught": 2717,
    "Ġgreatful": 28035,
    "Ġgreedy": 12908,
    "oppers": 15802,
    "Ġrabbit": 7903,
    "Ġsha": 695,
    "yan": 20672,
    "Ġexpert": 8765,
    "µ": 89,
    "Ġinde": 8221,
    "Ġwater": 1550,
    "Ġeyed": 8828,
    "isss": 21403,
    "Ġlotion": 11240,
    "Ġbrun": 9290,
    "Ġsodding": 27472,
    "hg": 23134,
    "pedi": 20125,
    "Ġie": 5463,
    "Ġromanian": 25095,
    "ened": 6131,
    "Ġcart": 4687,
    "Ġmisunder": 13835,
    "Ġremotely": 21047,
    "det": 22852,
    "##": 14588,
    "Ġacademy": 11258,
    "Ġsweeties": 21204,
    "Ġheadache": 1249,
    "Ġvenus": 21529,
    "Ġreeeally": 20643,
    "bat": 11572,
    "photo": 12536,
    "Ġexpires": 23318,
    ";....": 11846,
    "Ġmimi": 12744,
    "llow": 9229,
    "Ġvino": 18562,
    "Ġbreaky": 21452,
    "Ġranting": 21059,
    "tunes": 26888,
    "Ġcoffe": 12155,
    "ody": 981,
    "Ġkent": 8690,
    "icient": 25604,
    "Ġassuming": 10552,
    "Ġresources": 15013,
    "Ġtrick": 6276,
    "Ġreass": 18549,
    "Ġdsnt": 29402,
    "Ġhound": 19822,
    "Ġsecured": 26624,
    "Ġwantin": 28005,
    "Ġoverall": 7617,
    "Ġpears": 21675,
    "Ġdarren": 17706,
    "Ġshld": 10646,
    "ria": 7434,
    "Ġtemperature": 9560,
    "Ġtrivia": 11511,
    "Ġakong": 25420,
    "Ġfailures": 24601,
    "Ġtweaked": 26978,
    "Ġprints": 12866,
    "Ġalerg": 29123,
    "Ġcadillac": 25449,
    "nw": 27412,
    "Ġgums": 14963,
    "@!": 26375,
    "Ġemailing": 15250,
    "athlon": 18763,
    "Ġdedicated": 9221,
    "Ġslur": 13605,
    "Ġasdfghjkl": 28413,
    "Ġfools": 13117,
    "ready": 737,
    "Ġmccartney": 14666,
    "Ġlatter": 13418,
    "Ġcancelled": 3060,
    "usta": 24828,
    "Ġfasting": 22469,
    "Ġowt": 22752,
    "Ġa": 136,
    "imated": 18735,
    "Ġinfest": 19049,
    "miss": 3289,
    "Ġgmt": 19374,
    "mors": 29157,
    "Ġsign": 1586,
    "Ġbern": 16716,
    "throat": 24762,
    "Ġbac": 9412,
    "Ġlove": 293,
    "omo": 24826,
    "Ġcrap": 1549,
    "Ġam": 304,
    "Ġconor": 27559,
    "Ġirrit": 6370,
    "Ġ:-/": 6598,
    "Ġattacks": 13045,
    "Ġseminar": 11211,
    "Ġjac": 5013,
    "Ġcumin": 23999,
    "ī": 111,
    "usd": 24516,
    "Ġchampions": 10631,
    "huge": 21243,
    "Ġdrives": 8553,
    "fee": 4560,
    "Ġthy": 12039,
    "Ġreaching": 12498,
    "Ġphilosophical": 27382,
    "Ġpilates": 12805,
    "Ġdetox": 14175,
    "182": 13428,
    "Ġdau": 21619,
    "Ġparticip": 7736,
    "Ġwoooow": 26740,
    "grow": 20875,
    "ears": 19615,
    "Ġapartment": 3657,
    "Ġinstin": 26623,
    "Ġunderstatement": 20381,
    "Ġles": 5208,
    "bit": 3603,
    "Ġbacked": 11226,
    "hahahah": 12497,
    "Ġwaits": 16423,
    "burg": 7474,
    "Ġcitizens": 21570,
    "Ġgothic": 25487,
    "Ġaches": 6851,
    "Ġrit": 14384,
    "Ġapt": 5147,
    "Ġworkaholic": 25626,
    "Ġwars": 4279,
    "Ġep": 1307,
    "Ġworkkk": 16661,
    "dub": 15964,
    "arant": 9879,
    "Ġfavors": 27629,
    "Ġbashing": 19334,
    "Ġresults": 3723,
    "Ġapr": 4804,
    "pend": 8018,
    "Ġaspar": 18409,
    "Ġstages": 18091,
    "Ġwestlife": 21992,
    "Ġrum": 5764,
    "nay": 15651,
    "Ġtrin": 13543,
    "Ġlaurel": 29268,
    "Ġab": 322,
    "ggh": 19211,
    "grace": 17724,
    "search": 16656,
    "Ġmixture": 21305,
    "Ġ||": 12987,
    "Ġextra": 2560,
    "Ġhor": 1283,
    "Ġamazin": 11024,
    "bul": 12940,
    "Ġtlc": 13578,
    "Ġbedding": 22174,
    "Ġfist": 11577,
    "Ġdanger": 6302,
    "Ġweakness": 12069,
    "Ġria": 29101,
    "plugs": 20494,
    "Ġtraff": 20967,
    "Ġfives": 27200,
    "Ġicarly": 11976,
    "Ġtweetup": 7995,
    "ipp": 1453,
    "Ġsez": 24160,
    "Ġpes": 13247,
    "Ġeventful": 13690,
    "Ġcomplained": 19735,
    "Ġvernon": 26206,
    "stache": 20899,
    "Ġbroch": 19302,
    "Ġhashtags": 25061,
    "lands": 6903,
    "urous": 22147,
    "Ġheavier": 25899,
    "Ġcosting": 22495,
    "Ġliner": 22508,
    "Ġbunny": 4840,
    "wal": 16517,
    "Ġthread": 6200,
    "Ġinsides": 22228,
    "Ġphonecall": 19880,
    "ondition": 26133,
    "jumpnow": 11042,
    "Ġpoems": 14708,
    "james": 22095,
    "fits": 7908,
    "Ġmagically": 16822,
    "Ġresponsibilities": 20819,
    "Ġlabeouf": 24031,
    "vvvv": 13504,
    "Ġcoincidence": 12937,
    "Ġpuffs": 19001,
    "Ġnurs": 6437,
    "Ġpleasantly": 21001,
    "Ġdeact": 23989,
    "nic": 4243,
    "Ġsnacking": 23302,
    "Ġclos": 1792,
    "Ġthundering": 14350,
    "Ġdill": 15876,
    "Ġfuckkk": 22440,
    "Ġ89": 11770,
    "iya": 17496,
    "ired": 2731,
    "Ġceltics": 9928,
    "pay": 13721,
    "Ġlmfa": 3576,
    "Ġobscure": 23410,
    "Ġdual": 13451,
    "Ġnutter": 25853,
    "makes": 11046,
    "Ġfrend": 28662,
    "Ġbp": 14207,
    "Ġcarrots": 13434,
    "Ġpowerful": 9831,
    "myself": 22975,
    "Ġulcers": 23078,
    "Ġster": 9489,
    "Ġbounced": 22043,
    "Ġlawyer": 14740,
    "apped": 11822,
    "Ġtodays": 5788,
    "36": 9398,
    "Ġgrinning": 26301,
    "Ġtragedy": 10635,
    "Ġartif": 24961,
    "dding": 11594,
    "Ġeconomy": 8178,
    "Ġrunner": 11551,
    "Ġunicorns": 28361,
    "Ġjohns": 7782,
    "aker": 10321,
    "Ġdiddy": 11951,
    "Ġimmediately": 8504,
    "working": 5635,
    "pc": 11295,
    "Ġonto": 3806,
    "Ġdrifting": 21205,
    "Ġappreci": 2143,
    "Ġquota": 24602,
    "rett": 14139,
    "Ġabout": 364,
    "erved": 23787,
    "pretty": 10155,
    "taste": 22098,
    "Ġpebbles": 21925,
    "Ġroflmao": 20142,
    "Ġhunny": 8691,
    "Ġfreddy": 20821,
    "Ġoldie": 25291,
    "pages": 22594,
    "hams": 25555,
    "Ġposse": 23055,
    "tain": 5924,
    "honest": 23435,
    "Ġkroger": 27837,
    "Ġfid": 10977,
    "Ġelectrical": 17710,
    "Ġpooch": 19940,
    "Ġ2007": 10996,
    "Ġforcast": 20908,
    "Ġhella": 4096,
    "mand": 17498,
    "Ġwoww": 19499,
    "Ġparties": 4795,
    "redwings": 21905,
    "struck": 22526,
    "Ġluff": 27930,
    "hs": 4933,
    "soon": 8797,
    "Ġsuppose": 3040,
    "Ġcrane": 28103,
    "Ġrainbow": 6965,
    "Ġconst": 3906,
    "Ġvehicles": 23709,
    "Ġsmashing": 15068,
    "Ġflaked": 27048,
    "Ġnoooooooo": 5419,
    "gree": 5252,
    "Ġrecognized": 17103,
    "iranelection": 5969,
    "Ġsunburned": 7475,
    "Ġcindy": 12746,
    "Ġgirlll": 29214,
    "Ġ2004": 19330,
    "borne": 20358,
    "Ġjinxed": 19186,
    "Ġany": 380,
    "Ġwallet": 5983,
    "Ġnet": 1899,
    "Ġtotaled": 25024,
    "Ġpictured": 29850,
    "Ġches": 15233,
    "Ġplay": 581,
    "Ġsun": 580,
    "Ġdarko": 23299,
    "Ġbacc": 15671,
    "Ġsympath": 12296,
    "Ġmelting": 10556,
    "Ġgib": 14685,
    "ma": 612,
    "Ġcandles": 11435,
    "Ġparticular": 5810,
    "Ġlite": 14208,
    "Ġmember": 5717,
    "Ġcries": 11708,
    "Ġwub": 22873,
    "Ġobject": 9498,
    "teh": 15985,
    "Ġwoooooo": 12895,
    "icit": 22371,
    "thin": 4085,
    "Ġgorilla": 21562,
    "Ġdug": 13365,
    "Ġsera": 24908,
    "ron": 3221,
    "boysummer": 19353,
    "Ġfinest": 16417,
    "Ġimperial": 27847,
    "lend": 5676,
    "Ġamazingggg": 23560,
    "Ġballin": 20774,
    "gggggggggggggggg": 24721,
    "tickets": 28950,
    "Ġwentz": 19297,
    "Ġzzzz": 7491,
    "Ġvi": 4077,
    "Ġoverdue": 13197,
    "Ġdeadpool": 23909,
    "lling": 5494,
    "ÂŃ": 5253,
    "Ġlayover": 18455,
    "Ġbroken": 1869,
    "Ġ2001": 18953,
    "Ġnearest": 12995,
    "Ġfreshly": 14106,
    "Ġmut": 5889,
    "most": 1057,
    "Ġseren": 12716,
    "85": 11043,
    "Ġrepeated": 14258,
    "Ġmetall": 11917,
    "Ġalex": 2984,
    "Ġchristian": 6737,
    "Ġ!..": 29193,
    "Ġlifehouse": 29220,
    "Ġreplaying": 28902,
    "Ġchandler": 20398,
    "doing": 12548,
    "Ġbrut": 9165,
    "purple": 27333,
    "Ġshoot": 2605,
    "like": 2848,
    "Ġvancouver": 7079,
    "Â¥": 2293,
    "zes": 8868,
    "Ġpredicted": 16983,
    "Ġtherapist": 18990,
    "Ġmig": 3475,
    "Ġ240": 29997,
    "aids": 21332,
    "Ġeternity": 18849,
    "currently": 25455,
    "iger": 26072,
    "Ġchan": 1207,
    "vid": 1844,
    "Ġabbie": 24851,
    "Ġscrabble": 13905,
    "Ġgaze": 24455,
    "Ġna": 1853,
    "Ġadministration": 23408,
    "Ġfelling": 19912,
    "Ġfifth": 13228,
    "Ġboxers": 16700,
    "Ġmeters": 25333,
    "Ġoccupied": 17482,
    "Ġvc": 19061,
    "Ġyap": 23168,
    "Ġreruns": 12199,
    "Ġidle": 20739,
    "Ġjokin": 28057,
    "Ġstripes": 19734,
    "Ġroger": 8375,
    "zi": 9993,
    "corder": 20197,
    "mot": 11937,
    "Ġcheating": 9852,
    "Ġparan": 5615,
    "Ġchopsticks": 28893,
    "Ġdistribut": 15176,
    "Ġalgebra": 12095,
    "Ġurghhh": 22773,
    "eared": 4961,
    "cour": 8146,
    "Ġsil": 3933,
    "Ġdrafts": 29303,
    "Ġor": 415,
    "Ġhotttt": 28082,
    "mum": 25159,
    "Ġneighbourhood": 21063,
    "Ġresize": 24945,
    "hia": 23135,
    "Ġxdd": 12156,
    "adena": 22905,
    "Ġleaders": 17590,
    "Ġbinary": 26272,
    "Ġbball": 10365,
    "Ġfour": 2784,
    "cance": 26866,
    "Ġsiss": 18694,
    "ooping": 23002,
    "Ġwrecked": 12441,
    "Ġ2009": 3390,
    "cles": 5279,
    "Ġdatabase": 11744,
    "Ġ^.^": 15726,
    "Ġdennys": 15523,
    "Ġairlines": 14494,
    "Ġmarker": 21729,
    "vvv": 15842,
    "Ġshore": 9937,
    "Ġinterior": 19101,
    "Ġwound": 10066,
    "Ġpromoted": 18506,
    "Ġnd": 3728,
    "Ġbehaved": 25434,
    "Ġhers": 10584,
    "sies": 28459,
    "Ġtp": 9180,
    "Ġ123": 22988,
    "Ġautographed": 24277,
    "Ġdefl": 22450,
    "Ġgoldfish": 13974,
    "Ġconside": 9416,
    "Ġmotherboard": 22208,
    "iser": 7726,
    "Ġwaves": 7809,
    "Ġwhirl": 17408,
    "Ġetsy": 7771,
    "Ġbrood": 24549,
    "Ġphn": 25680,
    "Ġlacey": 23467,
    "Ġafterparty": 17962,
    "unday": 12983,
    "Ġsat": 906,
    "Ġgore": 15889,
    "Ġspeak": 2556,
    "Ġgary": 8304,
    "Ġfanbase": 28134,
    "Âļ": 10419,
    "Ġsuperrr": 26622,
    "Ġprecal": 27024,
    "hours": 7391,
    "Ġ1300": 24289,
    "Ġupgr": 3217,
    "ifts": 5332,
    "Ġgreyhound": 23328,
    "Ġvirtual": 6651,
    "Ġunset": 27040,
    "Ġrained": 4930,
    "Ġwinnie": 26609,
    "Ġdismiss": 23238,
    "Ġoohh": 13486,
    "Ġ)": 1219,
    "Ġfriendship": 7860,
    "Ġalthough": 2583,
    "Ġdayss": 19258,
    "Ġcamel": 21212,
    "tm": 23449,
    "slightly": 28427,
    "Ġthinkn": 29771,
    "Ġflatley": 12231,
    "Ġopening": 4219,
    "Ġfoot": 2044,
    "mz": 18865,
    "Ġpissy": 20323,
    "Ġnth": 18699,
    "Ġinsomnia": 4595,
    "Ġpurposes": 19336,
    "ight": 232,
    "china": 24823,
    "Ġsama": 17126,
    "Ġcory": 15031,
    "Ġfeather": 12602,
    "Ġrethink": 21874,
    "Ġdow": 3636,
    "Ġoma": 14381,
    "Ġtwt": 22920,
    "Ġbumming": 17680,
    "Ġwelcomed": 16128,
    "Ġbandage": 24963,
    "Ġpercent": 14026,
    "Ġexhausting": 8785,
    "Ġsia": 22605,
    "Ġcologne": 15147,
    "now": 2076,
    "glas": 18313,
    "Ġcosmet": 22734,
    "Ġamanda": 5873,
    "Ġgull": 27552,
    "Ġjerk": 6452,
    "songs": 29505,
    "Ġhtml": 10634,
    "Ġoregon": 10708,
    "mmmer": 16344,
    "Ġbread": 3621,
    "Ġpeer": 18256,
    "Ġbox": 2042,
    "Ġtabl": 8420,
    "said": 21766,
    "ot": 172,
    "Ġbooklet": 22977,
    "Ġnutella": 14371,
    "Ġlakes": 13245,
    "Ġdating": 6881,
    "lle": 2959,
    "Ġbodies": 13062,
    "ordered": 10442,
    "Ġenc": 22672,
    "Ġmerlot": 24294,
    "Ġhonestly": 4417,
    "uation": 4117,
    "Ġabra": 26060,
    "ogo": 21222,
    "Ġexperiment": 8393,
    "pps": 16899,
    "ulse": 18114,
    "Ġmuhahaha": 28575,
    "vert": 4272,
    "forgermany": 8858,
    "Ġleash": 26080,
    "Ġwhooo": 11225,
    "vion": 24436,
    "Ġcuzz": 13324,
    "32": 11259,
    "Ġshould": 533,
    "Ġzoo": 4444,
    "Ġpetty": 21983,
    "Ġcommen": 23845,
    "Ġcelebs": 7631,
    "ultimate": 28148,
    "Ġfrens": 26142,
    "Ġlive": 817,
    "Ġcoverage": 7126,
    "Ġtrisha": 28610,
    "Ġyeaaah": 15231,
    "Ġhardcore": 7191,
    "Ġobser": 12434,
    "Ġpeak": 10758,
    "ill": 234,
    "Ġalternative": 8884,
    "isons": 25195,
    "Ġreallyyy": 22387,
    "Ġcheerful": 16242,
    "Ġwelll": 12774,
    "Ġbushes": 21935,
    "Ġnikon": 13709,
    "Ġantenna": 27680,
    "Ġhump": 9366,
    "Ġcau": 23154,
    "Ġretrieve": 27336,
    "Ġkaka": 22913,
    "Ġaccord": 22699,
    "Ġfever": 2729,
    "Ġvideos": 2495,
    "Ġsuffers": 28232,
    "Ġtwitt": 5624,
    "tas": 16516,
    "Ġmesses": 17561,
    "ahu": 14552,
    "Ġmacbooks": 28705,
    "Ġyesturday": 16740,
    "try": 5517,
    "Ġww": 9961,
    "Ġcheaters": 27792,
    "Ġresearch": 4650,
    "Ġgonz": 27578,
    "Ġolds": 10772,
    "Ġerik": 18602,
    "Ġloc": 2452,
    "Ġgrave": 10273,
    "wordcamp": 23334,
    "Ġengaging": 24238,
    "Ġblighty": 27377,
    "Ġyahoo": 5842,
    "andal": 13310,
    "coma": 25716,
    "Ġdelish": 10112,
    "Ġboys": 1724,
    "Ġgenuine": 10367,
    "Ġlautner": 10724,
    "Ġtable": 4032,
    "nice": 6392,
    "Ġjournalists": 23677,
    "clean": 14902,
    "Ġjaneiro": 22535,
    "Ġlabe": 12418,
    "Ġmiami": 4457,
    "Ġmethod": 8720,
    "without": 12126,
    "Ġprepar": 11126,
    "Ġswish": 28613,
    "Ġgrandmothers": 25882,
    "Ġ/:": 24268,
    "lys": 29723,
    "Ġaccept": 4270,
    "Ġsassy": 20429,
    "Ġbake": 6978,
    "Ġblades": 20065,
    "06": 10186,
    "Ġstupidest": 26367,
    "puppy": 22297,
    "Ġtoen": 15210,
    "Ġspooky": 18915,
    "orice": 27933,
    "smiles": 16038,
    "Ġallows": 13089,
    "Ġingred": 11483,
    "Ġmiscar": 29332,
    "Ġdisconnect": 25084,
    "Ġparting": 22445,
    "alal": 11146,
    "Ġbras": 9761,
    "Ġ:/": 2030,
    "Ġdealers": 25800,
    "Ġmilkshake": 10787,
    "Ġchest": 4981,
    "Ġsocials": 20606,
    "Ġxoxo": 2426,
    "Ġshabby": 16434,
    "Ġshi": 8348,
    "Ġwobbly": 26223,
    "mmies": 15589,
    "Ġqueria": 25701,
    "Ġcozy": 11905,
    "Ġge": 1628,
    "Ġreluct": 20998,
    "Ġchis": 28025,
    "Ġsnowboarding": 25830,
    "Ġshares": 9298,
    "Ġcrucial": 22766,
    "Ġcompass": 16324,
    "l": 51,
    "Ġloud": 3234,
    "Ġrk": 29717,
    "Ġqik": 27688,
    "Ġvida": 21743,
    "zzy": 3949,
    "Ġwelcom": 20518,
    "Ġconvo": 6954,
    "Ġyi": 18224,
    "fant": 22094,
    "Ġdylan": 9503,
    "Ġatte": 1848,
    "Ġrevise": 4520,
    "Ġviolin": 12563,
    "racter": 29365,
    "Ġdigi": 26208,
    "Ġtams": 20424,
    "Ġisaac": 18521,
    "milk": 18837,
    "Ġeuropean": 8788,
    "Ġscorching": 20164,
    "Ġsling": 17414,
    "Ġskips": 29254,
    "Ġhose": 15701,
    "igon": 26542,
    "Ġanyone": 1133,
    "Ġwerent": 9853,
    "Ġsadder": 13467,
    "Ġlosing": 3209,
    "Ġbursting": 25446,
    "imming": 23300,
    "nin": 5863,
    "Ġcss": 9364,
    "Ġsnapping": 23007,
    "Ġangela": 12226,
    "Ġkittens": 8086,
    "Ġshucks": 9576,
    "Ġsya": 27132,
    "Ġvill": 6853,
    "fon": 7242,
    "Ġwooden": 17338,
    "Ġcarrier": 17168,
    "Ġmention": 2366,
    "Ġfelix": 22546,
    "Ġmailbox": 16470,
    "Ġintegration": 15196,
    "Ġconsol": 12728,
    "db": 14289,
    "Ġrushed": 13377,
    "bgt": 10569,
    "Ġcrush": 5124,
    "Ġdishwasher": 16375,
    "Ġlegg": 18568,
    "Ġsalad": 3882,
    "Ġmozilla": 19002,
    "Ġfamilia": 17224,
    "Ġcrafty": 20498,
    "Ġflowing": 14621,
    "Ġpressure": 5808,
    "Ġhaze": 22621,
    "eeep": 29280,
    "Ġphot": 1115,
    "bless": 15963,
    "Ġscratched": 9002,
    "Ġxk": 25671,
    "Ġ630": 13758,
    "Ġtrap": 12785,
    "Ġrevol": 13567,
    "flix": 8500,
    "Ġrumours": 17351,
    "Ġtwitters": 3418,
    "trust": 17711,
    "Ġfeel": 358,
    "Ġnom": 3725,
    "Ġfriendster": 13821,
    "testing": 27764,
    "Ġventing": 22784,
    "Ġregards": 12619,
    "Ġ~~": 20761,
    "Ġshapes": 22430,
    "Ġwilliam": 6160,
    "Ġdrinkin": 8119,
    "cloud": 19539,
    "Ġcrash": 3827,
    "Ġalaska": 11082,
    "Ġsubscirbeeee": 25523,
    "Ġearning": 18755,
    "Ġcops": 8480,
    "Ġslit": 28007,
    "ormed": 8452,
    "Ġouchies": 16239,
    "ighb": 2763,
    "Ġflavored": 16970,
    "abi": 13550,
    "Ġ14": 2329,
    "Ġstalling": 28351,
    "Ġmobileme": 24299,
    "Ġauto": 6083,
    "''": 6022,
    "Ġrewards": 26951,
    "ornin": 20778,
    "Ġblat": 27562,
    "ulas": 25661,
    "Ġsed": 7553,
    "Ġnervous": 3102,
    "ink": 316,
    "cost": 19504,
    "60": 3458,
    "Ġjumped": 7733,
    "night": 947,
    "Ġaber": 15143,
    "Ġsmallest": 19717,
    "Ġbeli": 17658,
    "Ġmoments": 5702,
    ";": 30,
    "Ġreason": 1561,
    "Ġbother": 4010,
    "Ġairports": 17700,
    "Ġresponsibility": 15741,
    "Ġpartic": 4313,
    "Ġsending": 3048,
    "itudes": 29071,
    "Ġwaking": 2468,
    "flakes": 23923,
    "Ġrestrict": 17559,
    "Ġcoconut": 10828,
    "Ġbilly": 6087,
    "Ġpotatoes": 8981,
    "Ġsands": 29146,
    "Ġheater": 10464,
    "Ġcong": 1289,
    "Ġ(&": 8494,
    "Ġteam": 1877,
    "ssup": 24859,
    "high": 10490,
    "iy": 12079,
    "obe": 8637,
    "baw": 29622,
    "Ġstan": 8214,
    "delongeday": 11441,
    "Ġphenomenal": 16746,
    "Ġheadset": 18578,
    "Ġfoward": 13176,
    "ayan": 19636,
    "Ġgabe": 12016,
    "Ġcabin": 8697,
    "Ġgiveaway": 8761,
    "Ġpocket": 6173,
    "Ġbans": 19628,
    ",(": 22849,
    "Ġgu": 425,
    "Ġaaaaaaaaa": 11492,
    "Ġking": 3335,
    "Ġchewy": 25277,
    "Ġsna": 2435,
    "Ġpretending": 11291,
    "Ġpew": 28607,
    "hent": 14001,
    "Ġrein": 16407,
    "Ġlibrary": 3400,
    "Ġgrandmas": 11599,
    "Ġtakers": 15330,
    "Ġfret": 19304,
    "Ġvisited": 7832,
    "Ġsp": 408,
    "Ġraspberry": 12693,
    "Ġjapanese": 5204,
    "Ġnoggin": 29752,
    "Ġcurly": 8519,
    "Ġpastors": 28711,
    "Ġserve": 8736,
    "Ġkari": 28812,
    ";.&": 5471,
    "Ġquebec": 19152,
    "Ġlesbian": 12070,
    "Ġsumthing": 16598,
    "Ġdefinitely": 1657,
    "Ġcured": 22207,
    "Ġinterpretation": 26836,
    "Ġfiring": 20676,
    "Ġderm": 27746,
    "Ġcocon": 10199,
    "Ġdemi": 2889,
    "Ġecho": 13732,
    "Ġlls": 16095,
    "twittertakeover": 20337,
    "inki": 19261,
    "Ġbringin": 19901,
    "arena": 28060,
    ")...": 6626,
    "american": 15549,
    "cellent": 27153,
    "Ġsteroids": 24013,
    "Ġwoohooo": 14895,
    "Ġgreed": 29158,
    "Ġhunting": 5720,
    "600": 13992,
    "Ġtiredness": 17301,
    "Ġeldest": 19777,
    "Ġefron": 13007,
    "wife": 13432,
    "Ġdessert": 7505,
    "ually": 804,
    "lis": 19619,
    "Ġvoc": 8261,
    "Ġicons": 11164,
    "Ġcruel": 6856,
    "Ġcoffees": 22204,
    "tre": 12941,
    "Ġunt": 938,
    "Ġneo": 21161,
    "Ġein": 13934,
    "Ġbugs": 4957,
    "Ġports": 21746,
    "Ġaloud": 10431,
    "Ġventura": 22028,
    "Ġwimbledon": 8010,
    "reat": 5643,
    "anyway": 18153,
    "Ġnavigation": 27826,
    "Ġaur": 18214,
    "Ġauss": 5893,
    "wine": 15468,
    "Ġplanets": 26149,
    "Ġdancin": 14803,
    "Ġbrazilian": 9391,
    "sitting": 15928,
    "Ġsc": 583,
    "Ġmonitoring": 23395,
    "Ġirene": 26248,
    "Ġritual": 19405,
    "Ġmtn": 19568,
    "Ġgreatt": 20720,
    "Ġpleased": 5301,
    "Ġscrapbook": 14279,
    "Ġattempt": 4781,
    "tay": 10713,
    "Ġpam": 11177,
    "Ġparang": 24921,
    "Ġrelated": 5547,
    "Ġtitled": 25382,
    "gokeyis": 17899,
    "pist": 17122,
    "knight": 20417,
    "Ġabroad": 13141,
    "rolls": 21996,
    "others": 28042,
    "Ġleta": 29211,
    "Ġvou": 9010,
    "Ġsweeeeet": 20278,
    "Ġindones": 7713,
    "Ġmba": 16287,
    "Ġabund": 19662,
    "oute": 18402,
    "Ġsumthin": 10700,
    "uce": 4623,
    "Ġdrag": 3367,
    "isk": 23798,
    "Ġyy": 26449,
    "Ġtransmission": 20322,
    "·": 91,
    "Ġhorrific": 16361,
    "Ġloops": 19143,
    "Ġpromising": 10054,
    "Ġmarcus": 12915,
    "Ġmichelle": 6420,
    "Ġhotels": 12865,
    "Ġgreensboro": 25464,
    "Ġveter": 18943,
    "berly": 20281,
    "Ġsyll": 28147,
    "Ġdinosaur": 14586,
    "Ġavg": 20539,
    "Ġbnp": 8446,
    "Ġcompiling": 27069,
    "Ġunless": 3366,
    "oli": 8647,
    "Ġremo": 3918,
    "Ġpra": 4528,
    "Ġshakin": 27590,
    "Ġcollectors": 27244,
    "hoooo": 15764,
    "urnal": 17433,
    "Ġkevin": 4211,
    "print": 13401,
    "Ġprovin": 22941,
    "Ġmemo": 13871,
    "heartedly": 28948,
    "Ġhopefully": 1342,
    "Ġherb": 18119,
    "uttering": 25590,
    "Ġtwitpics": 10687,
    "Ġtexas": 3658,
    "Ġbio": 3410,
    "luck": 4720,
    "Ġsingin": 16225,
    "Ġprovid": 6779,
    "Ġcenter": 4310,
    "Ġingredient": 25462,
    "Ġ@-)": 18768,
    "heading": 19123,
    "Ġemil": 18281,
    "Ġstarvin": 21938,
    "Ġyun": 16648,
    "Ġphotoshoot": 7610,
    "Ġsci": 10770,
    "Ġgifted": 21574,
    "Ġcarlin": 29859,
    "Ġoften": 2921,
    "Ġelephants": 19000,
    "Ġvenez": 14521,
    "Ġtoddlers": 24708,
    "Ġeu": 5122,
    ".-": 5430,
    "),": 3596,
    "Ġrelig": 6859,
    "Ġengineers": 26753,
    "Ġreplying": 5807,
    "Ġgrumpy": 6823,
    "sorry": 3950,
    "eno": 20045,
    "Ġbaker": 9677,
    "oms": 7276,
    "Ġisp": 15665,
    "raining": 16472,
    "Ġdooo": 12522,
    "Ġram": 5020,
    "Ġimho": 15588,
    "Ġvanished": 16142,
    "Ġtransaction": 23283,
    "Ġvomit": 10538,
    "Ġhse": 28505,
    "tweeted": 23008,
    "Ġmeditation": 16590,
    "dear": 18283,
    "Ġmagnum": 24011,
    "Ġwiv": 11448,
    "brain": 16685,
    "Ġnether": 11310,
    "azing": 5955,
    "Ġomelette": 23378,
    "Ġplaza": 13018,
    "Ġunst": 16564,
    "Ġacce": 7022,
    "arms": 13528,
    "Ġbrook": 7099,
    "Ġtweeple": 6692,
    "Ġfood": 1065,
    "Ġtypical": 6325,
    "uesday": 23452,
    "Ġdedication": 14510,
    "Ġhistory": 2598,
    "Ġpans": 16399,
    "Ġunfold": 27647,
    "moms": 25055,
    "Ġhahahah": 5180,
    "isn": 18542,
    "Ġlobby": 13533,
    "Ġcontrad": 26675,
    "Ġlabels": 20850,
    "Ġhalo": 7034,
    "Ġveil": 29912,
    "fs": 7182,
    "Ġbn": 6591,
    "Ġbelated": 8975,
    "Ġlaughter": 9929,
    "Ġcompetitive": 18491,
    "Ġgeometry": 14244,
    "really": 5564,
    "Ġsocial": 3267,
    "fake": 22590,
    "Ġhub": 10882,
    "Ġtriumph": 26127,
    "Ġtalkative": 26140,
    "vac": 13653,
    "Ġtripping": 16926,
    "Ġfair": 1786,
    "Ġtimeless": 29128,
    "Ġriders": 22480,
    "Ġbaths": 20332,
    "Ġjordin": 13424,
    "worms": 28657,
    "Ġdull": 6144,
    "Ġshowtime": 15685,
    "Ġsubstance": 26830,
    "Ġrounded": 28192,
    "Ġ1230": 25332,
    "Ġtimez": 24514,
    "bable": 28441,
    "hahah": 8101,
    "Ġrebuild": 14602,
    "Ġeffort": 5514,
    "Ġrobinson": 24982,
    "Ġshu": 11502,
    "lea": 20910,
    "Ġevo": 23926,
    "Ġcamera": 2223,
    "Ġfl": 630,
    "tumb": 24078,
    "Ġpowers": 8703,
    "Ġwel": 1079,
    "Ġlak": 2314,
    "Ġunapp": 26730,
    "Ġpresident": 7826,
    "Ġassassinate": 25102,
    "Ġfandom": 20268,
    "Ġdava": 29887,
    "Ġ59": 15996,
    "Ġvicks": 28003,
    "pir": 16387,
    "times": 6412,
    "Ġoutside": 1173,
    "Ġbrick": 9863,
    "Ġfinnish": 18841,
    "Ġnachos": 12132,
    "Ġfaulty": 19468,
    "Ġnemore": 19058,
    "Ġsurgeries": 28990,
    "Ġtats": 18211,
    "Ġhatch": 21970,
    "lined": 12166,
    "Ġfucking": 1692,
    "Ġweekend": 620,
    "iken": 24246,
    "js": 9484,
    "Ġspoons": 23025,
    "Ġpapercut": 29977,
    "Ġelsewhere": 12280,
    "hence": 27434,
    "Ġindesign": 27638,
    "Ġbeeen": 24651,
    "Ġwadd": 24089,
    "Ġpresu": 20275,
    "Ġgiz": 18078,
    "photos": 20389,
    "iban": 25760,
    "Ġincentive": 24057,
    "Ġfreelance": 13027,
    "iah": 10475,
    "Ġnows": 24837,
    "Ġdumped": 10966,
    "ndom": 12316,
    "vod": 25985,
    "Ġcredits": 11882,
    "Ġaccomplish": 9869,
    "Ġthrough": 1180,
    "Ġbrrrr": 21671,
    "Ġemirates": 25138,
    "Ġcardinals": 23285,
    "gim": 24419,
    "anything": 17185,
    "Ġfridays": 6033,
    "Ġjacks": 12380,
    "Ġdan": 860,
    "Ġshirtless": 17325,
    "Ġmaintain": 13564,
    "Ġnf": 29677,
    "Ġimprov": 17460,
    "Ġeating": 1225,
    "Ġstories": 4466,
    "Ġmr": 1978,
    "proud": 27107,
    "orient": 23468,
    "Ġmeals": 11860,
    "Ġchun": 25257,
    "Ġlid": 12359,
    "gh": 192,
    "cgft": 20184,
    "Ġultras": 15633,
    "word": 4171,
    "Ġmultiply": 9593,
    "Ġflats": 13099,
    "Ġisabella": 25891,
    "Ġtones": 23855,
    "Ġleigh": 20060,
    "ridge": 10871,
    "pizza": 25538,
    "Ġbangalore": 13571,
    "Ġexcessive": 20178,
    "Ġcompensate": 24390,
    "arella": 24557,
    "Ġgoats": 17934,
    "Ġbahahahaha": 22380,
    "broken": 6664,
    "Ġblinded": 28850,
    "Ġindividuals": 27315,
    "hea": 15301,
    "iin": 11261,
    "Ġocd": 16402,
    "Ġtommorrow": 7925,
    "Ġ//": 6390,
    "park": 8432,
    "Ġnauseous": 11442,
    "Ġfig": 1607,
    "aaa": 1988,
    "Ġcoldstone": 18279,
    "Ġdoll": 2680,
    "call": 6652,
    "cit": 24064,
    "Ġimages": 6841,
    "Ġendless": 9766,
    "major": 21438,
    "Ġbroadband": 9251,
    "Ġsaves": 14149,
    "Ġbyee": 10839,
    "Ġcliffhanger": 25103,
    "Ġscrap": 9778,
    "buzz": 18961,
    "dock": 27147,
    "isation": 13798,
    "Ġouting": 11016,
    "Ġdanity": 27609,
    "Ġglasgow": 6908,
    "?)": 4297,
    "Ġexplain": 4016,
    "Ġkillers": 8240,
    "Ġmuppets": 29543,
    "Ġinfinity": 23705,
    "Ġhook": 3249,
    "Ġcarb": 16922,
    "Ġbiggie": 14885,
    "Ġdrs": 17044,
    "Ġprinting": 10369,
    "Ġear": 625,
    "Ġtwitterholic": 29798,
    "Ġoffended": 10769,
    "Ġgenie": 26673,
    "Ġmoore": 12989,
    "drink": 19557,
    "Ġmower": 15123,
    "chet": 13388,
    "Ġpimple": 15277,
    "Ġsurviving": 16845,
    "Ġspins": 29785,
    "Ġsissy": 10065,
    "Ġreagan": 26488,
    "Ġphotovia": 26182,
    "Ġbothers": 15938,
    "Ġindivid": 11154,
    "cht": 12259,
    "Ġbusier": 24578,
    "Ġsniff": 4625,
    "store": 8269,
    "bash": 26861,
    "Ġ^^": 4046,
    "Ġtoodles": 21656,
    "Ġconfl": 16231,
    "akan": 24882,
    "Ġpuzz": 19122,
    "Ġfinishes": 13143,
    "Ġheight": 9755,
    "ting": 333,
    "Ġnadal": 6215,
    "ither": 1241,
    "onment": 9310,
    "nte": 20456,
    "Ġsplints": 25915,
    "Ġlang": 3351,
    "dis": 6893,
    "Ġdense": 26688,
    "Ġresource": 17113,
    "Ġuuuuu": 22358,
    "¨": 77,
    "couver": 6939,
    "Ġhappened": 1681,
    "ourage": 15391,
    "Ġbout": 1652,
    "Ġtorrent": 9806,
    "Ġvending": 16684,
    "Ġreece": 29485,
    "Ġmetal": 6377,
    "unk": 1582,
    "gress": 4582,
    "*****": 27682,
    "Ġ:[": 10548,
    "Ġ0": 2278,
    "Ġlmaooo": 13624,
    "Ġcob": 16198,
    "lete": 21598,
    "Ġscifi": 20279,
    "Ġrumors": 12350,
    "twas": 18588,
    "Ġrosa": 18822,
    "Ġcheers": 3261,
    "Ġ____": 18377,
    "onder": 6960,
    "history": 28933,
    "Ġcavities": 21568,
    "aaaa": 1050,
    "Ġseason": 1465,
    "Ġbroccoli": 16270,
    "Ġscarlett": 25928,
    "Ġyung": 10936,
    "sens": 19835,
    "Ġbird": 3346,
    "Ġagencies": 25471,
    "Ġbradley": 13704,
    "ongo": 27534,
    "Ġbrighten": 13216,
    "Ġmona": 20951,
    "Ġ^": 3188,
    "Ġargue": 10948,
    "Ġdrows": 17650,
    "edo": 21381,
    "Ġhandle": 4116,
    "Ġmari": 12914,
    "genius": 23338,
    "Ġyip": 9605,
    ");": 26371,
    "Ġtgif": 5985,
    "Ġbeats": 6262,
    "Ġshield": 17034,
    "Ġcompy": 27605,
    "Ġdilemma": 15957,
    "Ġdeciding": 11123,
    "asel": 28612,
    "Ġfreck": 16577,
    "Ġlemon": 4757,
    "Ġsimon": 7228,
    "uba": 13318,
    "Ġsandwich": 4436,
    "Ġvox": 27533,
    "Ġinad": 28512,
    "Ġhellll": 19690,
    "Ġansw": 1837,
    "Ġfruits": 14844,
    "Ġactive": 6926,
    "alert": 29109,
    "Ġnaomi": 21240,
    "Ġdarlings": 25419,
    "Ġwen": 4818,
    "Ġwonderful": 1642,
    "yikes": 23769,
    "Ġphilippine": 22267,
    "Ġatomic": 29737,
    "Ġnum": 9904,
    "bc": 5090,
    "Ġichat": 13507,
    "Ġamer": 2017,
    "ounds": 6915,
    "auth": 18858,
    "Ġbarbecue": 14922,
    "Ġsoooooon": 28777,
    "Ġknoxville": 23412,
    "Ġslush": 16906,
    "Ġcrazyy": 22032,
    "Ġplanted": 14050,
    "fuly": 22279,
    "Ġvalues": 20348,
    "Ġlull": 14686,
    "Ġverge": 16350,
    "Ġlo": 217,
    "Ġcreated": 6330,
    "Ġhorribly": 10088,
    "Ġunforgettable": 25950,
    "Ġcroy": 27926,
    "Ġcomputer": 1372,
    "pect": 1577,
    "Ġpartying": 5890,
    "Ġcruisin": 28804,
    "Ġroam": 27050,
    "Ġwelllll": 29156,
    "Ġbumpin": 25862,
    "pin": 10972,
    "Ġuk": 2083,
    "Ġquiero": 25282,
    "Ġmanual": 11303,
    "Ġpoll": 6865,
    "Ġcarly": 17166,
    "xbox": 12252,
    "Ġalas": 4366,
    "Ġfisher": 18662,
    "crosses": 21563,
    "Ġelement": 9169,
    "stew": 18701,
    "Ġcapt": 10402,
    "Ġpunish": 11645,
    "Ġdoughnut": 11648,
    "Ġintens": 25429,
    "Ġguilt": 11301,
    "Ġpsykoid": 22321,
    "soci": 10323,
    "Ġnjoy": 23469,
    "Ġlouie": 19558,
    "Ġobnoxious": 15458,
    "Ġchav": 24877,
    "Ġshakespeare": 15855,
    "Ġdefiantly": 25739,
    "Ġret": 1840,
    "lance": 11330,
    "poster": 24970,
    "app": 1347,
    "Ġpne": 15033,
    "Ġala": 20709,
    "Ġacho": 20891,
    "Ġplzzzz": 29140,
    "Ġgooo": 10978,
    "stown": 16293,
    "Ġslugg": 18411,
    "Ġ.......": 8970,
    "Ġdoggies": 12831,
    "series": 26247,
    "playing": 15528,
    "haps": 3431,
    "lovee": 29151,
    "Ġinsight": 11726,
    "Ġcatholic": 15954,
    "silver": 26346,
    "spring": 12370,
    "Ġgrie": 20078,
    "Ġsnort": 28689,
    "ole": 5285,
    "Ġphone": 772,
    "dn": 11214,
    "Ġpossum": 21241,
    "wing": 5271,
    "Ġtrynna": 23541,
    "Ġwere": 631,
    "Ġsik": 20428,
    "Ġlooooong": 15940,
    "Ġcruiser": 29382,
    "Ġparalyzed": 27843,
    "Ġgn": 7884,
    "Ġheeeey": 18893,
    "Ġstead": 26157,
    "Ġtoenail": 22071,
    "Ġhallo": 17455,
    "Ġalum": 12048,
    "ayette": 26450,
    "yee": 29649,
    "Ġsealed": 23521,
    "priced": 21467,
    "Ġcreative": 4681,
    "Ġwidgets": 24735,
    "Ġbsod": 25860,
    "Ġdateline": 14039,
    "Ġholly": 3566,
    "Ġhasta": 24466,
    "phere": 20008,
    "Ġbebo": 8961,
    "Ġsunlight": 16800,
    "agus": 17816,
    "Ġlarry": 9174,
    "Ġdeh": 12713,
    "Ġgodfather": 19098,
    "nat": 5132,
    "Ġcounseling": 28384,
    "Ġfizz": 21850,
    "Ġvibrate": 23393,
    "Ġpodcasts": 11837,
    "beat": 7681,
    "noticed": 29913,
    "havent": 22610,
    "Ġharrison": 18651,
    "Ġgan": 14939,
    "Ġrect": 23806,
    "Ġclimate": 13843,
    "Ġhairdresser": 13916,
    "had": 4689,
    "Ġtweeter": 6426,
    "Ġchocol": 1813,
    "Ġahold": 21214,
    "Ġcommission": 13335,
    "?": 32,
    "unks": 15890,
    "says": 24431,
    "Ġoutdoors": 11610,
    "Ġluckk": 27597,
    "Ġnooooooo": 9744,
    "Ġmechanic": 18842,
    "Ġchars": 16429,
    "oir": 21110,
    "Ġariz": 8651,
    "Ġgcs": 23461,
    "Ġawee": 17670,
    "Ġspf": 19274,
    "Ġtyson": 13183,
    "Ġbukas": 19485,
    "Ġgaps": 26438,
    "Ġcale": 10695,
    "Ġregent": 21144,
    "Ġreve": 9138,
    "Ġextras": 21474,
    "Ġska": 23569,
    "Ġwonderfully": 13551,
    "Ġhiphop": 20599,
    "Ġgiant": 5364,
    "Ġtim": 3769,
    "Ġjoel": 9318,
    "Ġ530": 13615,
    "shoot": 18925,
    "Ġwnt": 10423,
    "Ġwhim": 22657,
    "Ġgq": 27920,
    "Ġnotes": 4647,
    "Ġhurts": 1095,
    "Ġsiento": 25551,
    "eri": 27934,
    "Ġluna": 18992,
    "Ġdruid": 29468,
    "Ġremove": 7477,
    "youever": 10554,
    "zie": 11174,
    "fucking": 14426,
    "Ġevryone": 22801,
    "Ġnoel": 21648,
    "Ġdns": 17769,
    "bay": 3930,
    "Ġhideous": 16488,
    "Ġculprit": 27769,
    "Ġsurrender": 22705,
    "Ġpuerto": 11877,
    "graphic": 22826,
    "haus": 27911,
    "Ġlame": 2300,
    "Ġuna": 4558,
    "Ġshanghai": 14848,
    "Ġadelaide": 12813,
    "ppy": 1489,
    "Ġbasketball": 5211,
    "Ġay": 4854,
    "Ġcass": 6511,
    "Ġtripl": 23558,
    "Ġlololo": 22152,
    "Ġevol": 16827,
    "Ġ:'": 2614,
    "Ġcondition": 5862,
    "Ġpoodle": 19042,
    "Ġmeet": 1314,
    "Ġetiquette": 29595,
    "Ġsnob": 24026,
    "Ġtouching": 9648,
    "Ġ43": 13542,
    "Ġconcl": 9419,
    "Ġpolaroid": 16369,
    "rops": 19029,
    ";|": 27388,
    "21": 7983,
    "Ġmilky": 17315,
    "Ġust": 17927,
    "lif": 9204,
    "Ġkickboxing": 19119,
    "Ġbud": 1884,
    "Ġgand": 23460,
    "Ġfrag": 12832,
    "ned": 2146,
    "Ġstatuses": 25028,
    "ride": 18069,
    "gokey": 15965,
    "hern": 5856,
    "Ġbrows": 4703,
    "Ġtutor": 6495,
    "Ġ2": 313,
    "Ġstard": 19254,
    "Ġcampbell": 17067,
    "Ġbmx": 28892,
    "Ġrelate": 9615,
    "Ġconsumer": 19412,
    "Ġmuscle": 6745,
    "Ġemotion": 4932,
    "Ġchilled": 9645,
    "Ġfancied": 27866,
    "Ġbrink": 29183,
    "Ġdove": 18404,
    "arazzi": 12318,
    "Ġempty": 3359,
    "Ġcracked": 6955,
    "Ġfibre": 28944,
    "Ġraleigh": 16655,
    "Ġwebs": 1953,
    "Ġstephenie": 22792,
    "Ġtasted": 9804,
    "Ġsuite": 10072,
    "Ġreplys": 20763,
    "Ġnemo": 12091,
    "gives": 17379,
    "Ġcathed": 27619,
    "Ġpome": 22115,
    "Ġaaliyah": 25991,
    "Ġwigg": 26424,
    "damned": 29372,
    "Ġco": 431,
    "Ġjun": 3908,
    "Ġsamee": 24639,
    "80": 6040,
    "Ġnewbie": 12473,
    "Ġparcel": 16809,
    "Ġhort": 17773,
    "Ġweirdos": 27140,
    "Ġmare": 19660,
    "Ġjoining": 6491,
    "Ġnie": 4360,
    "Ġcomputing": 17979,
    "Ġmargar": 7501,
    "hetti": 9775,
    "Ġfeed": 2835,
    "Ġbask": 19333,
    "Ġrevenue": 29469,
    "Ġroyal": 7651,
    "Ġsample": 11009,
    "Ġnooooo": 5574,
    "Ġconcent": 6145,
    "daughter": 14128,
    "Ġsii": 17914,
    "Ġhereeee": 28591,
    "Ġswansea": 28937,
    "look": 4258,
    "Ġchallenge": 5316,
    "Ġearphones": 13024,
    "Ġsigns": 8023,
    "Ġdhabi": 28375,
    "Ġsplash": 12168,
    "Ġjib": 25208,
    "Ġsitting": 1374,
    "Ġii": 4683,
    "Ġwelly": 28020,
    "Ġmonthly": 10206,
    "Ġyester": 21425,
    "Ġmck": 16882,
    "Ġlayed": 22475,
    "thouse": 27987,
    "Ġbulgaria": 26357,
    "Ġsnuggie": 23052,
    "Ġneighbor": 4717,
    "Ġperth": 8331,
    "robot": 18723,
    "Ġhaters": 7963,
    "Ġsuggest": 2730,
    "Ġsunglasses": 6139,
    "Ġstriped": 15728,
    "Ġbk": 4951,
    "Ġcedric": 22291,
    "Ġfag": 14329,
    "Ġservers": 8073,
    "rants": 29643,
    "Ġprocessing": 13979,
    "pensive": 20578,
    "dled": 22853,
    "Ġpout": 10350,
    "Ġmcg": 29952,
    "Ġholdin": 23001,
    "Ġstace": 28527,
    "Ġhazard": 28289,
    "Ġstub": 9460,
    "Ġlottery": 9166,
    "Ġcrispy": 14916,
    "Ġreg": 1703,
    "Ġscouts": 23544,
    "Ġgator": 16183,
    "Ġkiki": 20915,
    "ishing": 10945,
    "Ġheavenly": 15630,
    "Ġreallly": 9594,
    "Ġcountry": 2585,
    "Ġboreed": 21298,
    "Ġrising": 11900,
    "shit": 5666,
    "Ġinterests": 18604,
    "Ġsour": 4231,
    "Ġatleast": 4785,
    "Ġfather": 2176,
    "Ġbabe": 2328,
    "Ġblurry": 12934,
    "bri": 22324,
    "Ġwreck": 8445,
    "Ġeek": 8228,
    "Ġmuh": 12262,
    "Ġrashes": 29436,
    "blip": 21739,
    "Ġjc": 12041,
    "Ġstress": 2055,
    "Ġtoolbar": 21774,
    "Ġitaly": 4613,
    "Ġkri": 26035,
    "Ġmong": 15655,
    "Ġgeeky": 12624,
    "Ġpimpin": 18660,
    "covered": 25306,
    "Ġtracker": 26699,
    "Ġoper": 4053,
    "Ġguidance": 22841,
    "pos": 8679,
    "Ġchipper": 20480,
    "Ġgeeze": 24280,
    "grrr": 21595,
    "Ġeng": 1318,
    "Ġexpertise": 28324,
    "Ġ51": 15066,
    "Ġhated": 6487,
    "Ġspoilers": 11607,
    "Ġsuccess": 3075,
    "aced": 4620,
    "apsed": 17868,
    "Ġuneasy": 28356,
    "Ġchoose": 4398,
    "Ġfourth": 9832,
    "Ġchillin": 2716,
    "Ġproc": 12050,
    "Ġbias": 20341,
    "Ġplatform": 11650,
    "Ġmoulin": 25908,
    "Ġawhhh": 23833,
    "Ġsexier": 25779,
    "Ġsabrina": 17901,
    "iterate": 26687,
    "Ġitv": 13302,
    "Ġ?.": 16323,
    "Ġeliza": 26788,
    "Ġ01": 22740,
    "aunt": 14792,
    "Ġenri": 25267,
    "Ġcheats": 27577,
    "Ġstreak": 12116,
    "Ġbrake": 15617,
    "aves": 22711,
    "Ġrevised": 16461,
    "Ġhurt": 1333,
    "aware": 21233,
    "bored": 10255,
    "Ġdup": 12402,
    "zzi": 29244,
    "Ġagian": 18413,
    "Ġdismissed": 28084,
    "Ġabundance": 26348,
    "worth": 11241,
    "Ġalittle": 16309,
    "Ġpresentations": 13772,
    "Ġrecs": 21956,
    "Ġdvr": 6726,
    "spons": 18272,
    "antis": 16308,
    "Ġfou": 21617,
    "Ġsqueeze": 11568,
    "Ġthankfully": 7161,
    "Ġblocking": 9196,
    "*!": 15460,
    "Ġjerseys": 27186,
    "Ġroar": 20284,
    "Ġbacardi": 26515,
    "Ġbind": 17645,
    "Ġsleepies": 29805,
    "Ġcracker": 12387,
    "cous": 20196,
    "Ġcurfew": 24236,
    "Ġdaddys": 16990,
    "Ġunlikely": 14193,
    "fl": 1856,
    "Ġ[": 2449,
    "---": 5027,
    "Ġapartments": 16705,
    "ianca": 13552,
    "Ġwich": 12584,
    "Ġces": 28489,
    "Ġcollage": 16229,
    "comics": 23882,
    "Ġmew": 23808,
    "thm": 14386,
    "Ġwinery": 24216,
    "Ġasher": 20254,
    "Ġhuuuge": 29537,
    "ors": 1355,
    "Ġshorter": 9967,
    "Ġ182": 10056,
    "Ġkicking": 5192,
    "Ġweatherman": 27614,
    "together": 22960,
    "Ġbirthday": 892,
    "Ġhellllll": 27601,
    "Ġmeanie": 12004,
    "Ġpa": 1273,
    "Ġsrsly": 7359,
    "Ġzom": 27094,
    "Ġturbo": 17195,
    "cue": 5815,
    "Ġreported": 13971,
    "mite": 11980,
    "Ġ.........": 16941,
    "ylvania": 20382,
    "Ġ17": 2810,
    "nel": 2557,
    "fw": 11979,
    "Ġaudio": 5436,
    "Ġincomplete": 17775,
    "almost": 9104,
    "Ġnge": 20222,
    "Ġheating": 11988,
    "Ġ.": 666,
    "Ġnil": 20440,
    "Ġremoval": 21273,
    "Ġviewing": 10248,
    "Ġstrict": 12162,
    "Ġreel": 16894,
    "44": 11212,
    "yard": 6106,
    "Ġconnector": 27716,
    "Ġdaycare": 14012,
    "loose": 22820,
    "Ġentrepreneur": 22567,
    "hows": 19801,
    "Ġsabb": 21172,
    "Ġwaht": 27242,
    "Ġregistered": 9692,
    "military": 22052,
    "Ġstoned": 19649,
    "Ġbesties": 7455,
    "mins": 5562,
    "inejad": 27014,
    "Ġtempor": 8163,
    "Ġmilwaukee": 13768,
    "Ġheadlines": 21190,
    "Ġsunny": 1510,
    "Ġspan": 3257,
    "Ġjayk": 28797,
    "Ġripp": 27492,
    "Ġbumpy": 25861,
    "pro": 2618,
    "Ġbrainstorming": 21579,
    "Ġtryout": 26565,
    "Ġpayed": 17062,
    "Ġprogrammer": 21504,
    "Ġvertigo": 25486,
    "Ġluc": 13268,
    "Ġdifficulty": 20803,
    "Ġmichaels": 19602,
    "Ġchoco": 12917,
    "Ġalicia": 15052,
    "micro": 25066,
    "eda": 26941,
    "tb": 14524,
    "Ġbarista": 27652,
    "Ġgoddammit": 25927,
    "Ġhicc": 7823,
    "Ġzzzzzzz": 23684,
    "Ġreese": 15887,
    "Ġpoly": 13311,
    "points": 20550,
    "Ġproduction": 9019,
    "Ġavocado": 18362,
    "Ġracist": 14508,
    "Ġbrittney": 25057,
    "iod": 4223,
    "Ġmcfly": 2883,
    "Ġdisney": 2749,
    "Ġducks": 10123,
    "Ġvets": 13322,
    "Ġcinnamon": 9925,
    "Ĳ": 117,
    "lly": 1601,
    "Ġmyth": 12901,
    "Ġathe": 17941,
    "stein": 11320,
    "Ġpuzzles": 25933,
    "Ġimm": 6744,
    "1000": 13788,
    "Ġhummm": 21196,
    "Ġlenny": 20806,
    "gue": 4092,
    "Ġick": 9563,
    "Ĥ": 104,
    "Ġcuteee": 23588,
    "Ġlordy": 23966,
    "Ġsht": 24835,
    "Ġfreaks": 11276,
    "Ġsalary": 16694,
    "Ġboyf": 15240,
    "ffin": 11376,
    "Ġinspiration": 5138,
    "Ġdigs": 17847,
    "Ġpermit": 13478,
    "Ġandd": 16405,
    "Ġstomache": 15820,
    "eeee": 800,
    "Ġbelive": 8539,
    "arl": 19245,
    "Ġcristina": 29540,
    "Ġoc": 7885,
    "pack": 4498,
    "Ġsooooooooooooo": 25310,
    "mint": 16754,
    "shops": 18133,
    "Ġivy": 10638,
    "aahh": 19276,
    "inos": 15871,
    "brien": 14557,
    "hran": 11835,
    "Ġgelli": 28716,
    "asco": 16100,
    "sm": 3347,
    "Ġmassa": 28184,
    "Ġ40": 3125,
    "Ġmoderation": 23360,
    "osaurs": 20632,
    "Ġnotified": 26047,
    "Ġembedded": 27335,
    "Ġban": 2186,
    "athan": 7930,
    "Ġtriathlon": 22434,
    "Ġbranch": 14364,
    "Ġbusy": 1243,
    "Ġgooey": 28704,
    "Ġshitty": 3852,
    "Ġdrawn": 14036,
    "Ġcookie": 4789,
    "Ġrick": 5650,
    "Ġmartini": 13701,
    "Ġlsu": 23785,
    "Ġpon": 11370,
    "Ġhahahahaha": 6860,
    "Ġdea": 6512,
    "º": 94,
    "Ġenrollment": 21086,
    "hens": 8525,
    "Ġamazing": 822,
    "Ġgastric": 27823,
    "lap": 15120,
    "Ġchamps": 13950,
    "Ġ;/": 23245,
    "Ġvolunteer": 9718,
    "Ġstores": 5993,
    "Ġglut": 13201,
    "Ġtra": 932,
    "Ġoverflow": 24876,
    "Ġmeter": 20536,
    "Ġhugg": 25710,
    "Ġmanaged": 3761,
    "Ġimpatiently": 22294,
    "Ġlin": 3873,
    "oes": 29637,
    "Ġacer": 23589,
    "Ġdrift": 14977,
    "Ġnorth": 3432,
    "icity": 17935,
    "Ġplaces": 3698,
    "Ġcreepy": 5143,
    "Ġchipmunk": 23045,
    "Ġshortstack": 28710,
    "Ġauditions": 11879,
    "Ġconsistently": 25453,
    "Ġtotal": 3673,
    "god": 5409,
    "Ġdonald": 15586,
    "vs": 3184,
    "Ġtwe": 10197,
    "Ġinqu": 17134,
    "Ġlaundromat": 29359,
    "Ġclosest": 8319,
    "cam": 5830,
    "Ġuhhh": 9705,
    "Ġcastro": 25386,
    "Ġiris": 27426,
    "Ġtnt": 15388,
    "Ġunpacked": 18994,
    "bank": 13358,
    "Ġringtone": 12229,
    "concert": 28142,
    "Ġratt": 18711,
    "jury": 8631,
    "Ġscuba": 24195,
    "iii": 3639,
    "Ġwoods": 8006,
    "Ġoccup": 12501,
    "Ġindication": 28687,
    "Ġclowns": 17477,
    "hew": 3246,
    "Ġreadin": 14800,
    "Ġmalay": 23639,
    "Ġimpact": 12022,
    "Ġ404": 16476,
    "sole": 12367,
    "Ġaut": 2441,
    "Ġbck": 11752,
    "Ġconvenient": 16868,
    "Ġscientific": 23382,
    "Ġcolon": 19708,
    "wonderful": 25459,
    "Ġshindig": 27376,
    "Ġweirdness": 26181,
    "Ġshind": 23823,
    "Ġrediculous": 19705,
    "Ġrend": 14080,
    "Ġmeatloaf": 23344,
    "Ġsnuggled": 15270,
    "Ġnewfound": 28573,
    "Ġdepe": 4109,
    "Ġhalt": 23792,
    "Ġjustify": 15218,
    "zin": 14681,
    "Ġwrestle": 25078,
    "quake": 26050,
    "esha": 23799,
    "awesome": 7056,
    "Ġdaisy": 8814,
    "Ġcamaro": 26177,
    "Ġcatfish": 24587,
    "Ġemi": 25736,
    "Ġmelody": 13913,
    "Ġridiculous": 4034,
    "Ġforgets": 23920,
    "Ġflee": 19288,
    "Ġdra": 1658,
    "exams": 20571,
    "feeling": 9029,
    "Ġunderwear": 11385,
    "Ġtila": 12260,
    "Ġvids": 5105,
    "Ġcalam": 27660,
    "Ġgooood": 6000,
    "irts": 4038,
    "rock": 7173,
    "Ġniiice": 20859,
    "Ġfitz": 27178,
    "Ġrey": 12524,
    "Ġtrophy": 14753,
    "Ġanticipation": 15111,
    "Ġcompre": 16215,
    "Ġknots": 22659,
    "Ġconstruction": 9902,
    "Ġorp": 20057,
    "Ġsopr": 22121,
    "Ġmisss": 10266,
    "Ġsurvey": 11774,
    "Ġdivine": 13341,
    "personal": 23399,
    "Ġunread": 16118,
    "summer": 6947,
    "gara": 20668,
    "Ġvogue": 22662,
    "Ġgcses": 26847,
    "Ġoy": 8916,
    "Ġlaughing": 3552,
    "Ġheeeeeeeee": 29705,
    "fighting": 26305,
    "999": 28262,
    "whatsmysection": 19781,
    "Ġcheck": 842,
    "Ġwife": 2306,
    "Ġmeantime": 12550,
    "Ġstef": 15813,
    "Ġsurveys": 26841,
    "Ġcities": 11368,
    "Ġawwww": 2723,
    "exha": 24279,
    "Ġbare": 3101,
    "Ġhello": 1334,
    "Ġspain": 4756,
    "Ġkeynote": 13043,
    "Ġimpressed": 4460,
    "fram": 12276,
    "Ġironed": 25388,
    "Ġin": 187,
    "Ġdears": 26064,
    "Ġhoes": 15511,
    "Ġchi": 5202,
    "Ġracer": 28261,
    "Ġlincoln": 12496,
    "Ġsmarter": 16927,
    "followfriday": 2438,
    "!-": 15647,
    "Ġquiche": 28624,
    "its": 1343,
    "Ġv": 335,
    "Ġlosers": 13492,
    "Ġexploring": 10479,
    "Ġtextiles": 18945,
    "Ġuses": 7917,
    "Ġamd": 17532,
    "Ġjoints": 16022,
    "ide": 446,
    "Ġgloom": 4881,
    "Ġrespon": 4995,
    "Ġdundee": 18675,
    "Ġfeeder": 24149,
    "Ġbagu": 18239,
    "Ġbefore": 793,
    "Ġrequests": 9455,
    "Ġvalentine": 16867,
    "Ġvict": 3799,
    "Ġbae": 19658,
    "Ġmanc": 16427,
    "Ġfala": 26433,
    "robe": 9911,
    "Ġgarlic": 8394,
    "Ġnosy": 22656,
    "Ġfacing": 12475,
    "hi": 2966,
    "aaaaaa": 6047,
    "Â®?": 10535,
    "Ġott": 27458,
    "Ġlanes": 20370,
    "Ġdoors": 7627,
    "Ġbruises": 12685,
    "achella": 14722,
    "ashing": 7913,
    "Ġaaaww": 26225,
    "Ġpolished": 28789,
    "Ġfis": 10640,
    "rev": 22345,
    "Ġcomming": 9947,
    "Ġqualified": 18807,
    "Ġline": 2086,
    "Ġretrie": 14646,
    "castic": 11701,
    "followers": 15716,
    "Ġath": 9909,
    "comic": 24210,
    "Ġpennies": 18002,
    "info": 17007,
    "Ġbritt": 6696,
    "Ġusher": 19672,
    "Ġbarber": 21227,
    "bright": 22454,
    "Ġshort": 1497,
    "Ġglass": 2339,
    "Ġhappenin": 17969,
    "Ġscotts": 20797,
    "Ġmarkers": 24259,
    "feature": 27017,
    "Ġkeynes": 25803,
    "own": 508,
    "Ġwoz": 25826,
    "think": 5388,
    "Ġcassidy": 29441,
    "Ġlivejournal": 17552,
    "Ġ----": 16551,
    "rel": 4550,
    "Ġprimark": 21482,
    "es": 182,
    "Ġppt": 22352,
    "Ġdisneyland": 6054,
    "Ġcalf": 16232,
    "Ġsexual": 12224,
    "Ġhiiii": 17814,
    "Ġsod": 10497,
    "Ġfacinelli": 27288,
    "Ġstarter": 17823,
    "Ġsocks": 6008,
    "Ġthump": 19249,
    "order": 6395,
    "Ġboss": 3174,
    "Ġtranslating": 23056,
    "Ġbaz": 20707,
    "gow": 6608,
    "Ġexcellent": 3436,
    "Ġbecky": 11585,
    "Ġperformed": 13202,
    "take": 5981,
    "Ġcoool": 12124,
    "Ġkad": 24123,
    "Ġneighbors": 6414,
    "Ġexcru": 19687,
    "Ġballet": 9830,
    "heee": 20674,
    "Ġshabb": 24896,
    "Ġhost": 3435,
    "Ġhanger": 29899,
    "Ġsbs": 20427,
    "organ": 13079,
    "fuck": 5154,
    "Ġcane": 17032,
    "ground": 2489,
    "rosse": 19742,
    "Ġpandora": 10450,
    "Ġfunctional": 20146,
    "bling": 15462,
    "Ġmuy": 16112,
    "Ġdom": 3647,
    "Ġoven": 6604,
    "Ġaurora": 25500,
    "Ġduhh": 24286,
    "Ġbonus": 7922,
    "sox": 16433,
    "ev": 5888,
    "Ġhdd": 13081,
    "Ġkurt": 20038,
    "Ġbou": 12189,
    "Ġreasonably": 24247,
    "Ġwhores": 18909,
    "Ġjessi": 24303,
    "chance": 24619,
    "probably": 11974,
    "Ġmisplaced": 18158,
    "Ġinaperfectworld": 10355,
    "Ġbono": 26217,
    "Ġshd": 22648,
    "dad": 7939,
    "Ġrole": 6376,
    "ryl": 9163,
    "Ġexpansion": 25136,
    "annoyed": 7663,
    "Ġfireplace": 27667,
    "grams": 25815,
    "Ġphysically": 10628,
    "ags": 5266,
    "Ġdin": 1003,
    "Ġfavor": 1431,
    "Ġmuch": 439,
    "Ġorganizer": 28805,
    "Ġpajamas": 13763,
    "Ġironically": 18315,
    "inator": 15389,
    "Ġshoww": 29827,
    "ue": 621,
    "Ġportsm": 18802,
    "ches": 1776,
    "Ġmug": 8371,
    "Ġruled": 22639,
    "Ġcoupon": 11973,
    "Ġoct": 4429,
    "loe": 7858,
    "Ġdonated": 15979,
    "Ġtrial": 9346,
    "Ġmonit": 14155,
    "Ġairways": 29914,
    "Ġnan": 4437,
    "Ġcapped": 21710,
    "Ġwhoooooo": 29122,
    "Ġpersona": 24934,
    "Ġput": 914,
    "pop": 7364,
    "Ġholo": 21455,
    "Ġdurham": 25060,
    "Ġcontrary": 25492,
    "Ġbentley": 25092,
    "lans": 26392,
    "Ġkenny": 9176,
    "iously": 6228,
    "uck": 417,
    "Ġballard": 24629,
    "Ġjolly": 14462,
    "Ġdeff": 7087,
    "Ġmachines": 11001,
    "Ġseesmic": 13535,
    "Ġbarcamp": 19906,
    "ograp": 6240,
    "Ġ100": 1425,
    "oise": 21111,
    "feast": 28037,
    "Ġque": 3556,
    "cheap": 18417,
    "Ġsymptoms": 9958,
    "Ġding": 10426,
    "Âĭ": 6601,
    "Ġadm": 6300,
    "Ġads": 6844,
    "Ġcheer": 2735,
    "Ġcolleen": 22217,
    "Ġlar": 3466,
    "Ġmainly": 9499,
    "bert": 3315,
    "ley": 1565,
    "Ġcil": 24456,
    "Ġnp": 8306,
    "Ġpresale": 15369,
    "Ġchristopher": 14066,
    "Ġfarrah": 5362,
    "Ġstrongly": 17851,
    "aign": 8109,
    "Ġweren": 3854,
    "Ġweary": 22128,
    "week": 8125,
    "Ġlinking": 18291,
    "Ġmelrose": 23948,
    "talking": 21117,
    "nity": 17001,
    "Ġsleepytime": 27150,
    "i": 48,
    "Ġsyndrome": 12811,
    "Ġworthy": 9553,
    "mtv": 16874,
    "Ġdeserted": 26776,
    "Ġthirt": 22904,
    "Ġgallon": 21289,
    "Ġshovel": 29296,
    "driver": 20828,
    "250": 18366,
    "Ġarn": 21674,
    "Ġarena": 11542,
    "Ġresolution": 15713,
    "Ġmasses": 19531,
    "Ġforget": 1771,
    "Ġforks": 18397,
    "pace": 5794,
    "Ġthursday": 2088,
    "normal": 13130,
    "Ġthanksgiving": 29165,
    "Ġheld": 7172,
    "Ġserendipity": 25952,
    ".,": 6023,
    "iremember": 28667,
    "Ġmayb": 10132,
    "idad": 26955,
    "Ġact": 733,
    "agne": 8071,
    "Ġwacky": 22390,
    "Ġmalaysia": 10377,
    "Ġkicked": 4131,
    "eable": 13460,
    "Ġmisle": 24985,
    "Ġdancefloor": 24966,
    "Ġtexting": 4406,
    "Ġanoop": 14695,
    "Ġmum": 1868,
    "Ġcaps": 6983,
    "clipse": 7703,
    "Ġastron": 17605,
    "Ġlx": 23466,
    "Ġcrappy": 3313,
    "Ġbumps": 17318,
    "Ġstrateg": 22218,
    "'ll": 419,
    "Ġfiled": 14243,
    "Ġhurting": 3540,
    "Ġblehh": 20786,
    "oda": 13749,
    "Ġvolvo": 21024,
    "Ġlawl": 16474,
    "Ġmis": 2372,
    "calypse": 18677,
    "Ġserves": 16213,
    "chineselearn": 28965,
    "Ġmuppet": 21328,
    "Ġnaman": 7902,
    "Ġdeactivated": 29585,
    "Ġrelatives": 11691,
    "Ġbottle": 3701,
    "Ġcolorful": 16144,
    "Ġole": 8895,
    "Ġcpr": 19816,
    "Ġoodles": 25164,
    "Ġnight": 382,
    "Ġcooling": 18137,
    "Ġfollower": 3442,
    "ando": 6925,
    "Ġiced": 6308,
    "Ġwashes": 29740,
    "Ġchillax": 8409,
    "Ġtraum": 10773,
    "ated": 907,
    "Ġtoward": 14684,
    "Ġgetting": 554,
    "Ġquick": 1960,
    "Ġrory": 25599,
    "Ġblock": 3198,
    "Ġsprinkler": 26296,
[...]
